[PAD]	0
[UNK]	0
[BOS]	0
[EOS]	0
[unused0]	0
[unused1]	0
[unused2]	0
[unused3]	0
[unused4]	0
[unused5]	0
[unused6]	0
[unused7]	0
[unused8]	0
[unused9]	0
[SEP]	0
[SEPT]	0
[MASK]	0
u/	0
b/	0
l/	0
o/	0
n/	0
▁	-1.79021
.	-2.85764
?	-3.86049
,	-4.30577
▁그	-4.49231
▁거	-4.61554
▁아	-4.8053
▁근데	-4.83171
이	-4.88626
▁안	-4.89081
도	-5.03899
▁뭐	-5.05702
가	-5.06744
▁어	-5.15514
는	-5.26858
▁막	-5.29789
을	-5.36504
▁그냥	-5.4232
▁내가	-5.44201
지	-5.45286
▁한	-5.50159
에	-5.51647
▁그런	-5.52224
고	-5.54888
▁나	-5.58106
▁진짜	-5.58901
▁그래서	-5.61691
은	-5.63709
▁이제	-5.66704
▁다	-5.7041
▁거야	-5.81365
▁게	-5.81611
를	-5.82788
만	-5.84198
▁좀	-5.85735
▁그거	-5.91576
▁나는	-5.93236
▁때	-5.9958
▁너무	-6.00419
▁잘	-6.06466
▁많이	-6.07172
▁아니	-6.10442
▁같애	-6.13444
▁또	-6.13832
▁약간	-6.13931
서	-6.16043
야	-6.21127
▁수	-6.21492
▁우리	-6.22514
로	-6.24082
어	-6.26724
▁되게	-6.26923
▁못	-6.27798
나	-6.28254
다	-6.29332
▁응	-6.2988
▁이런	-6.30435
▁그게	-6.34204
▁내	-6.34378
▁그렇게	-6.3533
대	-6.35684
▁너	-6.36309
▁하고	-6.36589
▁이렇게	-6.37465
▁지금	-6.40475
▁더	-6.41072
에서	-6.42692
▁있는	-6.43129
하고	-6.44817
잖아	-6.46785
▁해	-6.46808
▁난	-6.46941
▁하는	-6.47324
▁있어	-6.51278
▁그때	-6.52544
▁나도	-6.56574
▁쫌	-6.56952
▁할	-6.58398
기	-6.58542
▁그래	-6.5858
요	-6.588
게	-6.60656
▁같은	-6.62224
▁왜	-6.62314
한	-6.65039
▁음	-6.67129
▁그니까	-6.68906
인	-6.69116
▁1	-6.72823
▁그리고	-6.75089
▁거기	-6.76455
▁아니야	-6.76735
해	-6.78671
▁돼	-6.78837
으로	-6.80736
▁그럼	-6.81736
▁맞아	-6.81852
▁엄청	-6.82778
▁2	-6.83919
시	-6.85528
면	-6.87567
는데	-6.89441
랑	-6.89757
▁번	-6.90137
구	-6.91172
데	-6.91447
라	-6.91879
하는	-6.9279
진	-6.93569
▁같이	-6.94016
리	-6.94964
▁건	-6.96
▁계속	-6.97076
▁뭔가	-6.97571
일	-6.99428
할	-7.01843
▁것도	-7.02134
니까	-7.02466
▁없어	-7.03243
▁거지	-7.04171
▁그러면	-7.04505
▁사	-7.04706
▁어떻게	-7.05602
▁3	-7.0648
▁데	-7.06592
▁가서	-7.07961
들	-7.08658
네	-7.08943
▁딱	-7.09025
▁있고	-7.09118
▁이게	-7.09506
▁그래도	-7.10103
의	-7.10672
▁있잖아	-7.10828
라고	-7.11156
▁원래	-7.12714
가지고	-7.12806
아	-7.15313
▁걸	-7.15709
단	-7.18507
스	-7.19571
▁하	-7.20407
▁몇	-7.20457
▁먹고	-7.20939
거든	-7.23288
▁해야	-7.23645
년	-7.2394
▁있는데	-7.24395
이랑	-7.24583
▁보고	-7.25286
다고	-7.25466
긴	-7.26536
▁일	-7.27654
▁두	-7.28302
▁정도	-7.28384
자	-7.2874
▁봐	-7.29211
▁이거	-7.2935
▁사람	-7.30321
▁거의	-7.30367
▁되는	-7.30511
▁그치	-7.31496
월	-7.31665
▁같은데	-7.32262
주	-7.32372
▁말	-7.32429
▁했는데	-7.32439
사	-7.33758
▁일단	-7.34418
▁갈	-7.35236
▁무슨	-7.35301
까지	-7.35818
▁사람이	-7.36383
▁걔	-7.37151
▁해서	-7.37239
▁주	-7.38915
▁얘기	-7.38916
▁아이	-7.39573
인데	-7.39812
▁오	-7.40523
▁하나	-7.41946
이야	-7.42488
▁다른	-7.44588
▁돈	-7.45044
▁하면	-7.46081
▁살	-7.47014
▁인제	-7.47188
▁별로	-7.47687
▁그건	-7.4769
▁어떤	-7.47874
▁너가	-7.48034
▁원	-7.48239
▁솔직히	-7.48913
▁맨날	-7.49011
▁거기서	-7.50063
해서	-7.50188
▁보니까	-7.50858
▁좋은	-7.51294
▁개	-7.51475
▁가는	-7.52662
장	-7.53066
▁했어	-7.55293
▁그걸	-7.55398
니	-7.55662
▁4	-7.55907
▁될	-7.55965
▁우리가	-7.56412
▁날	-7.56442
▁가고	-7.56522
▁말이야	-7.5748
▁하는데	-7.57483
▁줄	-7.57544
들이	-7.58118
더라고	-7.58196
분	-7.58544
▁자기	-7.59236
▁있지	-7.59481
드	-7.60175
▁생각	-7.6036
▁그래가지고	-7.61452
▁않아	-7.61499
수	-7.61582
까	-7.62596
▁몰라	-7.62694
▁다시	-7.62796
▁세	-7.62928
▁오늘	-7.62982
▁수도	-7.63507
하게	-7.64348
▁거는	-7.65709
▁보	-7.65927
▁와	-7.66038
▁학교	-7.66228
▁때문에	-7.66652
▁집	-7.66677
▁사실	-7.67157
▁아니면	-7.67771
▁저	-7.6804
▁하지	-7.68073
▁요즘	-7.68322
▁애들	-7.68491
▁제일	-7.69344
▁야	-7.69435
▁어제	-7.69752
▁완전	-7.6993
▁좋아	-7.70553
▁아니라	-7.70578
하	-7.70731
▁되는데	-7.71105
▁정말	-7.71166
▁걔가	-7.71586
인가	-7.7159
▁5	-7.71664
던	-7.72177
▁시	-7.72432
▁본	-7.73013
▁갑자기	-7.73104
▁없는	-7.73533
▁마	-7.74752
치	-7.75317
▁있을	-7.75494
▁반	-7.75536
면은	-7.75656
▁건데	-7.75838
래	-7.75998
▁너는	-7.76054
보다	-7.76544
▁어디	-7.76592
▁되지	-7.77573
부	-7.78053
▁사람들이	-7.78129
▁영화	-7.78242
▁이번에	-7.78578
▁그거는	-7.78737
▁아예	-7.7897
▁시간	-7.7908
▁보면	-7.79249
▁것	-7.79277
이나	-7.79297
과	-7.79382
▁달	-7.79461
학년	-7.79617
▁갔다	-7.80156
▁그것도	-7.80262
▁싶어	-7.80271
▁전에	-7.80577
▁바로	-7.8121
▁이케	-7.81688
부터	-7.82036
원	-7.82621
▁알아	-7.83217
▁때는	-7.83491
▁니가	-7.83817
▁아직	-7.83841
▁생각을	-7.83968
▁되고	-7.84479
▁술	-7.84553
▁그러면은	-7.84599
▁한번	-7.85086
▁집에	-7.85409
러	-7.86101
▁볼	-7.86143
▁모르겠어	-7.86598
거	-7.86887
비	-7.87315
▁혼자	-7.87386
▁10	-7.87911
▁그럴	-7.88135
트	-7.88393
▁아니고	-7.88677
▁자	-7.88778
밖에	-7.89474
냐	-7.89546
▁한데	-7.89557
▁아마	-7.89593
▁명	-7.89907
▁친구	-7.89959
▁간	-7.9007
오	-7.90158
▁차	-7.90247
▁뭐지	-7.90308
하면	-7.91384
▁정	-7.91398
▁가면	-7.91457
▁까	-7.92252
마	-7.92294
가지구	-7.93357
▁알바	-7.93423
다가	-7.9348
▁애들이	-7.93695
전	-7.93763
▁얼마	-7.93874
▁전	-7.93959
▁봤어	-7.94193
▁비	-7.94387
▁언제	-7.9463
▁왜냐면	-7.9465
정	-7.94907
▁여기	-7.95082
▁말고	-7.95134
▁그서	-7.95565
질	-7.95917
한테	-7.96053
▁나중에	-7.96848
▁사람들	-7.97005
▁하니까	-7.97245
▁맞어	-7.97301
▁나한테	-7.97996
▁그러니까	-7.98609
개	-7.98825
신	-7.98879
▁그러고	-7.98894
▁않을까	-7.98927
▁그거를	-7.99901
라는	-7.99912
▁여행	-8.0004
상	-8.00208
▁엄마	-8.01324
하지	-8.01644
▁애	-8.03067
▁밥	-8.0379
▁공부	-8.03836
▁싶은	-8.03904
▁가지고	-8.03926
▁생각이	-8.03934
▁빨리	-8.04236
▁뭐야	-8.04599
만원	-8.06028
으니까	-8.06274
▁6	-8.06583
더라	-8.06621
▁생각해	-8.07081
▁만약에	-8.07161
▁어차피	-8.07879
▁중	-8.08011
▁뭘	-8.08055
으면	-8.08239
▁그렇지	-8.08486
여	-8.08557
▁네	-8.08577
구나	-8.08585
▁금	-8.08728
던데	-8.08867
동	-8.09213
면서	-8.09228
▁알	-8.09399
처럼	-8.0954
▁큰	-8.09654
▁게임	-8.09692
▁먹을	-8.1024
겠지	-8.104
차	-8.11083
▁해도	-8.11316
보	-8.11543
화	-8.12234
▁하면은	-8.12808
▁아냐	-8.13474
성	-8.14242
▁보면은	-8.14391
했어	-8.14446
우	-8.15139
박	-8.1557
명	-8.159
▁모	-8.1647
▁일본	-8.16479
▁얘기를	-8.1655
적으로	-8.16836
▁자기가	-8.16895
▁거잖아	-8.17068
려	-8.17254
▁많아	-8.17302
▁그까	-8.17468
시간	-8.17475
▁있으니까	-8.17606
▁해가지고	-8.1798
▁엄마가	-8.18281
선	-8.18713
두	-8.18827
▁있으면	-8.18904
적인	-8.19133
▁걔는	-8.19176
▁처음	-8.19235
미	-8.1953
▁들어	-8.196
▁없고	-8.20204
▁먹는	-8.20267
실	-8.20302
겠다	-8.20691
▁니	-8.20799
▁유	-8.20975
었어	-8.21027
점	-8.21197
▁신	-8.21419
거나	-8.21544
▁보는	-8.21694
음	-8.2182
▁무	-8.22008
제	-8.22079
▁열	-8.22236
▁나랑	-8.22575
▁언니	-8.22611
▁항상	-8.22693
▁여자	-8.23849
▁사진	-8.24295
▁싫어	-8.25221
▁배	-8.25234
▁다음	-8.25435
이라고	-8.25654
식	-8.25741
▁느낌	-8.26691
▁바	-8.26952
▁알고	-8.26961
▁타	-8.27012
려고	-8.27039
집	-8.27489
방	-8.27741
▁타고	-8.27969
▁적	-8.28013
▁소	-8.28059
▁부	-8.28345
▁어쨌든	-8.28512
▁가지	-8.28547
▁집에서	-8.28768
▁가야	-8.2882
▁보통	-8.28924
▁20	-8.29058
걸	-8.29243
▁되잖아	-8.29382
▁열심히	-8.29897
▁하면서	-8.30045
▁중에	-8.30422
▁봤는데	-8.31345
▁걸로	-8.31763
▁시간이	-8.31909
▁운동	-8.31967
산	-8.32451
▁돈이	-8.32776
▁형	-8.32956
져	-8.33323
▁있다	-8.33695
소	-8.33704
▁따른	-8.33878
▁예	-8.33937
번	-8.34702
으	-8.34786
천	-8.34844
▁온	-8.35294
학	-8.35354
▁상	-8.35648
세	-8.35897
▁먹어	-8.36163
▁남자	-8.36165
엔	-8.36335
▁말을	-8.36345
▁뭐라	-8.36367
▁식으로	-8.36475
히	-8.36541
▁여	-8.36544
체	-8.3697
▁제	-8.37357
▁나서	-8.37714
계	-8.37793
▁그러	-8.37895
든	-8.37974
▁되니까	-8.38081
▁이번	-8.38575
당	-8.38718
▁동안	-8.38891
▁쪼끔	-8.3893
▁있거든	-8.3897
▁시험	-8.39089
▁남	-8.3916
▁우리는	-8.39176
▁되나	-8.39806
▁군대	-8.4029
관	-8.40476
그	-8.40582
▁때도	-8.40824
문	-8.41004
▁오래	-8.41037
▁싸	-8.41042
▁끝나고	-8.4134
▁7	-8.41737
▁된	-8.42065
르	-8.42291
▁연	-8.42588
▁참	-8.42609
▁거고	-8.42628
▁되	-8.43174
호	-8.43336
▁거를	-8.43415
▁어느	-8.43429
지는	-8.43493
▁공	-8.43769
▁8	-8.44339
운	-8.44376
▁같아	-8.44853
레	-8.44904
▁조	-8.44947
▁연락	-8.45015
▁써	-8.4582
▁너도	-8.45987
프	-8.46096
▁조금	-8.46168
해야	-8.46303
▁많은	-8.46441
간	-8.46557
▁놀	-8.46593
▁머리	-8.46681
디	-8.46752
▁입	-8.46756
▁없잖아	-8.46796
급	-8.472
▁내일	-8.47448
이니까	-8.47553
▁넌	-8.47558
▁있었어	-8.484
▁물	-8.48527
▁싶다	-8.48605
무	-8.48888
▁고등학교	-8.48893
▁와서	-8.49003
적	-8.49334
▁누가	-8.49386
▁했잖아	-8.49467
들은	-8.49599
▁말이	-8.49683
매	-8.49692
▁저번에	-8.49701
란	-8.4972
▁처음에	-8.49769
물	-8.49875
▁아닌	-8.50334
▁다음에	-8.50602
▁방	-8.50633
크	-8.50682
▁아까	-8.50928
▁옷	-8.51101
회	-8.51148
▁올	-8.51149
▁굳이	-8.51255
▁갔는데	-8.51307
▁지금은	-8.51491
▁먼저	-8.51567
▁이러고	-8.52192
▁없지	-8.52272
▁옛날에	-8.52322
▁30	-8.5233
▁돈을	-8.52501
▁있었는데	-8.52777
▁불	-8.53083
▁학원	-8.53841
▁꼭	-8.53923
▁둘	-8.54102
▁봤을	-8.5413
▁쓰	-8.54212
▁대학	-8.54404
▁얼마나	-8.54607
다는	-8.54657
▁영어	-8.54763
▁기억이	-8.54973
린	-8.55069
▁이러면서	-8.55121
▁피	-8.5518
▁했지	-8.55248
▁동	-8.55439
▁싶은데	-8.55485
루	-8.56031
▁따로	-8.56247
▁확실히	-8.56432
▁수가	-8.56584
▁너네	-8.56737
었는데	-8.56904
▁그랬어	-8.56993
이잖아	-8.57228
▁그런데	-8.57295
▁나오는	-8.57339
▁사고	-8.57644
버	-8.57686
▁아닌데	-8.58089
▁대해서	-8.581
▁하잖아	-8.58159
▁걔네	-8.58305
야지	-8.58732
살	-8.58799
▁강	-8.59226
였어	-8.59342
▁맞는	-8.59452
타	-8.59531
▁있어서	-8.59586
생	-8.59682
모	-8.5971
기도	-8.59814
▁사는	-8.59863
▁나와	-8.59871
▁갔어	-8.60032
▁쓸	-8.60469
▁이미	-8.60484
▁좋아하는	-8.60538
▁애가	-8.6068
▁물론	-8.60728
바	-8.60846
▁아니면은	-8.60884
▁같고	-8.60994
▁오빠	-8.61057
▁친구가	-8.6112
워	-8.61134
▁저기	-8.61379
▁이상	-8.6145
▁모르겠는데	-8.61527
▁팔	-8.61598
용	-8.61668
▁쪽	-8.61713
▁하더라고	-8.61781
▁알지	-8.62053
▁재	-8.62097
▁책	-8.62258
이고	-8.62269
▁들어가	-8.62605
▁없는데	-8.62621
▁가면은	-8.62868
▁일을	-8.63302
하면서	-8.63584
드라	-8.63849
위	-8.64049
역	-8.64881
▁나온	-8.64892
반	-8.64907
▁한국	-8.65014
▁혹시	-8.65095
갖고	-8.65198
▁따	-8.65567
▁되면	-8.65695
조	-8.65763
▁딱히	-8.65766
▁무조건	-8.65858
▁12	-8.6602
▁노래	-8.66295
▁요즘에	-8.66331
▁9	-8.66474
▁미	-8.66689
▁아빠	-8.67102
터	-8.67331
▁뭔	-8.67342
▁건가	-8.67925
공	-8.68023
냐고	-8.68109
울	-8.68295
죠	-8.68452
▁쓰고	-8.68505
▁쓰는	-8.68754
이지	-8.68822
▁기억	-8.68826
▁하루	-8.68962
티	-8.69395
▁누구	-8.69446
▁문제	-8.69831
▁과	-8.69997
▁눈	-8.7
▁삼	-8.70041
개월	-8.70061
▁일이	-8.70213
날	-8.70222
연	-8.70334
▁핸드폰	-8.7048
▁아빠가	-8.70532
▁뭐가	-8.70699
▁가자	-8.70738
▁오히려	-8.70792
와	-8.70793
등	-8.70941
▁파	-8.70989
▁쪼금	-8.71051
▁그랬는데	-8.7144
▁요새	-8.71526
▁근	-8.71594
이면	-8.71618
▁갖고	-8.71912
▁아침에	-8.72017
피	-8.72027
▁했던	-8.72381
▁비싸	-8.72437
▁차라리	-8.72529
▁들고	-8.72535
▁힘들	-8.73026
▁없	-8.7307
▁여러	-8.73146
▁않았어	-8.73219
난	-8.73258
감	-8.73308
▁서울	-8.73314
▁아는	-8.73633
▁성	-8.73804
▁영	-8.7423
▁둘이	-8.74258
▁근까	-8.74296
▁노	-8.74333
▁느낌이	-8.74338
금	-8.74482
▁알았어	-8.74618
▁거니까	-8.75456
▁짜	-8.75533
▁앞에	-8.7557
▁좋아해	-8.75609
▁사람은	-8.75655
겠네	-8.75744
▁대학교	-8.7578
▁당연히	-8.75813
▁갔을	-8.76028
이라	-8.76247
▁나이	-8.76263
▁있	-8.76781
해가지고	-8.76782
▁발	-8.7702
▁만나	-8.7724
▁짐	-8.77359
내	-8.77568
0	-8.77583
▁나가	-8.77691
▁좋지	-8.77813
▁번도	-8.77943
릴	-8.78046
▁서로	-8.78143
▁우	-8.78179
행	-8.78235
지도	-8.78258
▁있다고	-8.78268
▁거기에	-8.78355
길	-8.78371
▁아니지	-8.78527
▁괜찮아	-8.78624
▁수업	-8.78662
기가	-8.78686
임	-8.78726
▁취업	-8.78864
▁달에	-8.79013
▁해야지	-8.79058
하기	-8.79073
▁생각보다	-8.79329
▁먹	-8.79536
▁달라	-8.79632
재	-8.79689
안	-8.80111
▁같	-8.8021
▁전화	-8.80539
했던	-8.80541
에는	-8.80581
하잖아	-8.80581
▁자꾸	-8.80819
▁된다	-8.80904
▁하긴	-8.81073
▁아닌가	-8.8112
했는데	-8.81121
▁텐데	-8.81217
▁오는	-8.81287
▁드라마	-8.81446
양	-8.81618
씩	-8.81685
▁하다가	-8.81827
▁회사	-8.8184
▁힘들어	-8.82106
건	-8.82222
파	-8.82377
▁스	-8.82378
▁많	-8.82428
▁그렇고	-8.82573
▁외	-8.82726
▁산	-8.82728
▁화	-8.82768
▁지원	-8.83091
▁자주	-8.83173
봐	-8.8318
▁분	-8.8358
국	-8.83591
백	-8.8361
업	-8.83713
▁꺼	-8.83797
▁안에	-8.83939
▁카페	-8.84836
직	-8.84872
겠어	-8.84909
▁아무래도	-8.85053
중	-8.85393
▁귀	-8.85423
▁제가	-8.85585
카	-8.85813
유	-8.85871
▁걍	-8.85882
▁언니가	-8.85993
▁순	-8.86194
▁일단은	-8.86235
시에	-8.86429
▁없으니까	-8.86539
▁입고	-8.86929
니깐	-8.86987
▁다섯	-8.87106
▁딴	-8.87472
▁없어서	-8.87905
▁있나	-8.87926
판	-8.88272
▁편	-8.88288
▁이러	-8.88471
▁졸업	-8.88489
▁주고	-8.8855
▁우리나라	-8.88715
▁않나	-8.888
▁된다고	-8.89021
▁없이	-8.89136
▁버스	-8.89148
▁거기는	-8.8915
▁코	-8.89444
▁약	-8.8946
▁받아	-8.89597
▁최근에	-8.89676
하니까	-8.89727
▁초	-8.89937
▁으	-8.8998
▁길	-8.90154
드라고	-8.90156
▁사람들은	-8.90173
▁아무	-8.90945
권	-8.91166
▁아무것도	-8.91263
▁선생님	-8.91296
▁옆에	-8.91341
▁절대	-8.91611
라도	-8.91686
▁많고	-8.91755
▁빼	-8.91821
▁뭐냐	-8.9186
겨	-8.91866
▁듣고	-8.9193
보다는	-8.91971
형	-8.92093
▁말하는	-8.92113
하는데	-8.92187
▁않고	-8.9244
하면은	-8.92564
갈	-8.92618
▁적이	-8.92929
3	-8.92943
지만	-8.92969
▁재밌어	-8.93398
된	-8.93414
▁그다음에	-8.93471
마다	-8.93519
▁양	-8.93827
▁깨	-8.93991
▁홍대	-8.94046
▁왔어	-8.94055
▁굉장히	-8.94073
하다	-8.94091
▁너랑	-8.94424
▁데가	-8.94514
달	-8.94779
▁자체가	-8.95061
▁같다	-8.9524
▁그날	-8.95368
▁아무튼	-8.95379
▁모르겠다	-8.95531
보고	-8.95536
▁일찍	-8.95578
▁중학교	-8.9559
▁땐	-8.95718
▁가기	-8.9576
포	-8.9589
▁그래가지구	-8.96112
▁거기가	-8.96255
▁중국	-8.96272
▁가게	-8.96313
▁됐어	-8.96421
▁대한	-8.96453
▁사람도	-8.96511
▁좋을	-8.96827
▁훨씬	-8.96897
▁괜찮은	-8.96938
심	-8.97101
▁싶	-8.97161
본	-8.97163
▁결혼	-8.97196
▁받고	-8.97352
▁그런가	-8.97519
▁보러	-8.97546
▁먹었어	-8.97605
학기	-8.9774
교	-8.97808
▁걔도	-8.9787
▁살짝	-8.9797
지고	-8.97989
▁저는	-8.98228
▁그때는	-8.98584
쯤	-8.98632
▁이름	-8.99074
▁부산	-8.99086
▁같긴	-8.99243
▁축구	-8.99463
▁100	-8.99508
코	-8.99562
▁음식	-8.99584
증	-8.99594
리는	-8.99686
어서	-8.99701
▁어쩔	-8.99717
▁없다	-8.99829
▁얼굴	-9.00318
▁늦게	-9.00597
▁애들은	-9.00614
▁있긴	-9.00696
▁제주도	-9.00753
▁공부를	-9.01018
▁만들어	-9.0114
▁얘가	-9.01148
▁크게	-9.01842
▁여기서	-9.01955
▁이상한	-9.0196
▁글	-9.0202
▁맞	-9.02105
주는	-9.02205
▁소리	-9.02217
저	-9.02268
▁진짜로	-9.02791
▁주는	-9.02825
▁잘못	-9.0296
▁키	-9.03117
▁놀러	-9.03758
▁죽	-9.03859
▁벌	-9.03961
▁넘	-9.04169
라서	-9.04186
▁나오	-9.04304
▁미국	-9.04466
▁다닐	-9.04499
쳐	-9.0453
▁친	-9.04575
▁하나도	-9.04603
▁면접	-9.04805
작	-9.04817
▁치	-9.0527
▁경	-9.0527
▁그쪽	-9.05401
▁예전에	-9.05424
기는	-9.05624
▁쪽으로	-9.05787
▁후	-9.05827
▁저녁	-9.05839
주고	-9.0586
▁친구들	-9.0599
▁하자	-9.06048
▁손	-9.06072
복	-9.06273
셨	-9.06383
▁했	-9.064
▁어디서	-9.06504
더	-9.06546
▁백	-9.06708
▁보면서	-9.06712
▁선	-9.06748
▁한다고	-9.06885
▁봐야	-9.06889
줄	-9.06924
▁아직도	-9.07098
한다고	-9.07134
▁영상	-9.07141
▁준	-9.07218
▁가끔	-9.0735
▁별	-9.07405
이었어	-9.08044
▁가장	-9.08051
발	-9.08211
▁방학	-9.08342
▁고민	-9.08346
▁맛있는	-9.08485
▁수능	-9.08506
▁보내	-9.08512
▁매	-9.08567
통	-9.08582
군	-9.0871
▁때부터	-9.08774
혀	-9.08776
▁목	-9.08806
▁없을	-9.08847
력	-9.09121
들을	-9.09286
▁먹으면	-9.09353
까진	-9.0954
▁아침	-9.09602
▁갔다가	-9.0965
즈	-9.09667
▁유튜브	-9.09698
▁11	-9.09721
▁나올	-9.09754
▁했거든	-9.09776
종	-9.09876
▁신경	-9.10449
▁좋겠다	-9.10655
▁그걸로	-9.10801
▁하다	-9.10849
▁다들	-9.10923
토	-9.11031
▁허	-9.11068
▁잠깐	-9.11094
▁살아	-9.11624
▁예를	-9.11654
▁없었어	-9.11685
준	-9.11771
▁옛날	-9.11823
한다	-9.11844
했다	-9.12177
▁모든	-9.12246
▁얘길	-9.12613
▁위	-9.12624
▁포	-9.12646
▁누나	-9.12744
▁받는	-9.12818
글	-9.12983
▁건지	-9.13123
▁뭐라고	-9.13163
▁올해	-9.13232
▁한다	-9.13381
원이	-9.13396
▁아니잖아	-9.13402
▁얘기해	-9.13444
▁너한테	-9.13482
▁나오고	-9.13603
▁거라고	-9.13677
월에	-9.13786
2	-9.13816
브	-9.13827
▁다니고	-9.13896
석	-9.13904
영	-9.14101
▁않	-9.14148
배	-9.14301
층	-9.14522
▁뒤에	-9.14523
에다가	-9.14638
경	-9.14782
▁장	-9.14974
▁통	-9.15108
절	-9.15177
▁있어야	-9.15207
▁들어서	-9.15359
▁준비	-9.15401
▁그러는	-9.15543
▁제대로	-9.15557
더니	-9.15586
있	-9.15672
▁50	-9.15718
▁민	-9.15819
▁돼서	-9.15929
▁얘	-9.15969
속	-9.16011
▁잠	-9.16234
▁똑같은	-9.16311
▁그것	-9.16471
▁따라	-9.16682
▁추	-9.16692
입	-9.16695
▁재수	-9.16861
노	-9.17089
▁컴퓨터	-9.17197
▁토	-9.17322
▁들었어	-9.17448
▁거랑	-9.1746
▁하기	-9.17523
▁학교에서	-9.17688
▁간다	-9.17769
에도	-9.17853
▁동아리	-9.17885
▁오고	-9.18001
▁하지만	-9.18163
병	-9.18193
▁왔다	-9.18195
이다	-9.18253
▁문	-9.18271
인지	-9.18288
▁끝나	-9.1871
▁실	-9.18722
▁크	-9.1876
▁전공	-9.18784
▁욕	-9.18993
놨	-9.18995
돼	-9.19024
▁음악	-9.19233
되는	-9.19331
▁풀	-9.19441
▁좋은데	-9.19454
▁해주	-9.19621
▁많잖아	-9.19775
대로	-9.19796
졌	-9.19893
▁밖에	-9.19928
▁가는데	-9.19976
▁말야	-9.19988
▁다니는	-9.20165
온	-9.20267
▁생활	-9.20393
▁보여	-9.20499
▁교회	-9.20588
약	-9.20598
후	-9.20691
▁이건	-9.20692
▁생각하고	-9.20709
▁때마다	-9.20834
애	-9.2096
되	-9.2097
먹	-9.21044
▁40	-9.21134
▁뭔지	-9.21278
▁오빠가	-9.21294
였는데	-9.21372
▁배우	-9.21448
▁필요	-9.21459
▁시켜	-9.21463
▁커	-9.21773
겠	-9.21979
초	-9.22025
▁긍까	-9.222
▁그지	-9.22384
환	-9.22464
▁맛	-9.22533
근	-9.22639
▁벌써	-9.22652
출	-9.22911
▁힘든	-9.23306
플	-9.23411
리고	-9.23439
▁않냐	-9.23468
▁봐도	-9.23506
품	-9.23526
▁받	-9.23694
▁땜에	-9.23748
▁투	-9.23815
▁15	-9.23934
▁신청	-9.23941
▁카톡	-9.24181
▁식	-9.243
▁병	-9.2461
▁다녀	-9.24617
이라서	-9.24678
편	-9.24679
▁걱정	-9.24853
▁형이	-9.24962
했지	-9.24963
▁맨	-9.24976
▁왜냐면은	-9.24981
류	-9.25078
1	-9.25195
▁마지막	-9.25356
▁커피	-9.25417
▁있다가	-9.25461
▁짜증	-9.25511
라면	-9.25532
강	-9.25736
▁이걸	-9.25809
▁일반	-9.26102
▁맛있어	-9.26146
5	-9.26151
▁그러지	-9.2618
▁모르는	-9.2636
▁잔	-9.26374
▁않은	-9.26452
▁되면은	-9.26459
▁싶지	-9.26578
▁십	-9.26579
▁문제가	-9.26681
렸	-9.26886
봉	-9.27062
▁데서	-9.27252
▁않았	-9.27706
색	-9.27764
말	-9.27882
▁나쁘지	-9.27902
때	-9.28017
▁마음	-9.28032
▁가도	-9.28066
▁생	-9.28072
▁몸	-9.2819
었던	-9.28311
▁때가	-9.28349
▁강아지	-9.2836
남	-9.28494
▁병원	-9.28511
민	-9.28604
▁맛이	-9.28734
▁나라	-9.28925
슬	-9.29006
▁있대	-9.29014
▁마음이	-9.2913
▁할려고	-9.29304
▁보기	-9.29344
▁비행기	-9.29378
▁같기도	-9.2941
▁했을	-9.29506
너	-9.29569
▁정도로	-9.29635
▁그렇구나	-9.29718
▁이러는	-9.29893
▁봤	-9.29911
▁맞다	-9.30214
▁동생	-9.30262
▁그러면서	-9.30309
태	-9.30372
▁지하철	-9.30449
▁갔	-9.30663
▁거면	-9.30864
설	-9.30962
추	-9.31153
▁사회	-9.31334
▁잡	-9.31362
▁같애요	-9.31485
▁좋겠어	-9.31527
▁빼고	-9.31591
곤	-9.31617
▁심	-9.31715
▁좋다	-9.31831
▁놓고	-9.31923
▁똑같	-9.31992
▁될지	-9.32066
▁교수님	-9.32098
▁초등학교	-9.32121
▁자격증	-9.32151
▁어렸을	-9.32224
▁선생님이	-9.32253
▁딸	-9.32285
▁동네	-9.32408
▁여섯	-9.32525
키	-9.32573
▁이래	-9.32594
▁위에	-9.3278
▁받았	-9.32806
▁며칠	-9.3282
른	-9.32825
예	-9.33158
락	-9.3318
▁돌	-9.33188
▁나와서	-9.33373
▁자고	-9.33425
▁감	-9.33564
▁관심	-9.33582
▁외국	-9.33619
끼	-9.33692
▁있더라고	-9.33752
▁생각은	-9.33927
이라는	-9.34008
탕	-9.34117
▁일주일	-9.34545
▁새	-9.34547
▁할머니	-9.34557
▁고기	-9.34576
▁고양이	-9.3464
청	-9.34727
▁떠	-9.34781
▁거에	-9.34856
▁앞	-9.3494
▁많지	-9.34979
▁이거는	-9.34985
들도	-9.35042
했잖아	-9.35076
▁어때	-9.35084
▁번째	-9.35325
▁중요한	-9.35356
였나	-9.35433
▁건강	-9.3546
▁가야지	-9.35545
▁보지	-9.35615
격	-9.35747
▁탈	-9.35798
▁그랬잖아	-9.3597
▁가족	-9.35986
▁쳐	-9.36313
▁카드	-9.36567
는지	-9.36667
합	-9.36705
함	-9.3674
▁왔는데	-9.36799
했을	-9.36801
였	-9.36863
▁차이	-9.36869
▁수학	-9.36885
▁장난	-9.36956
▁찾아	-9.37036
▁생각하는	-9.37081
이래	-9.37129
▁우린	-9.37271
거야	-9.37271
▁만들	-9.37398
▁그랬더니	-9.37426
▁하거든	-9.37528
망	-9.37541
친	-9.37711
으면은	-9.37939
▁작년에	-9.37952
▁당	-9.38016
같이	-9.3816
▁유럽	-9.38395
▁주변에	-9.38426
▁간다고	-9.38668
▁그래갖고	-9.38768
▁새로	-9.38782
▁하루에	-9.38808
퍼	-9.38836
▁가가지고	-9.39063
께	-9.39076
여서	-9.39159
▁암튼	-9.39228
▁대충	-9.39235
▁줘	-9.3927
▁있으면은	-9.3939
셔	-9.39425
▁토익	-9.39553
▁술을	-9.3956
▁아님	-9.3962
▁알아서	-9.3972
길래	-9.39724
▁했다	-9.3997
했	-9.39975
줘	-9.40024
았	-9.4007
었거든	-9.40172
▁친구랑	-9.40178
▁재밌는	-9.40244
▁사람을	-9.40264
향	-9.40337
▁싶어서	-9.40396
▁맞지	-9.40431
▁많은데	-9.40549
▁생일	-9.40574
▁똑같이	-9.40577
▁방송	-9.40707
▁밤에	-9.4073
봤	-9.40847
▁해보고	-9.41024
▁나왔어	-9.41184
▁나왔	-9.41249
▁직접	-9.41382
페	-9.41443
지가	-9.41445
▁아주	-9.41486
▁애기	-9.41574
▁말도	-9.41687
▁가격	-9.41794
▁이러니까	-9.41859
림	-9.41961
▁말한	-9.42055
▁오면	-9.42207
▁그렇	-9.42236
▁들어가서	-9.42293
이라도	-9.42356
▁점	-9.42389
▁놀고	-9.42402
장이	-9.42511
▁복	-9.42515
▁생긴	-9.42603
▁좋고	-9.42806
▁받을	-9.42871
▁끼	-9.42886
적이	-9.4297
▁있었던	-9.43021
▁변	-9.43155
▁곳	-9.4326
▁살고	-9.43283
▁미리	-9.433
▁와가지고	-9.43415
▁밤	-9.43458
▁학	-9.43485
▁평	-9.43596
▁듣는	-9.43628
▁머	-9.43641
▁치킨	-9.43792
▁명이	-9.43809
볼	-9.44
씨	-9.44034
▁올려	-9.44127
▁기숙사	-9.44169
려면	-9.44249
▁내용	-9.4426
▁밑에	-9.44273
▁않을	-9.44323
하다가	-9.44345
▁기본	-9.44375
▁만날	-9.44468
▁호텔	-9.44482
▁강남	-9.44502
▁지금도	-9.44544
▁걔랑	-9.446
론	-9.44614
▁우리도	-9.44625
블	-9.44651
▁승	-9.44703
▁호	-9.44821
명이	-9.44826
목	-9.45022
칠	-9.4503
▁집이	-9.45036
▁총	-9.45056
▁꼬	-9.45075
▁않는	-9.45088
▁토요일	-9.4514
▁번씩	-9.4524
커	-9.45274
▁현	-9.45404
▁쪽에	-9.45527
▁일어나	-9.45608
▁워낙	-9.45609
▁낫지	-9.4568
▁망	-9.45697
▁주에	-9.45707
▁선물	-9.45804
천원	-9.45862
▁중에서	-9.45863
▁이유가	-9.4612
▁나이가	-9.46145
▁에이	-9.46149
메	-9.46228
▁맛있	-9.46257
▁빵	-9.4626
▁나름	-9.46308
▁운전	-9.46377
▁교	-9.46426
▁앞으로	-9.46649
억	-9.46715
▁부분	-9.46733
▁피자	-9.46749
▁시작	-9.46839
▁씨	-9.46909
스트	-9.46942
▁먹은	-9.46958
▁말해	-9.47097
▁있어요	-9.47124
▁공연	-9.47156
▁되겠다	-9.47233
▁팀	-9.47234
▁나가서	-9.47261
▁왔	-9.47263
▁그렇긴	-9.47288
▁학기	-9.47326
▁된대	-9.47326
창	-9.47594
▁점심	-9.47663
▁괜히	-9.47677
▁수영	-9.47748
▁이름이	-9.47862
▁중간에	-9.47935
▁애들이랑	-9.47982
하러	-9.47993
▁다니	-9.48152
▁비싼	-9.48162
점이	-9.48318
▁처음에는	-9.48417
▁확	-9.48484
▁아무리	-9.48666
▁쉬	-9.48715
▁설	-9.48727
▁그렇다고	-9.48752
▁위해서	-9.48757
▁했었는데	-9.48767
▁쓴	-9.48787
▁특히	-9.48868
투	-9.48871
▁인생	-9.48872
▁논	-9.48952
각	-9.49006
▁것만	-9.49181
션	-9.49186
▁이랬는데	-9.49198
▁노력	-9.49412
!	-9.49434
▁엄마한테	-9.49878
이가	-9.49931
▁이해	-9.50087
▁금요일	-9.50132
▁재밌게	-9.50155
▁데는	-9.50158
▁알바를	-9.50249
▁기억나	-9.50328
▁그랬지	-9.50503
잖아요	-9.50504
▁작년	-9.50541
▁파는	-9.50561
▁유명한	-9.50623
▁연습	-9.50748
▁먹으러	-9.50879
막	-9.50939
▁애초에	-9.50982
▁전혀	-9.51045
▁마시	-9.51097
▁어떡해	-9.51104
▁먹었	-9.51136
▁겨울	-9.51186
▁그다음	-9.51336
리가	-9.51337
▁보는데	-9.51469
밥	-9.5154
▁티	-9.51586
▁먹지	-9.51667
▁없다고	-9.51673
▁만드는	-9.51747
▁특	-9.51752
▁싼	-9.51791
▁봤지	-9.52048
▁돌아	-9.52055
▁아프	-9.52056
▁금방	-9.52062
▁이까	-9.52159
▁챙겨	-9.5216
▁자기는	-9.52176
▁법	-9.52239
케	-9.52262
갔	-9.52307
▁생각도	-9.52355
성이	-9.52962
▁비슷한	-9.53065
▁뒤	-9.53089
▁운동을	-9.53143
▁애들도	-9.5315
▁친한	-9.53192
▁그래야	-9.53207
▁느	-9.53267
담	-9.5328
값	-9.53384
필	-9.53394
보단	-9.53418
▁접	-9.53466
▁만든	-9.53479
▁할까	-9.53588
▁찍어	-9.53593
▁그대로	-9.5381
▁만나는	-9.53817
▁결국	-9.53865
▁뽑	-9.53876
▁같애서	-9.54111
▁했었어	-9.54129
▁끝	-9.54146
습	-9.54163
▁심지어	-9.54276
▁개인	-9.54302
한데	-9.54517
▁아니다	-9.54535
▁봐서	-9.54687
▁보이	-9.54712
▁재밌	-9.54726
졌어	-9.54785
▁시키	-9.54875
▁덜	-9.54888
▁괜찮을	-9.54896
까지는	-9.551
▁여름	-9.55102
▁일요일	-9.55177
▁밥을	-9.55228
▁무서워	-9.55307
▁알았는데	-9.55482
▁걸어	-9.55539
▁나를	-9.55545
만한	-9.55547
에서는	-9.55554
찬	-9.556
희	-9.55623
▁회	-9.5568
학과	-9.55791
▁철	-9.55817
▁듣	-9.55819
▁시에	-9.56051
▁스타일	-9.56051
▁기분	-9.56114
▁사람들도	-9.56141
▁크리스마스	-9.56152
▁좋아하	-9.56189
▁사야	-9.56307
▁담배	-9.56371
▁이야기	-9.56419
▁있었거든	-9.56495
▁해외	-9.56657
름	-9.56674
▁사이	-9.56687
▁얼	-9.56781
기로	-9.56852
불	-9.56897
▁점점	-9.56962
▁주말	-9.57021
▁같지	-9.57215
있는	-9.57221
에서도	-9.57272
▁너희	-9.57345
▁저번	-9.57382
▁태	-9.57388
▁뜨	-9.57401
▁막상	-9.57406
▁그러다	-9.57538
▁롤	-9.57567
료	-9.57573
언	-9.57626
▁먹어야	-9.5767
▁했었	-9.57754
▁부모님	-9.57821
▁정도는	-9.57959
▁가보고	-9.58053
▁자리	-9.58183
짜리	-9.58285
세요	-9.58478
▁택시	-9.58519
▁있어가지고	-9.5852
▁채	-9.58554
▁살았	-9.58562
었잖아	-9.58567
▁인정	-9.58629
거리	-9.58754
▁청	-9.58795
▁그림	-9.59003
▁편의점	-9.59054
며	-9.59066
▁거기도	-9.59075
▁엄마랑	-9.59231
▁함	-9.59279
님	-9.59282
▁아니니까	-9.59675
▁요즘은	-9.59685
견	-9.59707
▁봤거든	-9.5971
▁많아서	-9.59857
일이	-9.6017
▁어렵	-9.60224
▁됐는데	-9.60391
▁그랬던	-9.60542
▁경우는	-9.60546
▁교육	-9.60809
십	-9.60988
만큼	-9.61013
▁그나마	-9.61083
▁작은	-9.61124
▁그면	-9.61362
▁쭉	-9.61407
▁학점	-9.61448
▁것들	-9.61506
▁선택	-9.61543
▁드는	-9.61645
규	-9.61734
▁나갈	-9.6175
▁얘기가	-9.61874
▁팬	-9.61908
다니까	-9.62033
▁가니까	-9.62074
▁머리가	-9.6218
▁천	-9.62182
▁주말에	-9.62531
▁얘기하는	-9.62585
▁시간에	-9.6259
▁만나서	-9.62645
▁하더라	-9.62663
▁있던	-9.62727
▁눈이	-9.62858
처	-9.62998
▁스물	-9.63039
팅	-9.63054
▁창	-9.63106
치고	-9.63127
▁저녁에	-9.63158
▁취	-9.63176
▁아파	-9.63178
▁인사	-9.632
황	-9.63448
▁패딩	-9.63492
법	-9.63646
▁들어갈	-9.63683
▁보이는	-9.63727
시까지	-9.63755
▁사랑	-9.63893
▁대부분	-9.63899
▁해가지구	-9.63909
▁작	-9.63985
▁건물	-9.64002
▁거긴	-9.64003
▁월요일	-9.6404
▁잡고	-9.64078
▁만나고	-9.64147
튼	-9.64166
▁거예요	-9.64192
▁순간	-9.64221
링	-9.64265
해도	-9.64287
▁올라가	-9.6451
▁그리구	-9.64604
▁일하는	-9.64608
이란	-9.64717
▁있었	-9.64722
익	-9.64745
▁육	-9.64893
D	-9.65134
▁이사	-9.65162
풍	-9.65259
▁됐	-9.65273
▁몸이	-9.65277
▁해봤	-9.65291
쯤에	-9.65306
▁색깔	-9.65413
▁있을까	-9.6547
습니다	-9.6547
▁아무도	-9.65686
▁쌤	-9.6581
▁찍고	-9.66107
▁암	-9.66343
▁들어가는	-9.66434
달라고	-9.66435
표	-9.66487
▁상황	-9.66491
였지	-9.66526
▁지내	-9.66529
▁내고	-9.66564
▁좋았	-9.66568
▁안돼	-9.66608
▁그리	-9.66651
쓰	-9.66671
하긴	-9.66793
런	-9.66882
S	-9.66947
순	-9.66979
▁내년	-9.66998
▁잡아	-9.67052
▁메	-9.67091
▁엄	-9.67174
립	-9.6719
▁눈치	-9.67198
▁어머니	-9.67418
평	-9.67543
됐	-9.6777
술	-9.67845
대가	-9.6808
째	-9.68097
지를	-9.68109
▁먹었는데	-9.6811
▁문화	-9.68216
▁떡볶이	-9.68223
팔	-9.6825
악	-9.68257
▁연기	-9.68259
▁원래는	-9.683
▁경기	-9.68313
▁맥주	-9.68381
▁넘어	-9.68432
▁관리	-9.68452
▁넣어	-9.6847
▁새로운	-9.6854
▁많으니까	-9.68583
벌	-9.68615
▁요리	-9.68809
▁성적	-9.68834
▁은데	-9.68883
꺼	-9.68919
하자	-9.69082
▁해봐	-9.69083
럽	-9.69135
볼까	-9.69181
▁만난	-9.69194
덕	-9.69353
▁내년에	-9.69417
▁이래서	-9.69438
▁바다	-9.69485
▁뛰어	-9.69611
▁어려운	-9.69672
항	-9.69711
▁상태	-9.6984
▁지짜	-9.69862
▁여행을	-9.70082
이었나	-9.70106
했거든	-9.70126
▁빠져	-9.70409
▁내려	-9.70525
▁있냐	-9.70526
▁저도	-9.70552
▁상관없	-9.70588
▁책을	-9.70669
▁포기	-9.70696
▁이거를	-9.70755
▁모르지	-9.7079
▁넣	-9.70791
▁베트남	-9.70822
현	-9.70903
▁처	-9.70972
▁성격	-9.70994
▁대화	-9.71003
▁같던데	-9.71046
해야지	-9.71135
▁있겠지	-9.71217
▁정리	-9.71239
▁없으면	-9.71386
시는	-9.71386
▁카	-9.71431
▁많았	-9.71441
▁잘해	-9.71448
▁싶고	-9.7151
▁관	-9.71526
▁게임을	-9.71564
▁그러네	-9.71799
▁기분이	-9.71816
▁갔지	-9.7189
▁때까지	-9.71895
▁동물	-9.72038
▁괜찮은데	-9.72061
▁이따	-9.72217
▁관심이	-9.72228
▁웃긴	-9.72314
▁아이폰	-9.72323
▁공무원	-9.72445
▁그거에	-9.72451
▁당장	-9.72657
▁빠	-9.72742
▁베	-9.7283
▁맞춰	-9.72832
이었는데	-9.72861
이네	-9.72873
왔	-9.72937
쳤	-9.73002
가주구	-9.73003
었지	-9.73004
▁것처럼	-9.73105
▁화장	-9.73158
▁그거랑	-9.73264
올	-9.73381
▁나오면	-9.73453
▁기대	-9.73474
▁나쁜	-9.73499
▁나는데	-9.73527
▁먹자	-9.73606
열	-9.73675
▁매일	-9.7374
▁연애	-9.7384
깐	-9.73983
자고	-9.74
어야	-9.74001
▁학생	-9.74123
▁언	-9.74128
▁몰랐어	-9.74138
았어	-9.74253
▁김	-9.74278
▁청소	-9.74318
▁용	-9.7434
▁휴학	-9.74423
▁돌아가	-9.74516
▁티비	-9.74641
▁갔잖아	-9.74742
▁잘하는	-9.74871
▁그렇다	-9.74883
보자	-9.74884
▁시간을	-9.74892
▁그러더라고	-9.74896
▁이해가	-9.74913
▁말은	-9.75019
▁화장실	-9.75033
▁생겼	-9.75034
▁안데	-9.75119
자마자	-9.75164
▁했고	-9.75185
▁직업	-9.75192
▁연락을	-9.75197
냐면	-9.75204
▁내려가	-9.7521
▁상황이	-9.75237
▁국	-9.75267
▁가잖아	-9.75315
▁바뀌	-9.75319
▁바꿔	-9.75422
▁분위기	-9.75478
끼리	-9.75487
▁싶었는데	-9.7556
▁하냐	-9.75732
▁요즘에는	-9.75755
▁나가는	-9.75769
▁미세먼지	-9.75771
▁경찰	-9.75777
▁계획	-9.758
▁다르	-9.75805
테	-9.75846
▁이럴	-9.75943
▁했나	-9.75947
수가	-9.76001
▁기간	-9.76079
▁군	-9.76115
▁내용이	-9.76252
기를	-9.76312
▁실제로	-9.76314
▁걔네가	-9.76434
녀	-9.76463
▁표	-9.76535
▁괜찮지	-9.76542
▁아닐까	-9.76577
별	-9.76581
▁들었	-9.76814
▁수술	-9.76925
숙	-9.76942
▁적은	-9.77093
움	-9.77105
족	-9.77117
▁깜짝	-9.77164
▁울	-9.77173
▁모르고	-9.77268
▁걸리	-9.77284
8	-9.77308
▁교수님이	-9.77348
▁모르	-9.77385
▁저거	-9.77429
▁필요한	-9.77444
▁갔던	-9.77463
▁붙	-9.77491
▁취직	-9.7765
▁하겠다	-9.77651
▁어릴	-9.77717
꾸	-9.77755
▁앞에서	-9.77771
▁있단	-9.77865
▁할인	-9.77917
▁힘	-9.78167
▁아니었어	-9.78249
▁하겠지	-9.78337
▁끝났	-9.78364
▁정신	-9.78377
▁새벽	-9.78396
▁좋게	-9.78419
▁살이	-9.78464
축	-9.78504
범	-9.78527
▁친구들이랑	-9.78563
되고	-9.78563
▁좋다고	-9.78566
▁갈까	-9.78835
▁지역	-9.79017
▁월급	-9.79024
▁옆에서	-9.79066
▁누	-9.79323
▁역시	-9.79346
쿠	-9.79359
▁노트북	-9.79372
▁신촌	-9.79395
▁엄마는	-9.79403
이면은	-9.79464
▁동생이	-9.79493
▁지금까지	-9.79495
▁써야	-9.79509
▁샀어	-9.7953
▁말하면	-9.79677
▁취미	-9.79724
▁얘기하고	-9.79952
▁후회	-9.79965
탄	-9.79992
▁할아버지	-9.8001
였던	-9.80041
▁모아	-9.80154
▁있다는	-9.80166
▁영화를	-9.80175
▁다리	-9.80189
▁젤	-9.80227
▁가봤	-9.80232
▁이틀	-9.8027
▁추천	-9.80367
자가	-9.80469
▁친구들이	-9.80508
▁물어보	-9.80791
▁같다고	-9.80798
▁과목	-9.80849
일에	-9.80854
량	-9.80909
▁근처에	-9.80921
시부터	-9.81008
보니까	-9.81067
▁헬스	-9.81071
▁좋았어	-9.81084
▁없어가지고	-9.81144
▁재미	-9.81239
▁남았	-9.81277
▁뭔데	-9.81286
▁들었는데	-9.81294
▁디자인	-9.8132
▁최	-9.81406
책	-9.81519
M	-9.81626
꼬	-9.81934
▁그양	-9.8206
▁대박	-9.82073
겠지만	-9.8208
▁높은	-9.82117
▁여름에	-9.82375
▁경우에는	-9.82451
▁났	-9.82521
▁거에요	-9.82612
▁이후로	-9.82666
▁형은	-9.82704
▁중요하	-9.82733
▁기사	-9.82738
▁걔네는	-9.82755
레이	-9.82794
▁쪽이	-9.8291
▁꿈	-9.82927
▁우선	-9.8306
▁옷을	-9.83078
▁뻔	-9.83167
▁한두	-9.83175
▁차이가	-9.83209
▁결과	-9.83298
독	-9.83309
감이	-9.83358
▁언니는	-9.83372
▁신발	-9.83473
▁겨울에	-9.8364
▁생각하면	-9.83646
▁있었잖아	-9.83664
▁독	-9.83694
▁쉽지	-9.83721
▁노는	-9.83733
▁봤던	-9.83844
▁검	-9.83878
찌	-9.83936
▁바쁘	-9.83938
▁일곱	-9.83969
▁있으	-9.8398
▁기계	-9.84034
▁정도면	-9.84083
▁인천	-9.84362
▁배워	-9.84403
▁갖다	-9.8442
▁않은데	-9.84447
▁복학	-9.84481
▁낫	-9.8449
▁뭐였지	-9.84533
▁스트레스	-9.84572
▁마시고	-9.84693
염	-9.84767
▁점수	-9.84792
냥	-9.84804
착	-9.84815
승	-9.84916
▁하여튼	-9.84941
▁휴가	-9.84981
▁거라	-9.85
▁수밖에	-9.85062
▁일부러	-9.8512
있어	-9.85136
▁웃기	-9.85173
▁그만큼	-9.85188
▁보자	-9.85203
▁주변	-9.85216
▁돈도	-9.85269
▁들어간	-9.85526
곡	-9.85555
▁여덟	-9.8562
▁중이야	-9.85684
▁느끼	-9.85687
▁그러는데	-9.85763
▁그러다가	-9.85769
▁했으면	-9.85771
될	-9.85786
▁60	-9.85867
▁다니면서	-9.85977
했다고	-9.86001
▁요번에	-9.86004
가면서	-9.86106
▁마음에	-9.86133
▁빨	-9.86162
▁배우고	-9.8619
▁저희	-9.86193
야겠다	-9.86233
킬	-9.86271
▁숙소	-9.86302
▁칠	-9.86306
▁출근	-9.86309
정이	-9.86371
▁거거든	-9.86382
▁웃	-9.86548
▁있기	-9.86604
줘야	-9.86654
년에	-9.86738
쉬	-9.86794
▁시즌	-9.86824
▁있지만	-9.86936
▁편이	-9.87006
▁배우는	-9.87083
▁같더라고	-9.87127
▁인터넷	-9.87141
▁했으니까	-9.87151
▁없었	-9.87165
▁발표	-9.87177
▁학교에	-9.87182
▁속	-9.87197
▁있겠다	-9.87216
하더라고	-9.87222
▁쇼핑	-9.87326
▁부분이	-9.87329
든지	-9.87373
▁세계	-9.8739
외	-9.87404
▁걸려	-9.87467
▁늘	-9.87479
▁받은	-9.87644
▁버	-9.87744
▁아파트	-9.8776
▁재밌을	-9.87768
▁알았	-9.87841
킹	-9.88017
▁테	-9.88041
▁국가	-9.88053
듯	-9.88127
왕	-9.88169
겠다고	-9.88194
▁성격이	-9.882
▁광	-9.88208
▁골	-9.88371
▁비슷하	-9.8841
▁농구	-9.88428
벽	-9.88533
▁멀	-9.88549
▁이러면	-9.88605
▁재밌었어	-9.88629
▁근처	-9.88741
머	-9.888
▁아버지	-9.8883
▁지나	-9.88859
채	-9.8886
따	-9.88907
들한테	-9.89053
▁악	-9.89062
율	-9.89068
▁지방	-9.8916
▁척	-9.89237
▁뒤로	-9.89238
▁문자	-9.89245
득	-9.89265
▁판	-9.89266
얼	-9.89284
▁어려워	-9.89435
센	-9.89437
▁알겠어	-9.89461
▁라면	-9.8949
짜	-9.89498
이거든	-9.89515
▁같아서	-9.89515
▁충	-9.89617
▁좋아하고	-9.8979
잡	-9.89878
▁거래	-9.8991
였거든	-9.8994
▁그거야	-9.90008
▁사업	-9.90057
▁갈려고	-9.90071
▁번에	-9.9009
쪽	-9.90097
아서	-9.90158
▁대신	-9.90289
▁무섭	-9.90299
▁광고	-9.90398
롱	-9.90483
▁싶다고	-9.90498
▁일주일에	-9.90505
▁과제	-9.90537
탈	-9.90557
▁데도	-9.90596
▁도착	-9.90598
▁하던데	-9.90617
▁경제	-9.90641
▁재미없	-9.90666
▁냄새	-9.90737
▁뽑아	-9.90743
▁프로그램	-9.90841
▁밀	-9.90842
논	-9.90962
▁넣고	-9.90965
▁다닌	-9.90976
▁사서	-9.91068
▁활동	-9.91094
▁미술	-9.91182
▁이모	-9.91247
▁혼	-9.91336
▁아픈	-9.91341
▁끄치	-9.91421
▁넘어가	-9.91422
페이	-9.91476
봤어	-9.91545
▁물어봐	-9.91618
▁생기	-9.91679
▁쟤	-9.91759
▁정확히	-9.91918
▁만났	-9.91943
▁있게	-9.92031
▁맘에	-9.92053
▁안에서	-9.92153
분이	-9.92266
▁최고	-9.9236
▁이유	-9.92403
▁말라고	-9.92456
▁맛집	-9.92516
▁헬스장	-9.92564
▁않지	-9.92573
▁연락이	-9.92587
돌	-9.92682
▁불러	-9.92779
▁대학원	-9.92789
다니	-9.9283
거든요	-9.92932
싱	-9.92998
을걸	-9.93014
▁합격	-9.93019
▁먹기	-9.93099
▁식당	-9.93135
장님	-9.93137
▁강의	-9.93165
프로	-9.93202
맨	-9.93224
▁얘는	-9.93228
▁지나가	-9.93241
▁각	-9.93261
▁친구는	-9.93283
▁원하는	-9.93327
▁타는	-9.93351
▁용돈	-9.93383
▁평소에	-9.93482
▁그만	-9.93504
▁교수	-9.93532
어가지고	-9.93611
▁쉽게	-9.93659
▁필요하	-9.93666
▁들어오	-9.93703
▁있었지	-9.93748
▁좋아서	-9.93873
▁나왔는데	-9.93914
▁해보	-9.93918
▁나보다	-9.93976
▁서울대	-9.9399
줄게	-9.94068
▁직장	-9.94098
▁찌	-9.9436
르고	-9.94371
▁그러게	-9.94397
비가	-9.94421
▁왠지	-9.94491
▁가봤어	-9.9455
▁분이	-9.94652
▁쎄	-9.94688
클	-9.94706
▁할라고	-9.94808
존	-9.94814
▁봤잖아	-9.94853
력이	-9.94881
▁거네	-9.94898
형이	-9.94941
c	-9.95038
춥	-9.95038
▁옆	-9.95151
▁이쪽	-9.95189
▁인스타	-9.95262
▁A	-9.95303
▁떨어져	-9.95333
겼	-9.95356
▁그니깐	-9.9537
▁여자가	-9.95396
▁봄	-9.95513
▁깔	-9.95523
▁돼요	-9.95548
▁하나씩	-9.95601
▁집중	-9.95639
▁만나면	-9.95667
킨	-9.9574
▁싸게	-9.95784
극	-9.95836
▁쪼	-9.95856
▁확인	-9.95862
▁사람한테	-9.9587
▁날에	-9.95896
▁얘기할	-9.95908
▁먹는데	-9.95972
▁목표	-9.95991
▁과외	-9.96
답	-9.96007
▁상담	-9.96019
▁200	-9.96035
▁사촌	-9.96062
▁클	-9.96115
놈	-9.96163
시고	-9.96216
▁안경	-9.96273
▁애들한테	-9.96304
▁삼성	-9.96306
▁멀리	-9.96312
연이	-9.96364
▁계산	-9.96381
들이랑	-9.96394
▁관계	-9.96399
▁끊어	-9.9654
4	-9.96712
효	-9.96722
▁들어갔	-9.96903
했네	-9.97037
▁부모님이	-9.97064
었	-9.9721
▁그것만	-9.97247
▁아저씨	-9.97286
▁갈래	-9.97335
▁합정	-9.97407
결	-9.97419
▁말할	-9.97419
▁따라서	-9.97443
▁작업	-9.9749
사가	-9.97544
▁약속	-9.97577
든데	-9.97693
▁뉴스	-9.97697
록	-9.97738
▁혼자서	-9.97766
▁좋아하는데	-9.97782
▁의사	-9.97803
▁보험	-9.9784
6	-9.97862
▁가까운	-9.97882
▁가끔씩	-9.9791
▁정돈	-9.97915
▁털	-9.98025
▁예약	-9.98035
▁올라오	-9.98063
▁목요일	-9.98072
▁멋있	-9.98083
인이	-9.98117
잔	-9.98198
▁자신	-9.98201
▁마셔	-9.98228
▁가자고	-9.98251
▁봐봐	-9.98356
줬	-9.98378
▁학교를	-9.98418
▁직	-9.98431
키로	-9.98493
▁자전거	-9.98645
났	-9.98651
이긴	-9.98702
▁스타일이	-9.98757
▁끄	-9.98951
▁그때도	-9.99023
▁홍	-9.99049
북	-9.99076
▁말씀	-9.99138
하진	-9.99183
완	-9.9919
▁어린	-9.99233
▁나가고	-9.99237
▁치고	-9.99251
▁되거든	-9.99263
▁오빠는	-9.99334
▁갔었	-9.99351
▁꾸	-9.99357
빙	-9.99382
▁물어봤	-9.99458
▁편입	-9.99575
▁일어나서	-9.9959
▁한대	-9.99844
▁당연하지	-9.99909
▁선배	-9.99968
▁무서운	-10.0001
▁나머지	-10.0008
▁그때부터	-10.0013
C	-10.0023
▁돼가지고	-10.0026
▁오지	-10.0027
▁언어	-10.0036
▁끝나면	-10.0039
▁붙어	-10.0042
▁니네	-10.0047
▁나갔	-10.0049
서는	-10.0049
혜	-10.0051
▁만들고	-10.0054
▁부담	-10.0058
▁오랜만에	-10.006
골	-10.0062
▁맞춰서	-10.0068
▁중간	-10.0071
▁힘들지	-10.0075
▁충분히	-10.0079
진이	-10.0081
▁이쁘	-10.0086
돈	-10.0087
▁예쁘	-10.009
▁똑같애	-10.0101
▁떼	-10.0102
▁추가	-10.0109
액	-10.0113
솔	-10.0115
▁캐릭터	-10.0119
▁맞추	-10.0121
▁놀아	-10.0122
▁2,	-10.013
다매	-10.0131
▁옛날에는	-10.0133
▁정보	-10.0137
▁그랬거든	-10.0139
껄	-10.0139
▁곳이	-10.0144
먼	-10.0147
▁모르겠고	-10.0149
▁밖에서	-10.0155
▁반에	-10.0159
▁자세	-10.0162
▁꿀	-10.0165
▁1,	-10.0166
▁몰	-10.0166
▁고생	-10.017
▁그러잖아	-10.0177
▁예쁜	-10.0178
▁스토리	-10.0181
▁돌려	-10.0182
▁가깝	-10.02
준다	-10.0204
▁헐	-10.0208
▁찾	-10.0209
기에는	-10.0213
▁시장	-10.0219
▁표현	-10.0248
▁많을	-10.0249
▁누나가	-10.0253
▁팔아	-10.026
▁설날	-10.0262
▁편하게	-10.0267
▁나보고	-10.0278
▁가만히	-10.0279
팀	-10.0285
▁편집	-10.0288
▁경험	-10.0288
▁없나	-10.0288
▁오면은	-10.0289
▁이것도	-10.0294
▁거라서	-10.0294
▁겁나	-10.0301
달라	-10.0302
▁그땐	-10.031
▁사주	-10.031
▁피부	-10.0313
▁소주	-10.0315
▁마지막에	-10.0324
쁠	-10.0336
▁염색	-10.034
▁쓰면	-10.0342
틀	-10.0343
▁날짜	-10.0346
▁하던	-10.0346
가주고	-10.0347
▁멀어	-10.0356
굴	-10.0357
▁걱정이	-10.0359
학교	-10.0362
▁그분	-10.0364
려서	-10.037
버려	-10.0372
▁가기로	-10.0373
▁들어가면	-10.0385
▁넘게	-10.0397
▁찍었	-10.04
하신	-10.0401
▁검사	-10.041
▁해주는	-10.0416
빵	-10.0425
▁오늘은	-10.0431
하냐	-10.0436
▁3,	-10.0445
▁걔한테	-10.0448
져서	-10.045
▁19	-10.0452
▁학교가	-10.046
렸어	-10.0461
▁클럽	-10.0462
▁의미	-10.0469
▁앉아	-10.0476
▁그랬나	-10.0482
▁있는지	-10.0484
▁계약	-10.0491
▁다이어트	-10.0503
놨어	-10.0503
▁프로	-10.0525
▁300	-10.0525
▁현실	-10.0526
장을	-10.0533
하거든	-10.0534
▁난리	-10.0537
농	-10.0537
▁바꾸	-10.0538
츠	-10.0544
▁연극	-10.0547
▁쌤이	-10.0548
▁연예인	-10.0559
▁영화가	-10.0563
▁장학금	-10.0565
볼려고	-10.0573
겠는데	-10.0575
▁못해	-10.0576
▁친구도	-10.0587
▁기술	-10.0589
던가	-10.0593
등급	-10.0596
▁힘들었	-10.06
징	-10.0606
▁70	-10.0607
▁미래	-10.0607
▁껴	-10.0612
딩	-10.0623
▁반대	-10.063
▁합	-10.063
치는	-10.0637
▁쉬는	-10.0651
▁데리고	-10.0651
▁개인적으로	-10.0653
▁이따가	-10.0653
▁기업	-10.0656
▁얼굴이	-10.0663
▁스키	-10.0665
▁이십	-10.0668
육	-10.0673
촌	-10.0675
슨	-10.0686
▁집을	-10.0688
▁거짓말	-10.069
▁80	-10.0692
▁됐지	-10.0694
▁죽을	-10.0698
▁돈은	-10.0703
▁자유	-10.0706
▁봤다	-10.0708
▁나오잖아	-10.0709
▁않았나	-10.071
▁신고	-10.0719
▁17	-10.0722
▁탄	-10.0726
▁콘서트	-10.0732
▁정해	-10.0733
였잖아	-10.0733
▁전문	-10.0733
▁나만	-10.0746
봤자	-10.0748
▁카메라	-10.0753
▁받았어	-10.0755
▁가방	-10.0773
▁분명히	-10.0775
▁엄마도	-10.0777
▁보다가	-10.0777
▁큰일	-10.0778
▁말했잖아	-10.0783
▁되겠지	-10.0784
▁들을	-10.0789
▁받으면	-10.0789
▁있었고	-10.0795
닥	-10.0807
▁담	-10.0807
▁방법	-10.0812
▁여자애	-10.0813
▁재미가	-10.0814
▁좋긴	-10.0817
▁놀았	-10.0821
▁있던데	-10.0824
가지	-10.0825
▁배운	-10.0831
▁18	-10.0831
▁일본어	-10.0833
짝	-10.0835
힌	-10.0838
▁주로	-10.0839
▁했더니	-10.0843
영이	-10.085
▁것들이	-10.0851
▁떨어졌	-10.0852
▁출	-10.0853
▁남는	-10.0853
▁도서관	-10.0859
▁25	-10.0868
▁배가	-10.0874
궁	-10.088
▁어디로	-10.0887
욕	-10.089
▁케	-10.0895
▁수요일	-10.0896
흥	-10.0901
례	-10.0902
▁사람들한테	-10.091
▁준비를	-10.0913
물이	-10.0917
▁만약	-10.0918
▁그랬다	-10.0923
드리	-10.0926
▁먹어도	-10.0926
▁남아	-10.0932
▁등	-10.0935
▁일정	-10.0941
▁쓰레기	-10.0945
▁아이까	-10.0948
▁파티	-10.0953
▁싶긴	-10.0968
▁짤	-10.0976
▁인간	-10.0977
으니깐	-10.0984
삼	-10.0984
▁사용	-10.0988
▁글쎄	-10.0988
▁가격이	-10.0993
▁나오지	-10.0994
▁종	-10.0998
▁휴	-10.0999
에게	-10.0999
▁만화	-10.0999
봤는데	-10.1
령	-10.101
▁땅	-10.101
▁국어	-10.1016
▁심해	-10.1018
식이	-10.1019
▁많다	-10.1023
▁종류	-10.1035
▁시골	-10.1038
들끼리	-10.104
▁모르니까	-10.1044
▁빌려	-10.1047
▁바지	-10.105
▁곧	-10.1051
s	-10.1053
▁불편하	-10.1054
▁괜찮다	-10.1058
▁스무	-10.1063
▁직원	-10.1075
▁짱	-10.1079
라니까	-10.1087
▁경영	-10.109
잉	-10.1092
었다	-10.1093
▁스키장	-10.1094
▁독일	-10.1095
▁보여주	-10.1095
▁질문	-10.1104
▁보네	-10.1104
▁어플	-10.1111
▁해결	-10.1117
이어서	-10.1118
▁입시	-10.1123
▁구경	-10.1124
▁14	-10.1133
할까	-10.1134
▁남자가	-10.1134
하네	-10.1145
▁처음부터	-10.1146
▁영국	-10.1147
▁헤	-10.1149
▁해줘	-10.1156
▁하라고	-10.1159
▁한국에서	-10.1161
▁아닐	-10.1173
▁남은	-10.1178
▁똥	-10.1179
▁이것저것	-10.1185
▁소개	-10.1191
어요	-10.1191
알	-10.1195
▁사진을	-10.1204
T	-10.1206
▁일하고	-10.1208
하기도	-10.1213
여가지고	-10.1214
했나	-10.1214
▁들면	-10.1215
▁키우	-10.1222
▁모르겠지만	-10.1231
▁귀엽	-10.1233
▁아니냐	-10.1238
듯이	-10.1239
▁짝	-10.125
▁넷플릭스	-10.1251
▁필요가	-10.1253
▁않잖아	-10.1263
▁풀어	-10.1273
▁최대한	-10.1278
▁얘네	-10.1286
▁아니지만	-10.1287
▁중국어	-10.1292
▁하나가	-10.1294
▁역	-10.1296
▁핫	-10.1298
▁거처럼	-10.13
▁본인	-10.1308
▁날씨	-10.131
호선	-10.1317
▁웃겨	-10.132
▁결정	-10.1325
▁말라	-10.1325
▁돈으로	-10.1325
버린	-10.1329
가꼬	-10.133
▁정시	-10.1332
▁짓	-10.1337
▁거리	-10.1344
버리고	-10.1344
▁새벽에	-10.1344
▁단어	-10.1347
▁길게	-10.135
느	-10.1352
▁이용	-10.1353
앤	-10.1361
▁이래가지고	-10.1361
▁전부	-10.1362
빛	-10.1362
크림	-10.1365
▁절	-10.1372
보면	-10.1377
멍	-10.1383
▁화요일	-10.1386
▁된다는	-10.1408
▁차가	-10.1408
▁B	-10.1417
▁문과	-10.1422
낼	-10.1422
▁졸	-10.143
▁메뉴	-10.143
▁부르	-10.1438
세대	-10.1439
▁받아야	-10.145
t	-10.1453
학점	-10.1476
새	-10.1491
주의	-10.1504
▁이제는	-10.1516
▁C	-10.1517
▁이과	-10.1517
▁되더라고	-10.152
▁촬영	-10.1521
보는	-10.1528
현이	-10.153
▁쉬고	-10.1537
▁편한	-10.1548
하기로	-10.1553
▁남자애	-10.156
▁녹	-10.1562
쇼	-10.1567
▁웹툰	-10.1567
넷	-10.1567
믄	-10.157
▁그때가	-10.1586
▁아빠는	-10.1589
▁없대	-10.1595
▁넓	-10.1601
▁번호	-10.1603
▁쏘	-10.1611
콘	-10.1612
▁느낀	-10.1613
▁호주	-10.1614
능	-10.162
응	-10.162
9	-10.1625
▁아우	-10.1634
▁만에	-10.1635
▁네이버	-10.1636
▁서울에	-10.1647
▁걔네들	-10.1647
▁준다	-10.1648
▁끝까지	-10.1649
▁계란	-10.1661
수록	-10.1666
▁서른	-10.1667
▁난다	-10.1668
▁배울	-10.1671
광	-10.1678
▁자기도	-10.1678
▁선수	-10.1679
▁술집	-10.1685
하거나	-10.1693
▁주문	-10.1698
▁편하	-10.1699
▁행사	-10.1701
▁닫	-10.1702
▁시급	-10.1703
▁나쁘	-10.1707
▁해봤어	-10.1709
7	-10.171
▁상상	-10.1711
지면	-10.1713
▁시대	-10.1724
▁나고	-10.1727
▁피아노	-10.1728
▁계시	-10.1736
▁아빠한테	-10.1751
▁쪽에서	-10.1755
▁모자	-10.176
▁집은	-10.1764
▁16	-10.1765
기고	-10.1771
▁갔거든	-10.1773
▁왔잖아	-10.1776
▁전화를	-10.1778
▁자연	-10.1784
▁줬	-10.1786
▁야구	-10.1787
▁일은	-10.1796
▁어려	-10.1797
▁라인	-10.1797
삭	-10.1797
P	-10.1798
갖	-10.1799
하시는	-10.1801
받고	-10.1808
▁방금	-10.1809
▁요새는	-10.181
▁하나만	-10.1817
▁돌아다니	-10.182
해가지구	-10.182
겠구나	-10.182
▁세상	-10.1822
▁작가	-10.1822
▁소리야	-10.1841
니다	-10.1843
협	-10.1845
▁해본	-10.1857
▁여성	-10.1861
▁틀어	-10.1861
▁캐	-10.1865
▁전체	-10.1868
▁웬만하면	-10.1869
▁TV	-10.1869
▁뽑는	-10.1872
▁끼고	-10.1873
▁동기	-10.1875
슈	-10.188
▁좋아하지	-10.1883
톡	-10.1883
대는	-10.1884
▁붙었	-10.1889
▁되냐	-10.1893
상이	-10.1901
▁추워	-10.1901
해준	-10.1912
▁유명하	-10.192
▁쓰지	-10.192
되어	-10.1923
▁얘기하	-10.1926
▁싹	-10.1938
납	-10.194
▁하나는	-10.1943
▁되겠네	-10.1943
▁침대	-10.1949
▁항공	-10.1965
▁완전히	-10.1968
▁들어왔	-10.197
▁졸업식	-10.1979
퇴	-10.1979
▁한참	-10.1981
▁이러면은	-10.1981
▁입을	-10.1986
▁앉아서	-10.1988
▁연결	-10.1991
▁꽃	-10.1994
활	-10.1995
▁싫어하는	-10.1996
해주는	-10.1997
▁지가	-10.2
▁봐야지	-10.2
▁과정	-10.2003
▁야간	-10.2009
▁대구	-10.2009
을까	-10.201
▁할라	-10.2013
▁시험을	-10.2015
▁대로	-10.2019
▁아니라고	-10.202
되면	-10.2026
▁돌리	-10.2031
▁심하	-10.2033
▁높아	-10.2036
▁교양	-10.204
▁쉬운	-10.2041
▁빠지	-10.2042
▁없거든	-10.2044
▁그르	-10.2045
▁들어야	-10.2047
할려고	-10.205
▁충격	-10.205
▁들으면	-10.2057
,000	-10.206
▁배고파	-10.206
▁말해서	-10.2063
▁닭	-10.2072
▁사람들이랑	-10.2074
▁해줄	-10.2078
▁될까	-10.2081
▁차를	-10.2082
▁죽어	-10.2084
▁유투브	-10.2108
▁위치	-10.2113
▁노래방	-10.2116
▁받아서	-10.2119
▁목소리	-10.212
▁사면	-10.2123
▁모르는데	-10.2125
▁알아보	-10.2125
▁빡	-10.2125
었을	-10.2127
님이	-10.2128
▁꼐속	-10.2132
▁입어	-10.2137
▁생겼어	-10.2154
죽	-10.2166
▁데로	-10.2167
▁나오는데	-10.2168
▁주제	-10.217
▁24	-10.217
▁많았어	-10.2181
렌	-10.2203
탑	-10.2205
끔	-10.2206
▁어어	-10.2207
하라고	-10.2212
▁얘들	-10.2213
했냐	-10.2214
▁유학	-10.2215
▁여자애들	-10.2217
▁일케	-10.2222
▁푸	-10.2226
▁모르겠네	-10.2227
도록	-10.2228
▁들어가고	-10.223
▁성공	-10.2231
봐야겠다	-10.2243
▁싸우	-10.2244
▁거기에서	-10.2248
▁13	-10.2249
▁도시	-10.2252
헌	-10.2254
▁브랜드	-10.2254
▁이쁜	-10.2254
▁올라	-10.226
▁맞나	-10.2268
▁떡	-10.2269
▁대체	-10.2273
▁공부하고	-10.2273
▁어딜	-10.2275
▁아빠랑	-10.2283
▁눈에	-10.229
▁관련	-10.2297
▁신기하다	-10.2301
▁오사카	-10.2303
▁허리	-10.2305
▁녹음	-10.2306
▁무시	-10.2307
▁알잖아	-10.2309
▁했대	-10.2318
▁그쪽으로	-10.2318
▁재밌었	-10.2333
럼	-10.2338
▁아줌마	-10.2342
▁없네	-10.2346
▁되긴	-10.2349
람	-10.235
▁훈련	-10.235
▁렌즈	-10.2353
▁대만	-10.2362
었나	-10.2366
▁좋아해서	-10.2366
학원	-10.2368
▁입장	-10.238
▁귀찮아	-10.2381
▁한국인	-10.2385
▁한다는	-10.2386
하다고	-10.2401
시키	-10.2402
▁근무	-10.2413
겠냐	-10.2413
▁군인	-10.2413
별로	-10.2416
▁둘이서	-10.2427
▁스카이캐슬	-10.2427
▁먹어서	-10.2428
▁대학생	-10.243
▁맞고	-10.2437
▁스타	-10.2438
젠	-10.2438
네요	-10.2442
▁없어요	-10.2446
엠	-10.2452
▁스스로	-10.2452
▁학과	-10.2468
했고	-10.2469
▁배그	-10.247
▁사실은	-10.247
▁거였어	-10.2473
▁PC	-10.2477
▁희	-10.2487
▁길이	-10.2488
이에요	-10.2489
▁않았냐	-10.2491
▁갑	-10.2494
▁전역	-10.2498
▁없었는데	-10.2501
▁공부하는	-10.2514
▁게임이	-10.2516
셨어	-10.2519
▁있잖아요	-10.2525
휘	-10.2528
▁편해	-10.253
▁끝난	-10.2531
▁근육	-10.2532
▁쉽	-10.2547
변	-10.2549
▁곱창	-10.2553
▁적응	-10.2556
▁대답	-10.2557
▁키워	-10.256
▁언니랑	-10.2564
▁설명	-10.2565
▁모임	-10.2567
▁나면	-10.2567
▁모르겠	-10.257
겁	-10.2572
줬는데	-10.2576
▁폭	-10.2577
셋	-10.2577
▁아르바이트	-10.2578
▁해주고	-10.2582
▁만들었	-10.2583
▁하셨	-10.2585
베	-10.2588
택	-10.2591
패	-10.2593
누	-10.2595
▁다녀야	-10.2598
였다	-10.2606
충	-10.2612
▁폰	-10.2615
▁먹으니까	-10.2625
▁화가	-10.2626
▁아래	-10.2627
엘	-10.2629
▁자체	-10.263
▁케이스	-10.2633
▁궁금해	-10.2633
▁미안	-10.2637
▁만족	-10.2637
랜	-10.2639
해주고	-10.2641
주면	-10.2658
▁싶기도	-10.2662
▁춤	-10.2667
▁사건	-10.2671
▁생각했는데	-10.2676
▁맞아요	-10.2679
주세요	-10.2679
▁탔	-10.268
쩍	-10.268
톤	-10.268
▁예뻐	-10.2682
▁같아요	-10.2688
스타	-10.2695
▁얘기한	-10.2701
케이	-10.2701
▁하는지	-10.2704
▁삼십	-10.2709
▁대학을	-10.2712
▁사기	-10.2715
%	-10.273
▁프랑스	-10.2732
▁뿌	-10.2732
느냐	-10.2732
▁않았는데	-10.2734
민이	-10.2737
▁했다고	-10.274
더라구	-10.2745
▁외국인	-10.2747
▁마리	-10.275
▁군데	-10.2754
팩	-10.2755
탐	-10.2757
놔	-10.2763
▁디	-10.2769
▁가져가	-10.2769
▁가정	-10.2776
▁이것	-10.2777
▁당시에	-10.2779
▁저렇게	-10.2783
분에	-10.2783
▁가져	-10.2784
핑	-10.2808
▁댓글	-10.2809
▁예전	-10.2813
▁경우	-10.2821
릿	-10.2835
칸	-10.2835
▁관련된	-10.2836
한대	-10.284
▁친해	-10.2844
▁싶었어	-10.2848
▁입학	-10.2848
▁같거든	-10.2853
센터	-10.2864
▁몰랐	-10.2874
▁가본	-10.2874
받	-10.2876
▁느껴	-10.288
▁올리	-10.2882
갑	-10.2884
▁벌어	-10.2885
▁하겠어	-10.2888
▁기름	-10.2892
▁고모	-10.2896
▁끝내	-10.2902
▁삐	-10.2912
▁홍콩	-10.2914
▁그분이	-10.2918
▁있구나	-10.2919
▁분야	-10.2923
▁물어보고	-10.2925
▁어우	-10.2932
에다	-10.2937
▁체육	-10.294
▁과일	-10.2941
▁오라고	-10.2945
▁정치	-10.2946
기만	-10.296
▁알려주	-10.2975
▁이러는데	-10.2982
▁들어와	-10.2984
던지	-10.2986
▁있네	-10.2992
▁맥	-10.2998
▁김치	-10.3
▁이번에는	-10.3006
뜨	-10.3014
▁해봐야	-10.3017
▁상관	-10.3017
▁있어도	-10.3019
▁쩌번에	-10.3019
▁본인이	-10.3022
▁코트	-10.3027
▁시작했	-10.3029
▁했었거든	-10.3032
▁퍼	-10.3035
▁할려	-10.3037
▁자는	-10.304
어도	-10.304
▁답	-10.3042
하셔	-10.3043
하기가	-10.3044
▁감독	-10.3047
암	-10.3052
▁회사에서	-10.3053
▁생각에는	-10.3056
▁쪽은	-10.3061
▁상관이	-10.3061
▁맘	-10.3065
▁어트게	-10.3073
▁필기	-10.3073
▁명은	-10.3075
▁우유	-10.308
▁연구	-10.3083
이트	-10.3097
▁바꿀	-10.3099
▁만큼	-10.31
▁매운	-10.3108
▁한국에	-10.311
받아	-10.3111
▁할지	-10.3113
▁발전	-10.3114
▁나와가지고	-10.3116
한텐	-10.3121
▁가가	-10.3124
부를	-10.3125
▁힘들고	-10.3128
▁공항	-10.313
▁극	-10.3131
▁봉사	-10.3134
▁많더라고	-10.3138
려면은	-10.3145
▁폐	-10.3145
▁하겠	-10.3148
▁스포츠	-10.3152
▁작품	-10.3155
▁매장	-10.3164
▁스터디	-10.3179
빌	-10.318
었고	-10.318
▁안되	-10.3182
▁무리	-10.3185
▁붙여	-10.3188
▁생각하	-10.3191
▁생각한	-10.3191
▁일도	-10.3196
더라도	-10.3199
▁올렸	-10.3202
핸	-10.3206
▁했지만	-10.3207
▁졸업하고	-10.3219
▁그전에	-10.3219
▁해갖고	-10.3223
▁갔었는데	-10.3226
▁때만	-10.3228
▁애는	-10.3228
▁보니깐	-10.3229
▁나니까	-10.323
▁누구랑	-10.323
컵	-10.3233
▁도움이	-10.3233
▁좋아하잖아	-10.3233
밀	-10.3235
▁날이	-10.3235
▁맞을	-10.3237
▁이때	-10.3242
▁하든	-10.3242
▁한창	-10.3252
다는데	-10.3253
▁그랬었	-10.3254
랄	-10.326
▁몸에	-10.3264
▁소설	-10.3268
▁칼	-10.3276
▁났어	-10.3278
▁도움	-10.3279
▁내는	-10.3284
▁체크	-10.329
사를	-10.329
▁언니도	-10.3305
▁색	-10.3312
▁표정	-10.3316
▁애매하	-10.3319
▁패	-10.3324
▁이상해	-10.3326
▁해봤는데	-10.3329
▁비교	-10.3331
▁시간도	-10.3332
▁기다리	-10.3333
▁역할	-10.3334
▁낙	-10.3334
▁그런지	-10.3336
▁맛있었어	-10.3337
▁송	-10.334
맛	-10.3343
▁거보다	-10.3349
▁없었던	-10.3355
했는지	-10.3355
▁없더라고	-10.3358
송	-10.3364
▁수업을	-10.3371
에선	-10.3372
▁들어온	-10.3378
▁있음	-10.3384
낸	-10.3384
▁문제는	-10.3388
려나	-10.339
플레이	-10.3394
랩	-10.3397
▁동영상	-10.3397
▁백화점	-10.3397
귀	-10.3399
치가	-10.3402
▁치즈	-10.3403
베이	-10.3413
잖	-10.3416
▁해줬	-10.3416
▁다니면	-10.342
▁열두	-10.3421
앙	-10.3421
▁이랬어	-10.3424
▁피시방	-10.3424
▁자식	-10.3441
낳	-10.3445
▁전까지	-10.345
▁해요	-10.3451
▁플	-10.3452
▁단기	-10.3452
▁만들어서	-10.3453
▁대회	-10.3456
▁됐다	-10.3459
▁출발	-10.346
▁몰랐는데	-10.3463
▁장사	-10.347
▁나아	-10.3472
▁이랬더니	-10.348
▁걸린	-10.3499
화를	-10.3505
▁초밥	-10.3511
▁알아보고	-10.3513
▁인기	-10.3518
▁각자	-10.3526
주가	-10.3529
▁흐	-10.3532
▁감정	-10.3534
텐	-10.3537
▁꼴	-10.3544
▁사람이랑	-10.3546
▁떨	-10.3559
컷	-10.3563
▁퇴근	-10.3563
▁맛없	-10.3565
▁왕	-10.3565
▁장면	-10.3566
▁국내	-10.3574
시쯤	-10.3574
▁말고는	-10.3579
뚜	-10.3591
한다는	-10.3597
▁어제도	-10.3598
시면	-10.3598
▁아유	-10.36
▁오르	-10.36
▁있었다	-10.3601
식으로	-10.3603
혼	-10.3615
렁	-10.3619
있고	-10.362
▁역사	-10.362
▁말하고	-10.3624
▁성인	-10.3627
▁오케이	-10.3629
▁선배들	-10.3629
▁입는	-10.363
▁물건	-10.363
▁은근	-10.3635
끈	-10.3647
▁나가면	-10.3651
까지만	-10.3654
▁신기하	-10.3657
▁미안해	-10.3659
화가	-10.366
▁마셨	-10.3662
▁결혼을	-10.3667
▁생각할	-10.3672
샤	-10.3675
▁사장님	-10.3679
침	-10.3681
▁넘었	-10.3685
빠	-10.3688
▁내야	-10.3695
으면서	-10.3698
▁군대에서	-10.3699
▁말이지	-10.3707
▁시기	-10.3707
▁했었잖아	-10.3707
▁떨어진	-10.371
지지	-10.3714
▁시작하	-10.3716
▁영화는	-10.3717
놔야	-10.372
봐야	-10.3722
선이	-10.3726
▁도쿄	-10.3733
▁들리	-10.3735
▁나두	-10.3739
되지	-10.3741
▁하시	-10.3742
▁먹잖아	-10.3745
셔서	-10.3749
리스	-10.3753
▁가보	-10.3754
▁집안	-10.3757
▁거면은	-10.3759
구요	-10.3762
▁면허	-10.3762
▁나오니까	-10.3767
더라구요	-10.3774
▁왔을	-10.3775
▁전자	-10.3777
▁행동	-10.3779
▁뛰	-10.3784
▁맞았	-10.3787
▁기능	-10.3792
▁인까	-10.3793
▁진행	-10.3797
▁경우가	-10.3802
▁키가	-10.3805
▁해놓고	-10.3805
했었어	-10.3807
▁길어	-10.3807
▁됐을	-10.3812
▁버는	-10.3827
▁과학	-10.384
▁애니메이션	-10.3847
둥	-10.3847
기에	-10.3847
▁갈아	-10.385
▁뭐냐면	-10.3861
▁개를	-10.3869
▁애기들	-10.3874
▁포장	-10.3881
▁하시는	-10.3885
▁평일	-10.3891
▁오후	-10.3898
▁통해서	-10.3898
▁보잖아	-10.3903
G	-10.3904
▁와야	-10.3921
▁먹었지	-10.3923
▁어떡하지	-10.3924
튀	-10.3926
혈	-10.3933
에스	-10.3934
▁예술	-10.3939
▁치면	-10.394
원인가	-10.3944
▁그래요	-10.3948
▁유행	-10.3948
▁자리가	-10.3951
▁아니에요	-10.3957
▁다운	-10.3958
▁끊었	-10.3963
▁아직까지	-10.3965
▁추억	-10.3966
▁싫어해	-10.3973
▁타면	-10.3974
▁어디야	-10.3979
▁테니까	-10.398
▁싶었	-10.3981
▁아깝	-10.3985
▁불안	-10.3987
쌀	-10.3988
▁전기	-10.399
▁페북	-10.3992
▁사과	-10.4008
사람	-10.4008
▁말에	-10.4014
▁개가	-10.4018
▁가르쳐	-10.4024
질이	-10.4026
▁공익	-10.4026
여행	-10.4038
▁하도	-10.4039
▁개봉	-10.404
소리	-10.4047
▁찐	-10.4048
▁오버워치	-10.405
큐	-10.405
▁너의	-10.4052
▁으응	-10.4053
▁이뻐	-10.4058
랜드	-10.4059
▁먼	-10.406
▁월세	-10.4064
▁넣었	-10.4065
▁마실	-10.4066
▁학원을	-10.4069
이었	-10.4069
든가	-10.407
▁종이	-10.4078
힐	-10.408
▁고등학생	-10.408
댔	-10.408
▁서비스	-10.408
▁얘기하면	-10.4082
▁썰	-10.4083
일로	-10.4083
손	-10.4093
▁했단	-10.4094
A	-10.4096
맥	-10.4097
옥	-10.4101
▁여기는	-10.4102
▁아쉽	-10.4104
했으니까	-10.4105
▁등록	-10.4109
컨	-10.4109
턱	-10.4109
▁얘기는	-10.411
▁관광	-10.411
▁채워	-10.4114
▁빈	-10.4114
▁도와주	-10.4115
▁상대	-10.4115
년이	-10.4118
땡	-10.4121
▁어깨	-10.4126
▁생각하는데	-10.4141
▁나간	-10.4149
▁유지	-10.4155
▁거구나	-10.416
돼서	-10.4164
버스	-10.4165
닝	-10.4168
▁서울에서	-10.4169
▁배달	-10.4181
랑은	-10.4187
▁부모	-10.4187
방에서	-10.4191
▁옷이	-10.4194
▁싶으면	-10.4196
컴	-10.4198
▁궁금한	-10.4198
▁다르지	-10.42
▁분위기가	-10.4202
된다	-10.4202
▁500	-10.4204
▁도와	-10.4208
이었던	-10.421
▁영어를	-10.4212
뜻	-10.4215
▁기회	-10.4217
▁내내	-10.4219
원에	-10.4223
갚	-10.4228
뚝	-10.4228
▁가라	-10.4242
▁느껴지	-10.4244
▁아빠도	-10.4244
▁심한	-10.4254
▁임	-10.4255
폴	-10.4258
F	-10.4258
올랐	-10.4268
▁타임	-10.4273
▁오니까	-10.428
▁그러던데	-10.4282
지니까	-10.4284
▁널	-10.4287
m	-10.4288
혁	-10.4288
▁화장품	-10.429
▁실습	-10.4292
▁추운	-10.4297
▁듣기	-10.4299
져가지고	-10.4301
▁무료	-10.4306
▁봤었	-10.4306
▁힘들다	-10.4317
▁거기다	-10.4317
▁이상하게	-10.4318
b	-10.4318
▁스카이	-10.4318
▁아이가	-10.4322
같은	-10.4325
▁검색	-10.4325
▁경우도	-10.4333
▁맞네	-10.4334
▁죽는	-10.4336
년도	-10.4339
풀	-10.4342
▁아직은	-10.4345
압	-10.4348
▁기회가	-10.4352
▁사이즈	-10.4357
▁어머님	-10.4362
▁갈라	-10.4373
▁찾아보	-10.4374
▁수원	-10.4376
▁상관없어	-10.4377
뽀	-10.4379
널	-10.4379
▁있더라	-10.438
▁거냐	-10.4389
▁정해져	-10.439
▁느끼는	-10.439
▁그렇게까지	-10.4394
▁모양	-10.4395
없	-10.4399
띠	-10.4409
▁페이스북	-10.4409
▁비슷해	-10.4409
▁우리한테	-10.441
▁논술	-10.4411
▁형도	-10.4416
줬어	-10.4417
▁것보다	-10.4417
▁되기	-10.4427
▁형이랑	-10.4428
이든	-10.4435
▁귀여워	-10.444
▁이르케	-10.444
▁대단한	-10.444
▁기억에	-10.4443
▁그렇잖아	-10.4462
하겠다	-10.4463
▁보드	-10.4464
펴	-10.447
▁흥미	-10.4471
▁기차	-10.4487
▁있구	-10.4492
중에	-10.4492
▁엉	-10.4492
▁알게	-10.4493
대를	-10.4494
두고	-10.4515
▁공부할	-10.4523
▁책이	-10.4523
▁읽었	-10.4533
▁우리끼리	-10.4541
▁사장님이	-10.4546
▁여기가	-10.4547
댄	-10.4549
▁오빠랑	-10.4551
하나	-10.4551
▁한단	-10.4553
▁학교는	-10.4553
▁건대	-10.4554
▁파스타	-10.4565
▁추천해	-10.4566
▁방향	-10.457
▁단체	-10.4573
▁인식	-10.4573
▁기간이	-10.4579
▁치는	-10.4584
▁살아야	-10.4586
하니	-10.4589
▁잡았	-10.4589
▁현대	-10.459
▁의대	-10.4595
스가	-10.4597
▁뼈	-10.4597
▁힘들었어	-10.4598
▁생각해보면	-10.4603
▁공장	-10.4612
▁온천	-10.4614
▁노래를	-10.4616
첨	-10.4623
▁낼	-10.4628
▁운영	-10.4628
▁남들	-10.4629
▁평생	-10.463
▁친하	-10.4637
▁팔고	-10.4637
▁산다	-10.4639
였고	-10.4647
바닥	-10.4651
생활	-10.4655
했대	-10.4655
▁사람들을	-10.4659
▁취소	-10.4662
▁먹었다	-10.4668
빈	-10.4675
취	-10.4677
▁해야겠다	-10.4677
준대	-10.4679
▁결	-10.4682
▁정상	-10.4684
▁햄버거	-10.4687
▁신기한	-10.4688
▁나은	-10.4693
▁친구한테	-10.4693
▁걸어가	-10.4695
▁사이에	-10.47
카드	-10.4708
▁좋았던	-10.471
▁유치원	-10.4718
값이	-10.4725
▁곡	-10.4727
▁가르	-10.4729
▁실수	-10.4732
거지	-10.4737
▁오래됐	-10.4749
겉	-10.475
릭	-10.475
▁스페인	-10.475
▁골라	-10.4765
▁들려	-10.4767
▁떨어지	-10.4777
▁빠르	-10.4779
▁명이서	-10.4787
▁바르	-10.4788
▁공간	-10.4792
▁할래	-10.4793
▁물어봤어	-10.4804
▁예전에는	-10.4808
▁은행	-10.4814
▁강릉	-10.4814
▁꺼내	-10.4828
살이	-10.4829
▁남자애들	-10.483
▁물리	-10.483
▁일할	-10.4834
▁결제	-10.4835
▁마트	-10.4841
▁물어	-10.4843
눌	-10.4844
▁그랬을	-10.4845
짠	-10.4845
▁맛있게	-10.485
이었거든	-10.4852
▁낸	-10.4853
옷	-10.4868
▁윤	-10.4871
▁거죠	-10.4875
닦	-10.4876
▁따고	-10.4877
▁불편해	-10.4877
▁실패	-10.4878
▁부대	-10.4883
▁않아서	-10.4902
▁나온다	-10.4902
▁때려	-10.4907
a	-10.4908
캐	-10.4912
▁모습	-10.4913
잉까	-10.4916
▁조심	-10.4918
▁해줘야	-10.4919
▁전에는	-10.4922
▁먹었잖아	-10.4926
아야	-10.4932
▁생각나	-10.4938
경이	-10.4939
▁바껴	-10.4943
개를	-10.4944
▁중앙	-10.4944
▁신기해	-10.4945
▁걸렸	-10.4949
점을	-10.4963
드려	-10.4969
▁어저께	-10.4973
▁거기를	-10.4978
▁일본에	-10.4991
롭	-10.5002
머리	-10.5004
▁어쩌	-10.5004
묘	-10.5005
떡	-10.5007
▁빠른	-10.5007
▁둘째	-10.5009
▁21	-10.5011
▁몰르	-10.5012
학번	-10.5013
▁학생회	-10.5014
▁가수	-10.5016
▁애를	-10.5016
▁끝났어	-10.5018
▁만한	-10.5018
▁날라	-10.5019
▁비용	-10.5023
▁영화관	-10.5024
▁왜냐하면	-10.5029
▁탁	-10.5031
▁왔지	-10.5035
▁데를	-10.5035
▁맞으면	-10.5036
약을	-10.5036
몽	-10.5037
▁열한	-10.5039
▁오픈	-10.5039
▁코스	-10.5042
▁되겠	-10.5048
▁대전	-10.5056
▁의지	-10.5062
룸	-10.5063
▁나네	-10.5066
▁가까이	-10.5067
버리는	-10.5069
묵	-10.507
빅	-10.507
▁박스	-10.508
방을	-10.5084
▁친해지	-10.5085
▁교통	-10.5086
하던	-10.5093
▁시켰	-10.5096
확	-10.5107
▁맞는데	-10.5118
석이	-10.512
▁장소	-10.512
역에서	-10.5128
▁전주	-10.5134
개씩	-10.5134
▁뮤지컬	-10.5135
▁지났	-10.5139
▁않는데	-10.5139
딜	-10.5139
▁온다	-10.514
▁사이트	-10.5141
▁싶을	-10.5142
▁있었나	-10.515
▁나을	-10.5153
콜	-10.5158
▁홀	-10.516
▁보게	-10.516
▁그래야지	-10.5162
p	-10.5168
▁꾸준히	-10.5168
▁도대체	-10.5168
쪽에	-10.517
▁왜케	-10.5171
또	-10.5173
▁영향	-10.5173
▁90	-10.5174
시켜	-10.5177
▁설마	-10.518
▁대단하다	-10.5181
▁냄새가	-10.5185
▁빠졌	-10.5188
▁비해서	-10.5188
▁했다가	-10.5191
▁마카롱	-10.5201
▁마시면	-10.5201
▁부럽다	-10.5202
장에	-10.5202
▁실기	-10.5208
▁태국	-10.5214
▁하드라고	-10.5214
▁소스	-10.5216
쌤	-10.5216
▁음식을	-10.5219
B	-10.522
▁수업이	-10.5223
에요	-10.5224
▁걔를	-10.5229
▁않다	-10.5233
놨는데	-10.5239
▁그케	-10.5241
하려고	-10.5241
접	-10.5249
▁많아가지고	-10.5252
▁켜	-10.5257
▁간에	-10.5258
볼라고	-10.526
▁결국에는	-10.5266
깜	-10.5267
▁정확하게	-10.5267
겸	-10.5267
▁적당히	-10.5267
스러운	-10.5267
▁티켓	-10.5267
마는	-10.527
영화	-10.5272
▁같으면	-10.528
았는데	-10.5281
▁벌고	-10.5289
▁저런	-10.5289
▁키우고	-10.5292
▁우리랑	-10.5292
▁아이돌	-10.5295
년을	-10.5297
▁먹었던	-10.5298
▁경력	-10.5298
둔	-10.5299
▁재미없어	-10.53
▁최저	-10.5302
▁끌고	-10.5306
▁상처	-10.5307
▁그렇네	-10.5311
▁마블	-10.5315
성을	-10.5322
수를	-10.5325
제로	-10.5326
▁그이까	-10.5326
▁착하	-10.5327
척	-10.5333
▁생각하지	-10.5334
▁인턴	-10.5335
▁생각해보니까	-10.534
▁스트레스받	-10.5348
▁가든	-10.5348
▁이어	-10.5348
▁되는지	-10.5353
라면은	-10.5359
해줘	-10.5373
▁꿈이	-10.5376
▁발라	-10.5382
▁비싸지	-10.5384
▁아니었	-10.5387
▁가능하	-10.5395
패스	-10.5398
틴	-10.54
둬	-10.54
▁우리나라에서	-10.5401
▁찾아서	-10.5403
▁갈라고	-10.5414
▁알려	-10.5416
▁군대를	-10.5416
▁이해를	-10.5418
잘	-10.5418
대매	-10.5421
▁준비하고	-10.5421
셨는데	-10.5427
▁방에	-10.5432
▁하이	-10.5439
▁자랑	-10.544
▁덴	-10.544
▁느낌으로	-10.5441
▁홍보	-10.5442
▁느낌이야	-10.5446
▁못하고	-10.545
▁물어볼	-10.5454
▁수시	-10.5456
▁나가야	-10.5458
▁말했	-10.5459
▁들어오는	-10.546
▁매니저	-10.5468
▁블랙	-10.5468
▁자연스럽게	-10.5468
▁궁금하	-10.547
▁어떻게든	-10.547
▁마스크	-10.5472
끌	-10.5473
▁올라왔	-10.5473
▁재료	-10.5473
▁겹치	-10.5474
▁말하	-10.5476
▁행복	-10.5478
시장	-10.5478
했었는데	-10.5493
▁마시는	-10.5498
댕	-10.5502
▁롯데	-10.5502
▁당구	-10.5503
▁현금	-10.5507
▁사귀	-10.5509
▁사는데	-10.5512
▁공감	-10.5515
▁헤어지	-10.5518
▁재밌지	-10.5519
▁환경	-10.5526
몬	-10.5532
찰	-10.5534
곰	-10.5536
▁답이	-10.5556
반이	-10.5566
L	-10.557
쿨	-10.557
▁위주로	-10.557
▁프리	-10.5571
▁말까	-10.5574
▁커플	-10.5574
생이	-10.558
▁딸기	-10.5582
▁모르잖아	-10.5582
우는	-10.5584
▁않으면	-10.5592
▁어찌	-10.5592
▁먹으면서	-10.5599
▁아는데	-10.5601
렀	-10.5601
o	-10.5604
▁초등학생	-10.5604
▁바뀐	-10.5604
▁축제	-10.5607
▁피해	-10.561
▁놔	-10.5611
▁요가	-10.5614
▁일본은	-10.5619
▁하거나	-10.562
▁못하는	-10.562
▁고민이	-10.5627
측	-10.5634
다며	-10.5636
▁날은	-10.5637
▁말했던	-10.5638
O	-10.5638
▁독서실	-10.5638
▁레벨	-10.5639
▁가을	-10.5647
▁잠이	-10.565
▁보이고	-10.5651
허	-10.566
▁별로야	-10.5668
▁권	-10.567
뜬	-10.5673
▁돈까스	-10.5673
▁강원도	-10.5673
▁하늘	-10.568
▁능력	-10.5681
▁볼링	-10.5683
▁입장에서는	-10.5683
▁국민	-10.5684
▁그렇겠지	-10.5688
공원	-10.5696
▁주면	-10.5703
▁플러스	-10.5705
라던지	-10.5706
괴	-10.5707
▁눈물	-10.5728
▁결혼식	-10.573
켜	-10.5731
▁올린	-10.5732
▁목적	-10.5735
▁어떠	-10.5739
펜	-10.5742
▁피곤해	-10.5743
▁해외여행	-10.5743
▁소리가	-10.5749
▁성적이	-10.576
▁가진	-10.576
▁적어	-10.5771
▁크고	-10.5776
▁구해	-10.5777
▁아버님	-10.5778
▁탈출	-10.5781
▁세상에	-10.5781
▁달라고	-10.5786
▁오빠도	-10.5788
▁침	-10.5788
려가지고	-10.5791
차가	-10.5792
▁북한	-10.5794
▁걔네들이	-10.5801
▁비슷하게	-10.5804
▁도전	-10.5807
일날	-10.5808
트리	-10.5812
▁마찬가지	-10.5813
▁가족들	-10.5815
▁책상	-10.5815
다면	-10.5821
▁나왔잖아	-10.5834
주지	-10.5834
▁이후에	-10.5837
▁힘들어서	-10.5838
▁북	-10.5842
똑	-10.5844
▁거기다가	-10.5846
▁앨범	-10.5847
▁넣는	-10.5848
▁줬어	-10.585
▁통화	-10.5857
▁거기까지	-10.5859
▁음식이	-10.5859
▁한명	-10.587
▁그쪽에	-10.5871
▁의경	-10.5872
▁마음을	-10.588
▁초반	-10.5883
▁써서	-10.5887
가고	-10.5892
▁하네	-10.5896
▁먹으	-10.5914
델	-10.5915
럭	-10.5917
들어	-10.5919
▁물어보는	-10.5919
▁산책	-10.5922
중이	-10.5922
▁섬	-10.5923
▁앉아있	-10.5927
정도	-10.5928
▁오는데	-10.593
드는	-10.5931
▁즐기	-10.5931
▁나무	-10.5933
▁애들끼리	-10.5934
념	-10.5946
▁애도	-10.5952
▁괜찮네	-10.5953
잇	-10.5953
▁케이크	-10.5954
▁열어	-10.5954
▁갔었어	-10.5956
▁간대	-10.5958
▁답장	-10.5959
▁인강	-10.5961
▁제발	-10.5966
▁그려	-10.5966
하더라	-10.5971
▁않으니까	-10.5971
휴	-10.5972
▁힘이	-10.5974
버렸어	-10.5978
▁핸드폰을	-10.5979
▁거다	-10.5989
▁평균	-10.5989
▁대박이다	-10.5991
▁있겠지만	-10.5993
▁해라	-10.6002
▁후반	-10.6003
▁방법이	-10.6003
▁대해	-10.6004
▁아들	-10.6007
▁틀	-10.6014
▁재밌다	-10.6021
▁있었을	-10.6023
촉	-10.6024
▁당황	-10.6026
▁할머니가	-10.6032
리그	-10.6032
▁몰래	-10.6033
▁회계	-10.6034
잠	-10.6037
▁헤어졌	-10.6042
▁생각에	-10.6044
▁뒤에서	-10.6045
▁얘긴	-10.6045
▁알어	-10.6048
버리면	-10.605
긋	-10.606
▁다양한	-10.6061
▁아니까	-10.6077
▁친구들은	-10.6079
▁살면서	-10.6083
▁빠진	-10.6086
▁엑스	-10.6086
▁씹	-10.6086
▁포함	-10.6095
▁동남아	-10.6096
▁자동차	-10.6096
▁캐나다	-10.6097
이었잖아	-10.6098
▁의자	-10.61
▁보일	-10.6103
▁감기	-10.6106
▁아저씨가	-10.6107
▁것이	-10.6109
▁갈지	-10.6111
만원이	-10.6114
▁잘하고	-10.6114
▁시험이	-10.6114
▁잠을	-10.6123
먹고	-10.6127
짐	-10.6128
▁짤라	-10.613
텔	-10.6131
I	-10.6132
▁아이스크림	-10.6132
▁흰색	-10.6133
▁적도	-10.6133
윤	-10.6139
▁과자	-10.614
쩌	-10.614
▁영어로	-10.6144
▁조건	-10.6147
▁연대	-10.6151
▁알겠다	-10.6159
해요	-10.6161
▁마라	-10.6161
▁다르게	-10.6165
▁거란	-10.6165
▁테이블	-10.6169
▁이미지	-10.617
순위	-10.6171
▁내려오	-10.6178
▁터지	-10.618
▁걸릴	-10.6184
관이	-10.6195
▁대표	-10.6196
▁경기도	-10.6199
훈	-10.6201
긍	-10.6204
▁천천히	-10.6205
퍼센트	-10.6205
▁공기업	-10.6206
▁단순	-10.6208
▁다르잖아	-10.6211
더만	-10.6216
▁초반에	-10.6226
으라고	-10.6227
버릴	-10.6228
▁하나에	-10.623
▁올리고	-10.6232
벨	-10.6241
▁결론	-10.6243
▁골목	-10.6243
▁의미가	-10.6244
▁머리를	-10.6246
랐	-10.6251
▁아휴	-10.6254
▁모를	-10.6258
▁지하	-10.6259
▁새우	-10.626
▁남아있	-10.626
받는	-10.6262
▁잠깐만	-10.6264
머니	-10.6268
▁들었던	-10.6289
▁구워	-10.6291
▁찾는	-10.63
▁나왔던	-10.6301
▁개강	-10.6302
개가	-10.6302
치를	-10.6306
▁하구	-10.6312
▁까먹	-10.6314
▁라멘	-10.6316
▁않았을까	-10.6316
▁돼야	-10.6316
▁버리	-10.6317
▁것들을	-10.6317
▁부탁	-10.6317
▁삼촌	-10.6318
▁시작을	-10.6319
▁소름	-10.6323
▁돌아오	-10.6326
▁까페	-10.633
일걸	-10.6333
▁여수	-10.6337
층에	-10.634
▁땀	-10.6341
▁욕을	-10.6343
푸	-10.6344
▁전부터	-10.635
n	-10.6352
▁이태원	-10.6352
▁가까워	-10.6353
▁불렀	-10.6354
▁회장	-10.6357
▁자체를	-10.6358
▁봐가지고	-10.6365
▁가다가	-10.6366
했으면	-10.6367
▁나왔을	-10.6374
▁처음엔	-10.6379
▁다행이	-10.639
▁밴드	-10.639
▁친척	-10.639
▁보내고	-10.6392
▁하러	-10.6395
▁심리	-10.6396
▁연말	-10.6403
▁끝나는	-10.6407
▁아버지가	-10.6411
▁말자	-10.6412
▁줘야	-10.6415
일인가	-10.6417
▁먹으면은	-10.6418
▁착한	-10.6422
랍	-10.6426
썸	-10.6426
▁누군가	-10.6426
▁패키지	-10.6426
▁계획을	-10.6428
▁등록금	-10.6428
▁시원	-10.6428
▁끝날	-10.6431
▁22	-10.6438
▁한식	-10.6439
▁장기	-10.644
▁보여줬	-10.6441
몰	-10.6441
▁외우	-10.6443
▁좋아하거든	-10.6447
▁시청	-10.6449
검	-10.6454
혹	-10.6456
▁본다	-10.6457
웃	-10.6465
합니다	-10.6466
우면	-10.6472
▁최근	-10.6473
폰	-10.6477
▁괜찮았어	-10.6488
▁먹을까	-10.6491
웅	-10.6501
쪘	-10.6501
▁가나	-10.6503
▁한국사	-10.6508
으론	-10.6509
졌다	-10.651
동이	-10.6513
▁됐나	-10.6522
▁생각했어	-10.6524
해줬어	-10.6536
전이	-10.6536
▁조용히	-10.6538
틱	-10.6538
▁마인드	-10.6539
▁도망	-10.6539
▁의견	-10.6542
▁막내	-10.6543
▁가거나	-10.6546
▁평일에	-10.6548
▁기초	-10.6548
▁걸리는	-10.6551
▁다음날	-10.6557
▁종일	-10.6562
병원	-10.6565
▁빌리	-10.6567
▁강사	-10.6572
▁실력	-10.6576
닿	-10.6576
▁러시아	-10.6576
▁두고	-10.6586
▁위로	-10.6586
급이	-10.6587
▁아까워	-10.6592
▁분들이	-10.6596
▁국물	-10.6613
냅	-10.6614
로는	-10.662
▁챙기	-10.6623
▁따지면	-10.6633
▁기준	-10.6635
▁공대	-10.664
▁왔었	-10.6647
엇	-10.6649
▁시스템	-10.6652
우니까	-10.6654
▁종교	-10.6655
▁모델	-10.6655
▁담임	-10.6655
▁동갑	-10.6656
▁보긴	-10.6656
▁크지	-10.6662
▁볼까	-10.6667
▁셋이	-10.6667
▁공기	-10.6669
▁오늘도	-10.667
▁어머니가	-10.667
▁평가	-10.667
싸움	-10.6678
▁남편	-10.668
▁분명	-10.6683
자리	-10.6686
▁대해서는	-10.6687
▁좋겠는데	-10.669
와서	-10.669
▁좋아한다	-10.6704
▁수준	-10.6709
▁옛날부터	-10.6709
▁인상	-10.6712
▁채우	-10.6713
▁23	-10.6714
▁장르	-10.6716
▁감자	-10.6723
▁생각해서	-10.6727
▁보헤미안	-10.6728
렉	-10.6728
역이	-10.6742
▁살까	-10.6743
▁작아	-10.6745
▁달려	-10.6748
꽃	-10.6757
▁아니라서	-10.6757
▁최소	-10.676
▁잡는	-10.6764
스크	-10.6766
e	-10.6767
귤	-10.6767
랭	-10.6767
▁엄청나게	-10.6768
▁대기업	-10.6768
▁빨간	-10.6769
▁치우	-10.6776
▁기본적으로	-10.6777
▁좋아하니까	-10.6782
▁당신	-10.6785
▁준비하는	-10.6785
▁오라	-10.6788
스를	-10.6796
▁있겠	-10.6796
련	-10.6797
400	-10.6798
▁휴대폰	-10.6806
쫄	-10.6806
▁뭐랄까	-10.6806
▁계절	-10.6806
▁피곤하	-10.6807
▁물어본	-10.6807
▁화나	-10.681
▁중순	-10.6815
▁생명	-10.6821
▁어이가	-10.6824
▁주인	-10.6826
▁파마	-10.6829
▁괜찮다고	-10.6836
▁선생님들	-10.6836
▁날씨가	-10.6838
▁귀찮아서	-10.6838
R	-10.6844
▁삼겹살	-10.6844
▁렌트	-10.6848
▁그랬었어	-10.6848
▁보낸	-10.6852
▁요즘엔	-10.6852
▁짜리	-10.6859
▁먹을래	-10.6862
▁기타	-10.6863
월부터	-10.6867
▁올리는	-10.6869
줘서	-10.6871
▁중국인	-10.6876
▁무대	-10.6882
찔	-10.6883
▁반수	-10.6886
▁모여	-10.6887
▁대화를	-10.6888
▁위험하	-10.6893
▁후에	-10.6895
이었지	-10.6896
교육	-10.6897
▁이젠	-10.6903
▁크기	-10.6912
▁됐잖아	-10.6914
▁어땠어	-10.6915
▁기다려	-10.6916
쌍	-10.6919
었으면	-10.6922
하세요	-10.6924
▁종강	-10.6925
▁된단	-10.6925
▁신청을	-10.6927
딱	-10.6931
▁전날	-10.6932
▁지갑	-10.6933
▁너에	-10.6939
으신	-10.694
▁살면	-10.6941
▁시간은	-10.6942
▁으음	-10.6943
▁상태에서	-10.6944
▁알바가	-10.6947
▁몰라서	-10.6948
권이	-10.6948
▁찍어서	-10.6951
▁그쪽에서	-10.6957
▁키우는	-10.696
받았	-10.6961
▁많다고	-10.6961
▁와인	-10.6961
▁경쟁	-10.6962
▁어리	-10.6963
▁먹어야지	-10.6963
▁그럴까	-10.6964
▁시까지	-10.6966
▁습관	-10.6969
▁초코	-10.697
▁지나고	-10.6973
▁밥도	-10.6981
▁어쩌다	-10.6981
▁여유	-10.6995
시험	-10.6999
뺄	-10.7001
▁알았지	-10.7002
▁찾아봤	-10.7002
▁미용실	-10.7002
▁만나자	-10.7006
▁거였는데	-10.7008
시다	-10.7018
▁다른데	-10.7021
▁때문이	-10.7037
▁중학생	-10.704
▁있냐고	-10.7041
▁사람마다	-10.7041
▁그렇기	-10.7043
▁가족이	-10.7046
▁주변에서	-10.7046
▁그중에	-10.7048
▁안전	-10.7053
▁체력	-10.7063
▁이름을	-10.7063
▁먹다가	-10.7071
역에	-10.7071
뉴	-10.7076
섭	-10.7077
웬	-10.708
홈	-10.708
▁번은	-10.708
▁시작한	-10.7092
▁언니한테	-10.7093
▁돼지	-10.7098
▁학생들	-10.7098
▁들어오면	-10.71
▁이기	-10.7101
▁일본에서	-10.7105
픽	-10.7106
▁애들을	-10.7107
▁음식점	-10.7116
▁스타벅스	-10.712
뇌	-10.712
덥	-10.712
캔	-10.712
▁쓰는데	-10.7129
▁대출	-10.7133
▁수는	-10.7135
▁달리	-10.7136
▁오십	-10.714
▁악기	-10.7153
▁이동	-10.7157
▁나와야	-10.7158
▁어딨어	-10.716
욱	-10.716
▁없냐	-10.7166
볼래	-10.7172
▁집도	-10.7174
▁주인공	-10.7183
▁남았어	-10.7192
▁어머	-10.7196
▁않게	-10.7196
▁이만큼	-10.7198
▁잘생겼	-10.72
▁간호사	-10.72
▁자소서	-10.72
스터	-10.7201
▁올라갔	-10.7201
▁많거든	-10.7203
▁빡세	-10.721
셔가지고	-10.7218
▁효과	-10.7219
흠	-10.724
▁디게	-10.7243
▁누구지	-10.7244
▁연어	-10.7245
방에	-10.7249
▁보낼	-10.725
▁사러	-10.7251
줘야지	-10.7259
▁들어갔는데	-10.7262
싸	-10.7264
▁좋았는데	-10.727
▁통학	-10.7274
짓	-10.7274
주일	-10.7278
▁그러냐	-10.728
캠	-10.728
▁주지	-10.7281
셀	-10.7281
i	-10.7281
맹	-10.7281
▁하나를	-10.7285
▁입장에서	-10.7288
▁틀리	-10.7293
▁서류	-10.7296
▁같더라	-10.7298
▁길에	-10.7301
뿐만	-10.7307
▁사십	-10.7311
▁사가지고	-10.7314
▁쓰리	-10.7315
▁후기	-10.7317
▁고민을	-10.7321
▁눌러	-10.7322
▁새해	-10.7326
▁대신에	-10.7333
▁제품	-10.7334
웨이	-10.7338
내는	-10.734
▁야채	-10.734
하시고	-10.7348
▁28	-10.735
▁말대로	-10.7354
객	-10.7355
▁가냐	-10.7355
▁뿌리	-10.7356
었다고	-10.7362
▁누군지	-10.7362
▁마이크	-10.7364
▁치료	-10.7368
끄	-10.7369
▁모아서	-10.7383
▁생각이야	-10.7391
▁보이지	-10.7395
▁아이디	-10.7398
▁알려줘	-10.74
▁봐요	-10.7401
팍	-10.7403
쥐	-10.7403
▁스케줄	-10.7403
▁지난	-10.7404
▁갔으면	-10.7407
김	-10.7422
▁담에	-10.7424
턴	-10.7437
▁이렇	-10.7437
▁친구들도	-10.7439
▁물어보면	-10.7441
썩	-10.7444
늘	-10.7446
빈이	-10.7454
▁방식	-10.7465
▁바빠	-10.7469
▁아프다	-10.7469
▁않아요	-10.7471
▁게네	-10.7477
▁그러더라	-10.748
▁싸고	-10.7482
▁손님	-10.7485
벤	-10.7486
▁옮겨	-10.7486
▁시리즈	-10.7486
▁화학	-10.7495
▁누르	-10.7496
▁들어보니까	-10.75
▁좋아할	-10.7502
▁생겨	-10.7506
써	-10.7508
▁이번엔	-10.7511
▁일상	-10.7517
곱	-10.7519
좌	-10.7525
▁학원에서	-10.7537
▁가가지구	-10.7537
▁친구를	-10.754
없이	-10.7543
▁만났는데	-10.7551
겹	-10.7555
▁재밌는데	-10.7558
▁교정	-10.7559
▁화면	-10.7563
▁한국어	-10.7566
하겠지	-10.7566
비를	-10.7567
엄	-10.7569
▁기획	-10.757
▁보조	-10.757
트를	-10.7573
었단	-10.758
▁카레	-10.7581
이냐	-10.7582
▁오바	-10.7586
▁처음으로	-10.7588
였으면	-10.7589
▁주사	-10.7592
하느라	-10.7592
려는	-10.7602
▁움직이	-10.7604
▁부르는	-10.7604
▁나가지고	-10.7607
밍	-10.7611
▁왼쪽	-10.7611
▁택배	-10.7611
▁생기고	-10.762
둘	-10.7621
▁지우	-10.7622
▁수영장	-10.7625
▁과가	-10.7638
▁누구한테	-10.7638
▁놀라	-10.764
▁무서워서	-10.7641
꽂	-10.7646
▁신나	-10.7649
▁니는	-10.765
핀	-10.7653
▁다행히	-10.7653
시가	-10.7654
▁뜨는	-10.7655
▁들었거든	-10.7658
▁인도	-10.7658
▁영업	-10.7665
▁시작하는	-10.7669
껴	-10.7679
▁깔아	-10.768
▁속이	-10.7685
▁바꾸고	-10.769
자들	-10.769
보면은	-10.7695
맵	-10.7695
벼	-10.7695
▁김밥	-10.7697
프라	-10.7699
▁등산	-10.7708
▁있을걸	-10.7708
내고	-10.7721
▁오시	-10.773
하구	-10.7732
▁일산	-10.7732
▁세금	-10.7735
▁필라테스	-10.7737
콤	-10.7737
바퀴	-10.7739
▁먹겠	-10.7741
훈이	-10.7741
▁물어봤는데	-10.776
폭	-10.7774
▁부분에	-10.7776
▁사람이야	-10.7777
▁주는데	-10.7777
▁좋아요	-10.778
▁세워	-10.7783
▁고쳐	-10.7784
900	-10.7786
▁오기	-10.7788
자를	-10.779
▁노래가	-10.7791
▁먹어봤어	-10.7806
▁단톡방	-10.7807
▁판단	-10.7807
▁싶어가지고	-10.7812
준이	-10.7818
▁중요하지	-10.7819
▁연습을	-10.7819
▁31	-10.782
춘	-10.7821
▁찾고	-10.7821
▁되네	-10.7822
▁그랬대	-10.7823
▁운전면허	-10.7823
▁pc	-10.7823
▁앞머리	-10.7824
▁말했어	-10.7825
왔던	-10.7828
▁필수	-10.7829
량이	-10.7831
▁챙겨주	-10.7833
하실	-10.7833
드리고	-10.7839
린다	-10.7842
▁예상	-10.7849
▁일어났	-10.7854
▁사람에	-10.7859
쟁	-10.786
▁걔네들은	-10.7865
▁랩소디	-10.7866
뱅	-10.7866
▁실험	-10.7867
▁알았거든	-10.7868
▁은근히	-10.7869
▁잡혀	-10.7871
▁방이	-10.7874
색이	-10.7878
▁조절	-10.7878
▁자기네	-10.7884
▁유리	-10.7887
월달	-10.789
▁인형	-10.7891
▁먹게	-10.7892
냉	-10.7898
▁양이	-10.7902
▁150	-10.7904
▁개발	-10.7904
▁말고도	-10.7905
▁매력	-10.7907
▁여자애가	-10.7907
▁카카오	-10.7908
▁샤워	-10.7909
▁힘드니까	-10.7913
▁마지막으로	-10.7917
▁생기는	-10.7929
▁어디지	-10.793
▁만두	-10.7931
▁한강	-10.7936
▁보내주	-10.7936
▁회사가	-10.7937
한테도	-10.7947
▁장비	-10.7948
▁들어와서	-10.7948
▁나오면은	-10.795
▁따라가	-10.7951
콩	-10.7951
▁샐러드	-10.7952
▁튀김	-10.7952
▁새끼	-10.7956
▁팀이	-10.7957
▁따야	-10.796
▁여기까지	-10.7961
▁생길	-10.7961
▁시작해	-10.7965
▁간식	-10.7967
▁조금씩	-10.7967
▁우와	-10.7968
▁이야기를	-10.7969
▁살지	-10.7972
건데	-10.7976
▁예매	-10.7977
▁자신이	-10.7978
▁같진	-10.7981
▁어른들	-10.7982
▁별거	-10.7984
▁문제야	-10.7985
▁감동	-10.7992
찜	-10.7995
▁불편한	-10.7996
▁눈썹	-10.7996
▁거길	-10.8001
▁금액	-10.8003
▁실력이	-10.8007
교시	-10.801
하던데	-10.8015
▁될걸	-10.8017
▁일본이	-10.8018
▁아아	-10.8022
갠	-10.8029
▁기억은	-10.8029
▁웬만한	-10.8039
▁적어도	-10.804
▁누워있	-10.804
▁얘기했어	-10.804
▁쓰잖아	-10.8043
시니까	-10.8051
▁발음	-10.8062
쳤어	-10.8064
▁세트	-10.8064
▁하튼	-10.8065
▁얘기했잖아	-10.8066
▁다행이다	-10.8069
▁죽었	-10.8069
▁정도에	-10.8082
X	-10.8083
▁갤럭시	-10.8083
붓	-10.8083
▁당연한	-10.8083
▁사람인	-10.8086
▁거겠지	-10.8087
▁사다	-10.8088
닭	-10.8097
일부터	-10.8102
▁위한	-10.8108
▁현지	-10.8115
산이	-10.8117
▁놀다가	-10.8122
▁회의	-10.8126
뺀	-10.8127
▁영상을	-10.8131
▁입구	-10.8133
▁알바생	-10.8136
▁타인	-10.8139
▁이번에도	-10.8157
▁모여서	-10.8164
▁대기	-10.8164
▁기억을	-10.8166
▁고르	-10.817
끗	-10.8171
▁있니	-10.8172
▁핸드폰으로	-10.8174
▁없어졌	-10.8179
▁고정	-10.8179
▁경험이	-10.8182
며는	-10.8184
▁남자들	-10.8191
▁재밌겠다	-10.8195
▁만났을	-10.8201
▁이유는	-10.8209
▁부천	-10.821
믹	-10.8216
▁예비	-10.8216
▁슬프	-10.8217
▁글로	-10.8218
▁빨간색	-10.8219
▁우승	-10.8221
▁실제	-10.8222
▁맛있는데	-10.8223
주구	-10.8223
▁많으면	-10.8223
▁산업	-10.8229
▁대리	-10.8233
▁더워	-10.8234
▁마신	-10.8234
▁그쵸	-10.8236
▁빠지는	-10.8236
▁올라와	-10.8241
▁26	-10.8241
즐	-10.8243
▁어디가	-10.8243
▁우리나라가	-10.8251
▁점수가	-10.8253
환이	-10.8254
▁왔거든	-10.8256
▁그믄	-10.8256
▁올라가는	-10.8259
샘	-10.826
▁놀랬어	-10.826
쩨	-10.826
쭈	-10.826
▁이대	-10.8271
▁음료수	-10.8275
동에	-10.8275
▁아마도	-10.8279
▁긴장	-10.8279
▁마감	-10.8288
▁물을	-10.8291
▁많대	-10.8299
대요	-10.8304
균	-10.8304
▁우리나라는	-10.8307
▁말만	-10.831
▁현재	-10.8312
▁말아	-10.8312
▁삼수	-10.8312
▁심하게	-10.8312
느라	-10.8314
▁이런데	-10.8321
놀이	-10.8323
▁찾아보고	-10.8324
▁계획이	-10.8325
▁다낭	-10.8326
▁적금	-10.8328
▁풀리	-10.8332
▁여유가	-10.8332
▁너를	-10.8337
춰	-10.8349
덮	-10.835
▁애매해	-10.8353
덜	-10.8353
뿐	-10.8355
▁겨울이	-10.8355
▁알바도	-10.8358
▁끝이	-10.8362
▁가리	-10.8362
▁홍대에서	-10.8365
▁낫다	-10.8366
▁구매	-10.8368
▁자라	-10.8369
▁나머지는	-10.8379
▁없지만	-10.8386
E	-10.8395
▁와가지구	-10.8396
▁반응	-10.8401
았다	-10.8405
구만	-10.8418
▁넘기	-10.8423
▁오잖아	-10.8429
▁책임	-10.8431
문이	-10.8435
▁청년	-10.8435
▁지수	-10.8441
▁색깔이	-10.8441
▁느꼈어	-10.8441
쭐	-10.8441
▁설거지	-10.8442
▁이거지	-10.8449
▁땐가	-10.845
▁시간표	-10.8456
▁요금	-10.846
해놓고	-10.8462
▁싸우고	-10.8468
▁서서	-10.847
▁얘기하지	-10.8473
▁붙으면	-10.8474
▁배경	-10.8476
▁찾아가	-10.8479
▁생각하거든	-10.848
▁인원	-10.8483
▁운이	-10.8486
샵	-10.8487
▁제한	-10.8487
▁쓰니까	-10.8489
▁되냐고	-10.8491
▁예능	-10.8492
▁자세히	-10.8492
발이	-10.8496
▁없긴	-10.8501
▁짜르	-10.8504
▁기다리고	-10.8506
▁병원에	-10.851
▁상대방	-10.8511
▁생활을	-10.8512
▁건축	-10.8515
었대	-10.8518
등이	-10.8519
▁눈을	-10.8528
릇	-10.8528
돌이	-10.853
d	-10.8532
▁슬슬	-10.8533
▁목사님	-10.8533
800	-10.8535
▁괜찮았	-10.8541
▁말로는	-10.8545
▁상품	-10.8547
▁지나면	-10.8549
▁붙은	-10.855
▁있어야지	-10.855
월달에	-10.8551
닐	-10.8551
▁인자	-10.8564
▁싸이	-10.8564
▁오전	-10.8567
▁들더라고	-10.8569
▁유튜버	-10.8579
룩	-10.8579
▁얼만데	-10.8579
▁이름은	-10.8579
▁스펙	-10.8579
▁메이플	-10.858
▁할게	-10.858
▁있어가지구	-10.858
▁캐슬	-10.8581
상을	-10.8581
▁받았는데	-10.8583
▁탁구	-10.8587
▁위험	-10.8593
▁그룹	-10.8597
▁그만두	-10.8597
▁자기한테	-10.8599
▁27	-10.86
▁말하지	-10.8601
▁데이트	-10.8602
▁메이	-10.8602
▁목소리가	-10.8607
▁동생이랑	-10.8607
▁알아야	-10.862
엽	-10.8623
죄	-10.8625
▁가봤는데	-10.8631
▁길거리	-10.8632
▁들어보면	-10.8634
받을	-10.8635
▁대단하	-10.8638
▁당일	-10.8645
▁망했	-10.865
▁몰아	-10.8652
▁누구야	-10.8661
g	-10.8671
짬	-10.8671
▁귀여운	-10.8671
▁여기저기	-10.8671
▁계열	-10.8673
▁알겠지	-10.8673
▁감성	-10.868
▁지고	-10.868
▁게임은	-10.8683
▁아프고	-10.8685
▁얘기하니까	-10.8687
예요	-10.8691
주면은	-10.8699
▁거리가	-10.8701
▁만났어	-10.8711
났어	-10.8714
낄	-10.8717
갓	-10.8718
윗	-10.8718
▁LG	-10.8718
▁함께	-10.8722
▁간단하게	-10.8723
▁탈색	-10.8725
▁결국엔	-10.8727
▁싫어서	-10.8728
▁나면은	-10.8729
▁된다면	-10.8732
원이야	-10.8733
▁있었으면	-10.8738
▁공사	-10.8739
▁나빠	-10.8739
▁여기에	-10.8741
켓	-10.8747
▁신랑	-10.8747
▁아이고	-10.8748
▁정도만	-10.8751
소리를	-10.8755
되니까	-10.8759
월까지	-10.8759
률	-10.8764
▁모두	-10.8764
것도	-10.8765
▁채널	-10.8766
▁버티	-10.8772
▁완벽한	-10.8773
왔어	-10.8773
라나	-10.8777
▁잡히	-10.8777
▁빨래	-10.8777
▁과연	-10.8786
▁재밌었는데	-10.8792
▁교통비	-10.8795
▁들어가면은	-10.8795
▁내신	-10.8803
▁지구	-10.8806
▁학기에	-10.8808
줬잖아	-10.8809
▁통장	-10.8811
칭	-10.8812
▁이벤트	-10.8812
▁체험	-10.8813
▁들어가야	-10.8823
▁아웃	-10.8823
▁장점	-10.8826
▁해볼	-10.8828
일까지	-10.883
▁어른	-10.8832
▁지켜	-10.8835
명은	-10.8838
였을	-10.8842
▁그러겠지	-10.8845
일이야	-10.8845
▁힘들잖아	-10.8846
▁시절	-10.8847
▁전화가	-10.885
▁설명을	-10.8853
▁없다는	-10.8855
▁초대	-10.8858
▁원피스	-10.886
▁범죄	-10.886
▁들지	-10.8861
▁옷도	-10.8862
▁진심	-10.8871
▁키울	-10.8872
▁공포	-10.8876
▁손해	-10.888
▁전세	-10.888
버리니까	-10.8881
▁기준이	-10.8883
▁상태로	-10.8883
▁빼야	-10.8886
▁보거든	-10.8892
▁어렵지	-10.8892
▁나왔다	-10.89
50	-10.8903
▁롯데월드	-10.8907
▁싫다고	-10.8907
굽	-10.8907
▁보증금	-10.8907
▁상당히	-10.8907
▁의외로	-10.8917
▁그래두	-10.8923
▁반찬	-10.8925
흘	-10.8934
▁없으면은	-10.894
▁끝이야	-10.8952
▁회사를	-10.8953
▁가시	-10.8954
▁필리핀	-10.8955
숭	-10.8955
쾌	-10.8955
▁가라고	-10.8955
▁부러워	-10.8956
▁소개팅	-10.8956
▁바라	-10.8958
▁걸어서	-10.8958
▁가슴	-10.896
▁혼나	-10.8962
▁구조	-10.8971
이어가지고	-10.8971
했구나	-10.8972
▁문제지	-10.8976
닌	-10.8979
▁얘들이	-10.898
것	-10.8985
▁하필	-10.8987
뻐	-10.8988
이브	-10.8989
▁바보	-10.8995
▁떨어지는	-10.8996
▁종류가	-10.8999
k	-10.9003
쌩	-10.9003
쪄	-10.9003
▁하이튼	-10.9004
▁비밀	-10.9006
▁속초	-10.9007
▁보기엔	-10.9015
▁쪼금씩	-10.9016
▁없었고	-10.9019
▁할걸	-10.9019
▁신기했어	-10.9021
제를	-10.9029
▁잘했어	-10.9033
▁산다고	-10.904
했었잖아	-10.9045
헬	-10.9045
r	-10.9051
겐	-10.9051
뻥	-10.9051
▁찾았	-10.9057
▁힘든데	-10.9057
▁잡을	-10.9058
섯	-10.9061
▁맛있지	-10.9063
▁확정	-10.9066
렸는데	-10.9073
▁연수	-10.9079
▁귀신	-10.9079
▁반복	-10.9081
▁나온다고	-10.9082
▁동생도	-10.9084
▁현장	-10.9085
으러	-10.9087
▁냉장고	-10.91
▁첫째	-10.91
펌	-10.91
핵	-10.91
▁원씩	-10.9103
로운	-10.9105
줬으면	-10.9106
셨어요	-10.9114
▁충전	-10.9118
입니다	-10.9122
해갖고	-10.9127
▁언제까지	-10.9127
▁간단	-10.9128
▁회사에	-10.9129
▁봤냐	-10.913
▁싶었던	-10.9131
▁싶다는	-10.9131
▁동생은	-10.9133
▁먹자고	-10.9135
▁살기	-10.9143
▁멜론	-10.9149
쳐가지고	-10.915
▁떨어질	-10.9152
▁들어올	-10.9158
▁자퇴	-10.9159
▁왔다고	-10.9159
▁보호	-10.9162
▁집으로	-10.9167
▁명절	-10.9173
▁1000	-10.918
▁홍대에	-10.9181
▁가야겠다	-10.9184
▁명동	-10.9187
▁사람인데	-10.9194
다기보다는	-10.9195
멘	-10.9196
줌	-10.9198
▁오피스텔	-10.9198
▁애매한	-10.9198
▁속도	-10.9202
▁없으	-10.9205
▁딱딱	-10.9208
▁잠실	-10.9214
▁글을	-10.9214
▁연주	-10.9217
▁떨어	-10.9223
▁말투	-10.9226
▁수준이	-10.9228
명이서	-10.9236
다리	-10.9236
▁손이	-10.924
적이고	-10.9246
▁어딘지	-10.9247
▁데이터	-10.9248
▁전시	-10.9248
▁그르케	-10.9249
▁패션	-10.9249
었으니까	-10.9257
됐어	-10.926
▁해봤자	-10.9266
▁학점이	-10.9271
▁공부도	-10.9276
▁힘들다고	-10.9276
▁그때까지	-10.9277
▁얘기하다가	-10.9282
▁본다고	-10.9284
▁참여	-10.9285
▁초에	-10.9287
▁개념	-10.9291
흑	-10.9293
▁나왔지	-10.9295
▁데려가	-10.9298
▁그런거	-10.9298
▁양념	-10.9299
▁가능	-10.9303
▁들어가기	-10.9304
▁가거든	-10.9306
▁카톡으로	-10.9307
▁공강	-10.931
험	-10.9317
▁그동안	-10.9318
▁떠나	-10.9319
특	-10.9322
▁봤고	-10.9327
▁가까	-10.9329
▁빠지고	-10.9333
▁드는데	-10.9334
▁있겠네	-10.9338
▁미안하다	-10.9343
▁다녔어	-10.9346
▁펜션	-10.9347
▁독립	-10.9349
▁아싸	-10.9349
▁부럽	-10.9355
▁치마	-10.9356
▁빼고는	-10.9359
▁외모	-10.9362
▁과거	-10.9364
▁어울리	-10.9365
갖구	-10.9368
▁받는데	-10.9368
▁생각했을	-10.9376
▁예쁘게	-10.9381
▁나갔어	-10.9392
략	-10.9396
▁얘기했던	-10.9399
▁마이	-10.9401
▁보인다	-10.9401
▁치면은	-10.9404
린다고	-10.9405
▁음악을	-10.9415
▁정부	-10.942
▁회화	-10.9422
▁취향	-10.9434
스테	-10.9435
분은	-10.9438
▁넘어서	-10.944
▁모르게	-10.944
줄까	-10.9443
팡	-10.9446
▁블로그	-10.9447
▁사무실	-10.9447
▁답답해	-10.9447
▁존재	-10.9447
▁업무	-10.9449
뿐이	-10.9451
▁담당	-10.9454
▁쉬워	-10.9455
해보고	-10.9459
▁됐고	-10.946
▁마치	-10.946
▁살려고	-10.9463
봐야지	-10.9465
▁주제를	-10.9465
▁간다는	-10.9465
▁카페에서	-10.947
▁물어보니까	-10.9475
▁빨라	-10.9475
밑	-10.9478
▁말로	-10.9484
▁운동은	-10.9487
▁곳에	-10.9488
싶	-10.9494
▁늦었	-10.9497
닉	-10.9497
듀	-10.9497
▁유명해	-10.9499
▁밤새	-10.9499
▁120	-10.9502
▁찢어	-10.9503
▁떨어지고	-10.951
▁생각엔	-10.9513
병이	-10.9515
▁그러니깐	-10.9516
▁손을	-10.9517
▁수입	-10.952
▁그깐	-10.952
▁교사	-10.9526
시간씩	-10.9532
갈비	-10.9535
▁인스타에	-10.9541
▁도로	-10.9545
▁너처럼	-10.9547
▁어뜨케	-10.9548
부턴	-10.9554
털	-10.9559
▁가입	-10.956
▁갈색	-10.9564
▁보기에는	-10.957
▁식사	-10.9571
▁간지	-10.9574
▁붙어있	-10.9574
회를	-10.9577
▁아파서	-10.9578
▁커서	-10.9582
▁알기로는	-10.9584
▁짝은	-10.9593
▁보니	-10.9597
▁쌀국수	-10.9599
▁태어나	-10.9599
▁바쁜	-10.9599
판에	-10.96
▁놀래	-10.96
▁응원	-10.9604
▁교복	-10.9605
▁확실하게	-10.9607
▁판매	-10.9608
▁없애	-10.9608
묶	-10.9609
▁손님이	-10.9609
▁주방	-10.961
▁편이야	-10.9611
▁담배를	-10.9616
▁드러	-10.9617
▁그랬었는데	-10.9618
▁갈려	-10.9619
▁정도면은	-10.9625
▁보이는데	-10.9629
▁사실상	-10.9638
끓	-10.9638
▁갔다고	-10.9638
▁보내는	-10.9644
렸다	-10.9647
▁연애를	-10.9648
▁파트	-10.9649
▁아쿠아맨	-10.965
▁힙합	-10.965
▁불쌍하	-10.965
▁자체는	-10.9652
▁쳐다보	-10.9652
▁어색하	-10.9655
▁때쯤	-10.966
▁시작할	-10.966
▁맛있다고	-10.9665
▁스포	-10.967
▁조카	-10.967
▁만나기로	-10.9673
▁밥은	-10.9675
▁창문	-10.9675
▁현역	-10.9677
▁있다면	-10.9678
▁동기들	-10.9684
▁물어봐야	-10.9686
인분	-10.9686
▁참고	-10.9687
라매	-10.9689
▁후배	-10.9696
▁먹는다	-10.9698
▁의식	-10.97
▁미드	-10.9701
칙	-10.9702
▁SNS	-10.9702
▁스테이크	-10.9702
▁쿠폰	-10.9702
▁이마트	-10.9702
▁쪼꼼	-10.9702
▁몸을	-10.9704
▁아시아	-10.9706
▁밀어	-10.9707
▁됐다고	-10.9708
▁많긴	-10.971
▁어디에	-10.9712
▁지식	-10.9717
▁고려	-10.9719
▁먹었을	-10.9729
▁길을	-10.973
▁풀고	-10.9736
라든지	-10.9738
▁걔네도	-10.9739
▁가겠다	-10.9746
▁딸이	-10.9749
긴데	-10.9751
▁나왔거든	-10.9752
▁싫은데	-10.9753
이었고	-10.977
▁오른쪽	-10.9778
500	-10.9779
▁욕심	-10.9781
▁이러잖아	-10.9782
▁그중에서	-10.9787
▁여자들	-10.9787
▁들어보	-10.979
▁많았는데	-10.9792
▁매달	-10.9794
▁경비	-10.9796
탁	-10.9798
켰	-10.9799
▁이어폰	-10.9806
▁주위에	-10.9808
철	-10.9816
▁온다고	-10.9817
▁떠나서	-10.9828
▁나누	-10.9838
▁갔대	-10.9838
▁알아봐	-10.9841
▁여행은	-10.9841
린데	-10.9851
▁아프리카	-10.9858
▁냉동	-10.9859
▁관리를	-10.9862
▁재수강	-10.9864
▁출석	-10.9867
▁선임	-10.9873
▁뜨고	-10.9873
▁그거밖에	-10.9875
▁조교	-10.9876
▁공유	-10.9879
년생	-10.9881
자로	-10.9884
▁알려줄	-10.9896
▁알았다	-10.99
스토	-10.9905
▁전문대	-10.9905
▁맛있었	-10.9907
쨌	-10.991
▁같앴어	-10.9911
▁나눠서	-10.9911
▁해리포터	-10.9911
룰	-10.9911
▁포인트	-10.9911
▁레드	-10.9916
▁생각으로	-10.992
▁출신	-10.9922
▁말해줬	-10.9923
▁공격	-10.9923
▁전화해	-10.9924
▁빡세게	-10.9928
▁제작	-10.993
▁들어갔어	-10.9949
▁노트	-10.9953
해줄	-10.9955
▁부부	-10.9957
▁들어가지고	-10.9958
쪽으로	-10.9958
▁모르겠어요	-10.9962
▁죄송	-10.9963
▁에버랜드	-10.9963
궈	-10.9963
앗	-10.9963
엥	-10.9963
▁마무리	-10.9964
▁받지	-10.9964
▁어이없	-10.9965
▁복수	-10.9966
▁올라온	-10.9966
▁넓어	-10.9966
▁경우에	-10.9974
▁끓여	-10.9976
부리	-10.9979
▁만나야	-10.9979
▁베이스	-10.9983
▁누워서	-10.9984
▁준비하	-10.9986
리스트	-10.9986
▁보고서	-10.9986
▁못할	-10.9986
▁탔어	-10.999
▁다르고	-10.9992
▁싸운	-10.9993
▁언제부터	-10.9996
▁커버	-11.0011
▁찜질방	-11.0017
▁언젠가	-11.0017
▁쿠팡	-11.0017
명을	-11.0019
▁요기	-11.002
▁나름대로	-11.0022
▁차려	-11.0022
▁전쟁	-11.0022
▁재밌고	-11.0024
▁다니다가	-11.0036
▁가이드	-11.0041
▁봤다고	-11.0054
▁먹었거든	-11.0054
▁배고프	-11.0056
▁부족하	-11.0056
께서	-11.0056
▁버렸	-11.0059
곳	-11.0059
▁필요해	-11.0063
▁까먹었	-11.0063
몇	-11.0067
▁느낄	-11.0071
▁별로였어	-11.0081
▁찾아봐	-11.0084
▁가요	-11.0086
하겠네	-11.0094
▁형님	-11.0097
▁잡아야	-11.0105
▁어울리는	-11.0108
▁지키	-11.0109
▁누워	-11.0109
▁아니구나	-11.0114
▁남자들이	-11.0114
원에서	-11.0121
▁시작하면	-11.0123
J	-11.0123
뮤	-11.0124
▁노량진	-11.0124
▁내려갔	-11.0127
▁그럴걸	-11.0128
▁별론	-11.013
▁행정	-11.0131
▁이빨	-11.0132
▁싸우는	-11.0138
▁들었을	-11.014
▁오래된	-11.0142
▁아무거나	-11.0146
▁힘들게	-11.0149
▁가구	-11.015
▁사겼	-11.0152
▁해달라	-11.0152
▁땡기	-11.0156
▁제사	-11.0156
▁동네에	-11.0156
▁만들어야	-11.0165
▁써도	-11.0165
노면	-11.0172
▁부르고	-11.0173
▁데려다	-11.0178
▁컨텐츠	-11.0178
▁고마워	-11.0178
▁쪼끄	-11.0179
▁않다고	-11.0181
▁올라갈	-11.0181
▁구할	-11.0185
▁서빙	-11.0188
졌는데	-11.0189
▁면접을	-11.0189
▁계단	-11.0196
▁팀플	-11.0197
▁놀랐어	-11.02
▁전날에	-11.0207
▁부분에서	-11.0217
▁스트레스를	-11.0219
▁먹어보고	-11.0221
▁떨어졌어	-11.0226
꽁	-11.0232
꼽	-11.0232
시쯤에	-11.0233
▁기다렸	-11.0234
▁입맛	-11.0237
▁알겠	-11.0238
치지	-11.0242
▁오전에	-11.0243
▁됐네	-11.0245
▁연기를	-11.0245
▁우리나라에	-11.0248
▁어렵다	-11.025
▁효과가	-11.0263
▁이러다가	-11.0264
▁주제가	-11.0266
▁온대	-11.0267
▁피고	-11.0269
▁듣는데	-11.0271
어져	-11.0271
▁연락해	-11.0274
▁부자	-11.0278
멜	-11.0287
▁기독교	-11.0287
뿔	-11.0287
▁따뜻한	-11.0287
▁통일	-11.0289
▁맛있더라	-11.0294
▁올라오는	-11.0296
▁어땠	-11.0298
▁일자리	-11.0301
▁받아가지고	-11.0303
▁느끼고	-11.0303
▁매번	-11.0308
▁손으로	-11.0315
▁넣을	-11.0316
스케	-11.0317
▁든다	-11.0326
▁쓰기	-11.0328
▁사니까	-11.0332
▁하드	-11.0332
섬	-11.0334
흰	-11.0341
l	-11.0342
▁이탈리아	-11.0342
윈	-11.0342
kg	-11.0342
▁사귄	-11.0342
▁흘러	-11.0343
▁레슨	-11.0343
▁찾을	-11.0345
▁업체	-11.0345
▁가위	-11.0347
▁하나하나	-11.0353
▁말아야	-11.0356
▁말하기	-11.036
▁인성	-11.0361
▁스파	-11.0367
▁다르니까	-11.0374
▁너네가	-11.0375
▁준비해	-11.0382
▁능력이	-11.0384
뻔했어	-11.0386
▁지내고	-11.0395
▁먹는다고	-11.0395
▁맥도날드	-11.0397
▁오토바이	-11.0397
▁몸무게	-11.0397
▁결말	-11.0399
▁비자	-11.0402
▁노인	-11.0405
▁몰랐지	-11.0406
▁사면은	-11.041
▁오티	-11.0412
▁주택	-11.0413
▁갔었거든	-11.0413
▁소속	-11.0416
▁신입생	-11.0418
▁또래	-11.0419
▁만점	-11.0428
▁재밌긴	-11.0428
▁지각	-11.0431
▁가사	-11.0433
▁학부	-11.0441
▁준비할	-11.0442
푼	-11.0453
▁재작년	-11.0453
▁얘기했는데	-11.0455
▁막걸리	-11.0456
▁단지	-11.0456
▁필요할	-11.0458
했음	-11.046
▁너네는	-11.046
▁나온대	-11.0461
▁고객	-11.0462
▁은까	-11.0467
였으니까	-11.047
▁생각하기	-11.0499
▁제대	-11.05
▁꿈을	-11.0503
▁떨어지면	-11.0508
▁일어나는	-11.0508
댁	-11.0509
앴	-11.0509
▁따뜻하	-11.0509
▁죽은	-11.051
▁다이소	-11.0513
▁알람	-11.0516
▁오른	-11.052
▁한글	-11.0522
▁내려가서	-11.0532
겠대	-11.0541
▁두세	-11.0544
▁소문	-11.0552
▁골드	-11.0553
▁김에	-11.0558
▁치과	-11.0558
▁들으면서	-11.0563
▁쉬어	-11.0565
갱	-11.0565
▁문젠	-11.0568
▁다르다	-11.0568
▁요리를	-11.0569
▁생기면	-11.0571
▁알바할	-11.0577
▁벌어야	-11.0583
▁알바하고	-11.0587
▁틀린	-11.0593
▁예약을	-11.0594
▁없어가지구	-11.0597
▁것들은	-11.0601
▁인기가	-11.0601
놀	-11.0604
▁배워야	-11.0604
▁말았	-11.061
▁최대	-11.0611
▁목이	-11.0615
컬	-11.0615
▁살다	-11.0616
▁싶거든	-11.0619
▁그랬구나	-11.0621
▁피씨방	-11.0621
▁간장	-11.0622
▁벌어서	-11.0622
▁따는	-11.063
▁잘못된	-11.0631
▁드시	-11.0633
▁영양	-11.0638
▁바꿔야	-11.0638
700	-11.0642
▁갔으니까	-11.0642
▁됐든	-11.0643
▁선호	-11.0644
▁실내	-11.0646
▁설치	-11.0647
▁어떡하냐	-11.0651
▁드라마가	-11.0652
▁제주	-11.0656
했단	-11.0658
▁입었	-11.0662
▁모른	-11.0664
▁상수	-11.0665
▁가르치는	-11.0667
주시는	-11.0668
▁들었지	-11.0669
이즈	-11.067
▁위에서	-11.0672
▁보라고	-11.0674
바이	-11.0675
▁멀쩡	-11.0678
▁재능	-11.0683
▁소고기	-11.0684
▁허락	-11.0685
▁우주	-11.0685
▁이천	-11.0694
▁계정	-11.0706
▁안양	-11.0709
▁자신감	-11.0709
▁통과	-11.0711
▁학원에	-11.0713
▁않더라고	-11.0714
▁변화	-11.0719
▁선생님들이	-11.0721
▁검색해	-11.073
▁모의고사	-11.0735
▁시끄러	-11.0735
탱	-11.0735
빽	-11.0735
▁검은색	-11.0735
▁스마트폰	-11.0735
▁답답하	-11.0735
라기보다는	-11.0736
▁숫자	-11.0737
▁봤나	-11.0748
▁그분은	-11.0748
▁공군	-11.0753
▁누나는	-11.0753
조차	-11.0758
▁하더라도	-11.0761
▁졸려	-11.0768
달래	-11.0773
▁음료	-11.0775
▁들어봤	-11.0787
▁알아봤	-11.0789
▁맞다고	-11.0792
▁뽑을	-11.0792
썬	-11.0793
▁케익	-11.0795
▁형들	-11.0798
▁다니는데	-11.0799
▁애랑	-11.08
몸	-11.0801
▁맛은	-11.0803
▁수강	-11.0807
▁빠질	-11.0807
▁올해는	-11.081
▁이상은	-11.0811
▁편하지	-11.0818
▁선생님한테	-11.0828
▁얘도	-11.084
▁살인	-11.0843
▁수강신청	-11.085
빔	-11.085
퉁	-11.085
▁소개시켜	-11.0851
▁맘대로	-11.0853
▁담아	-11.0859
▁부산에	-11.0859
▁찾아봐야	-11.086
▁여튼	-11.0863
홀	-11.0865
▁사이가	-11.087
▁들어본	-11.0874
▁평소	-11.0889
▁세일	-11.0893
▁게스트	-11.0897
▁사장	-11.0901
▁오리	-11.0904
▁미니	-11.0906
▁가봐	-11.0908
▁억지로	-11.0909
▁확실한	-11.0909
▁슈퍼	-11.0909
▁바꾼	-11.0911
겠죠	-11.0912
▁일식	-11.0914
▁생각하니까	-11.0915
▁민망	-11.0915
▁해보면	-11.0916
▁나라에서	-11.0919
▁먼지	-11.0921
▁갈수록	-11.0925
▁예배	-11.0926
▁근처에서	-11.0929
▁절반	-11.0931
▁갔었잖아	-11.0934
▁오천	-11.0938
▁시간대	-11.0941
냐면은	-11.0946
▁지네	-11.0949
▁맛있다	-11.0952
▁공부해야	-11.0955
▁그분들	-11.0957
▁화내	-11.0957
▁아니더라도	-11.096
▁타야	-11.096
▁직업이	-11.0961
▁순수	-11.0963
▁귀찮은	-11.0967
▁깨끗하	-11.0968
▁숙박	-11.0969
▁늘어	-11.0975
봐라	-11.0979
▁됐으니까	-11.0983
▁않어	-11.0986
생들	-11.0986
▁곳은	-11.0986
▁알바하는	-11.0988
겠습니다	-11.0991
▁여자들이	-11.0994
용으로	-11.0998
▁해보니까	-11.1001
챙	-11.1011
▁성형	-11.1015
▁드라마를	-11.1022
슷	-11.1025
▁후쿠오카	-11.1026
▁지난번에	-11.1026
▁불구하고	-11.1026
▁특이한	-11.1027
▁왕복	-11.1029
▁운전을	-11.1032
▁전형	-11.1032
▁무섭다	-11.1033
▁없었거든	-11.1039
▁행복하	-11.1041
▁먹다	-11.1041
▁팔았	-11.1045
▁의무	-11.1045
▁자료	-11.1049
▁오케	-11.1054
▁걸까	-11.1056
▁들어봤어	-11.1062
▁진로	-11.1067
▁쓴다	-11.1069
보라	-11.1074
▁지점	-11.1075
▁입으면	-11.1076
▁먹방	-11.1076
▁기구	-11.1077
▁오빠한테	-11.1077
▁상황에서	-11.1082
벅	-11.1085
▁교환학생	-11.1085
▁인테리어	-11.1085
빗	-11.1085
탓	-11.1085
헛	-11.1085
▁한잔	-11.1085
▁고급	-11.1087
▁없었지	-11.109
▁비싸고	-11.1093
▁신림	-11.1103
▁먹어봤	-11.1112
▁다니잖아	-11.1112
▁좋아했어	-11.1113
▁주인공이	-11.1114
▁체력이	-11.1115
▁문제를	-11.1119
▁왜냐	-11.113
▁않지만	-11.1131
▁제목	-11.1136
빤	-11.1138
▁망한	-11.1139
신데	-11.114
▁학생이	-11.1141
▁해주면	-11.1144
▁영등포	-11.1145
▁그저께	-11.1145
▁비용이	-11.1146
▁족발	-11.1146
▁예정	-11.1149
▁했었고	-11.1149
▁휴학을	-11.115
▁퇴사	-11.1153
▁중반	-11.1166
▁소화	-11.1168
▁뜻이	-11.1169
▁같으니까	-11.1177
▁잡아서	-11.1178
▁모른다	-11.1179
▁가르치	-11.118
▁인터넷으로	-11.1183
▁교대	-11.1194
▁전과	-11.1201
주신	-11.1203
V	-11.1204
▁PT	-11.1205
▁진지하게	-11.1205
▁비싸잖아	-11.1208
▁자르	-11.121
▁이걸로	-11.1212
▁골프	-11.1218
폐	-11.1218
▁정신이	-11.122
▁약속이	-11.1221
▁요번	-11.1225
▁잠시	-11.1226
▁제목이	-11.1228
받은	-11.1228
▁얼굴을	-11.1234
▁보여줘	-11.1237
▁감정이	-11.1245
버거	-11.1246
▁생선	-11.1249
▁나오거든	-11.125
▁구하고	-11.1263
듬	-11.1263
▁컴활	-11.1265
▁한마디	-11.1265
▁적성	-11.1271
라던가	-11.1272
▁중요해	-11.1273
했었거든	-11.1273
▁못했어	-11.1274
▁주차	-11.128
시켜서	-11.1285
▁급식	-11.1293
▁구하는	-11.1293
▁수익	-11.1296
▁하겠지만	-11.1297
만원씩	-11.1297
▁국제	-11.1297
▁대상	-11.1302
▁입장이	-11.1303
▁돼가지구	-11.1303
다던가	-11.1303
▁만나러	-11.1306
벗	-11.1307
▁해보는	-11.1308
▁된다니까	-11.1309
▁쓰면은	-11.1311
▁다니니까	-11.1317
▁없더라	-11.132
▁부족	-11.1321
덩	-11.1321
▁학사	-11.1323
▁뛰는	-11.1324
▁초록색	-11.1325
껌	-11.1325
륵	-11.1325
쇠	-11.1325
▁잘생긴	-11.1326
▁인스타그램	-11.1326
▁혜화	-11.1328
▁경주	-11.133
식품	-11.1331
▁갔나	-11.1336
▁결국에	-11.1337
▁관련해서	-11.1339
▁선배가	-11.1339
▁고장	-11.1341
▁졸업을	-11.1344
▁왔으니까	-11.1344
▁라식	-11.1346
▁형한테	-11.1347
▁문을	-11.1351
▁선택을	-11.1357
▁들렸	-11.1358
▁한쪽	-11.1359
▁재밌다고	-11.1366
▁진상	-11.1367
▁얼굴에	-11.1368
▁원장	-11.1374
▁때매	-11.1374
▁나이에	-11.1377
▁자긴	-11.1378
븐	-11.1381
▁맞은	-11.1383
있잖아	-11.1386
▁볶음밥	-11.1386
쎈	-11.1386
▁한양대	-11.1388
▁드럼	-11.1388
참	-11.1389
일까	-11.1398
▁튀어	-11.1401
▁인증	-11.1404
받으러	-11.1406
▁먹긴	-11.1407
줬거든	-11.1412
▁나갔다	-11.1413
▁걸리고	-11.1413
▁운동하는	-11.1414
▁축하	-11.1416
▁있었단	-11.1424
깔	-11.1432
▁재밌더라고	-11.1437
떼	-11.1437
붙	-11.1442
▁쓰게	-11.1442
▁가봐야	-11.1445
큼	-11.1446
덤	-11.1448
▁김치찌개	-11.1448
▁승무원	-11.1448
▁캐리어	-11.1448
▁셔틀	-11.1448
▁조리	-11.1448
▁들어오고	-11.1455
▁천안	-11.1459
▁근로	-11.1465
▁푸는	-11.147
▁맛있고	-11.1475
▁손에	-11.1475
▁지워	-11.1476
됐다	-11.1477
줘가지고	-11.1478
▁많던데	-11.1479
거리는	-11.1482
▁바닥에	-11.1484
▁모습이	-11.1487
▁얘기했지	-11.149
분의	-11.1493
▁시키면	-11.1501
▁둘러	-11.1501
▁보여주고	-11.1504
▁CGV	-11.1509
깡	-11.1509
▁부동산	-11.1509
▁태권도	-11.1509
▁어린이집	-11.1509
▁패턴	-11.151
았던	-11.1512
▁보내줬	-11.1513
등급이	-11.1517
▁양말	-11.152
▁맨유	-11.152
▁많더라	-11.1522
▁나가기	-11.1524
▁대개	-11.1525
▁제출	-11.1528
▁피파	-11.1532
▁싶어요	-11.1535
▁자리를	-11.1536
▁가능한	-11.1557
▁코드	-11.1567
▁보이잖아	-11.1569
밴	-11.1569
▁배드민턴	-11.1572
샌	-11.1572
텀	-11.1572
텍	-11.1572
▁하우스	-11.1572
▁온라인	-11.1572
▁무엇	-11.1576
▁물고기	-11.1577
▁아이템	-11.1578
▁의심	-11.1584
▁구글	-11.1584
▁나왔었	-11.1585
졸	-11.1588
▁부른	-11.1592
▁논문	-11.1593
▁부모님한테	-11.1601
▁외박	-11.1603
▁생각나는	-11.1606
▁광주	-11.1608
▁강아지가	-11.1609
▁이사를	-11.1611
▁데꼬	-11.1611
▁달라지	-11.1613
▁오셨	-11.1615
▁칼로	-11.162
▁천만	-11.1621
▁말인지	-11.1624
▁이겨	-11.1628
밭	-11.1634
씬	-11.1634
▁여태까지	-11.1634
▁짬뽕	-11.1634
▁활용	-11.1635
▁심심하	-11.1636
▁들여	-11.1648
▁자기네들	-11.1653
으로써	-11.1654
▁싶으면은	-11.1654
▁것보다는	-11.1655
▁뽑았	-11.167
▁없던데	-11.167
▁셋이서	-11.1673
▁들으니까	-11.1674
▁영화관에서	-11.1676
▁아깝다	-11.1677
▁아이디어	-11.1679
▁가평	-11.1681
▁어디든	-11.1683
▁일부	-11.169
▁차별	-11.1695
▁붙을	-11.1695
U	-11.1697
▁익숙해	-11.1697
▁프로젝트	-11.1697
툭	-11.1697
▁도저히	-11.1697
▁대형	-11.1697
▁고구마	-11.1698
▁않거든	-11.1698
▁망고	-11.1701
▁얘기하는데	-11.1703
▁토론	-11.1704
▁태워	-11.1708
▁만나기	-11.171
▁합쳐서	-11.1711
▁조사	-11.1717
▁면제	-11.1729
▁단발	-11.1733
▁차단	-11.1734
▁까먹었어	-11.1734
년제	-11.1743
▁편지	-11.1747
▁형제	-11.1747
▁고대	-11.1751
▁확인해	-11.1753
▁추워서	-11.1754
명인가	-11.1757
▁설명해	-11.1758
▁엄청난	-11.1758
H	-11.176
▁바꼈어	-11.176
▁오랫동안	-11.176
껏	-11.176
샷	-11.176
▁엉덩이	-11.176
▁이력서	-11.176
▁조심해야	-11.1762
▁시내	-11.1763
▁가족끼리	-11.1764
▁전체적으로	-11.1768
▁그렇죠	-11.177
▁갈려면	-11.1771
▁개념이	-11.1778
▁콜라	-11.178
▁모습을	-11.179
주면서	-11.179
겠더라고	-11.1791
인당	-11.1792
▁붙고	-11.1799
▁않니	-11.1801
▁느껴져	-11.1801
▁이쁘게	-11.1804
▁없었잖아	-11.1804
▁봤어요	-11.1805
▁교육을	-11.1808
▁됐으면	-11.1814
▁선수들	-11.1815
템	-11.1817
주시고	-11.1821
▁헤어	-11.1822
▁붙는	-11.1823
▁이불	-11.1823
▁마케팅	-11.1824
굿	-11.1824
뜰	-11.1824
쉐	-11.1824
▁발견	-11.1832
▁닭발	-11.1834
▁헤어지고	-11.1835
▁계획은	-11.1845
▁전공을	-11.185
▁대본	-11.185
▁죽고	-11.1855
▁누나랑	-11.1855
▁구두	-11.1857
▁매주	-11.1862
이었으니까	-11.1865
▁계신	-11.1869
▁순서	-11.1875
▁오후에	-11.1887
낀	-11.1887
핏	-11.1888
▁타이밍	-11.1888
▁엽떡	-11.1888
▁경쟁률	-11.1888
▁계절학기	-11.189
▁종합	-11.1892
밤	-11.1892
쓸	-11.1894
▁같네	-11.1898
▁뽑고	-11.1899
▁부분은	-11.19
었구나	-11.1902
밖	-11.1903
▁맛있겠다	-11.1903
▁사주고	-11.1904
▁찾아봤는데	-11.1907
▁울산	-11.191
▁있거나	-11.1922
▁자격증을	-11.1935
▁병원에서	-11.1937
▁욕먹	-11.1942
▁갔단	-11.1945
▁빌려서	-11.1951
앵	-11.1953
튜	-11.1953
▁아쉬워	-11.1953
▁귀걸이	-11.1953
▁최악	-11.1955
▁인싸	-11.1956
그러진	-11.1964
▁되더라	-11.1964
▁감사	-11.1976
▁빠졌어	-11.1977
▁왔대	-11.1978
▁결혼할	-11.198
▁정해진	-11.1983
▁성장	-11.1987
주께	-11.1987
▁올라가서	-11.1991
년도에	-11.1994
라든가	-11.1996
▁동네에서	-11.2004
▁얘랑	-11.2011
뜩	-11.2017
▁하루종일	-11.2017
▁에어팟	-11.2017
▁슬퍼	-11.2018
▁주제로	-11.202
▁사귀고	-11.2027
▁맞잖아	-11.2027
▁사줘	-11.2034
▁애니	-11.2037
▁운동하고	-11.204
▁가보자	-11.2043
▁얘네들	-11.2045
▁편하고	-11.2047
▁남편이	-11.2053
▁마셨어	-11.2053
더래	-11.2054
▁그렇대	-11.2057
만원인가	-11.2058
했었나	-11.2059
▁만나지	-11.2064
▁들어봐	-11.2069
▁말했지	-11.2069
▁다니지	-11.208
▁인터뷰	-11.2083
맻	-11.2083
쩜	-11.2083
펑	-11.2083
▁가볍게	-11.2083
▁가운데	-11.2083
▁혜택	-11.2083
▁겨우	-11.2088
▁얘기하면서	-11.2089
▁이론	-11.2091
▁않겠지	-11.2091
▁말랐	-11.2095
▁내용을	-11.2096
▁끌어	-11.2097
▁확신	-11.2103
▁늘어나	-11.2104
▁사랑니	-11.2108
▁쓰던	-11.2111
▁학생들이	-11.2112
▁공식	-11.2113
▁회식	-11.2114
▁던져	-11.2115
▁확률이	-11.2117
▁같았	-11.2117
칼	-11.2126
식당	-11.2127
눈	-11.2127
▁없겠지	-11.2132
▁시작해서	-11.2147
팝	-11.2148
▁보냈어	-11.2149
▁칵테일	-11.2149
▁토트넘	-11.2149
껀	-11.2149
▁경희대	-11.2149
▁바뀔	-11.2149
▁아쉬운	-11.2149
▁어트케	-11.2149
▁칭찬	-11.2149
▁좋아가지고	-11.2153
으루	-11.2162
▁부평	-11.2164
▁옛날엔	-11.2168
▁추석	-11.217
▁고기를	-11.2172
▁되는구나	-11.2176
▁연관	-11.218
▁넓은	-11.2186
▁터졌	-11.2186
▁들으	-11.2187
▁시계	-11.2188
▁디스	-11.2189
▁이겼	-11.2193
▁부정	-11.2196
있었	-11.2198
▁났다	-11.2202
뻔	-11.2204
▁할라면	-11.2207
▁인물	-11.2208
▁걱정되	-11.2208
▁정도밖에	-11.2209
▁끝에	-11.2211
▁바깥	-11.2215
▁아시안	-11.2216
▁어떡하	-11.222
▁맞게	-11.2221
▁훈련소	-11.2221
▁창업	-11.2223
▁꽂아	-11.2225
▁남녀	-11.2225
▁움직이는	-11.2226
▁한국말	-11.2227
▁봤으면	-11.2227
▁공간이	-11.223
▁단위	-11.2232
▁배고프다	-11.2233
▁있드라고	-11.2233
▁감당	-11.2234
▁그러드라고	-11.2239
▁올릴	-11.2239
▁기양	-11.224
▁종로	-11.2243
▁단톡	-11.2243
▁약속을	-11.2245
▁알려주고	-11.2249
▁자체도	-11.2252
▁몇십	-11.2252
▁활동을	-11.2256
▁행동을	-11.2258
다던지	-11.2263
▁얘기했었	-11.2264
▁다니기	-11.2268
셔야	-11.2269
▁메인	-11.227
▁속으로	-11.2273
뱀	-11.2281
윙	-11.2281
▁흐름	-11.2283
▁도시락	-11.2284
▁회복	-11.2291
▁있으니깐	-11.2293
▁떠들	-11.2295
▁중국에서	-11.2298
▁우동	-11.2299
▁사전	-11.2302
▁나간다	-11.2302
▁가겠지	-11.2303
▁편의점에서	-11.2305
▁없단	-11.231
▁자격	-11.2312
▁반대로	-11.2315
▁타면은	-11.2323
▁복지	-11.2323
▁남았는데	-11.2329
같	-11.2329
이라든지	-11.2329
▁돌아가는	-11.2331
▁잘못한	-11.2331
▁열정	-11.2338
▁사자	-11.2343
▁바뀌는	-11.2345
▁이미지가	-11.2346
▁컨셉	-11.2349
▁손가락	-11.2349
▁멘탈	-11.2349
▁복싱	-11.2352
▁아니냐고	-11.2354
▁육군	-11.2355
▁보였어	-11.2355
▁당시	-11.2357
▁이길	-11.2357
▁친하게	-11.2358
▁헤어진	-11.2359
그래	-11.2359
▁만져	-11.2361
▁친구들한테	-11.2363
맞	-11.2365
▁됐거든	-11.2367
▁맞았어	-11.2368
▁않네	-11.2373
▁고민이야	-11.2373
▁연장	-11.2375
▁한다면	-11.2376
▁속에	-11.2376
▁살려	-11.2376
▁주민	-11.2388
스럽게	-11.2388
▁어떨	-11.2392
▁미안하	-11.2394
▁걸리지	-11.2396
▁봤었어	-11.2399
▁터져	-11.2405
▁그만두고	-11.2407
▁외국인들	-11.2413
▁미용	-11.2413
▁손님들	-11.2414
▁이랬었	-11.2416
▁알아듣	-11.2417
▁그만둔	-11.2418
▁하얀	-11.2418
▁춤추	-11.2419
▁배송	-11.2423
▁있습니다	-11.2425
▁스킨	-11.2426
▁미팅	-11.2427
▁연출	-11.2435
▁통계	-11.2438
▁타입	-11.2439
▁웃겼어	-11.244
▁착해	-11.2444
▁말했는데	-11.2446
▁자야	-11.2447
느라고	-11.2449
떠	-11.2457
▁어디까지	-11.2462
▁말해주	-11.2465
▁망했어	-11.2477
▁소비	-11.2481
▁에너지	-11.2485
▁계좌	-11.2485
▁번역	-11.2485
▁생각하면은	-11.2489
▁최종	-11.2489
▁돈가스	-11.2489
▁실망	-11.2494
▁밑에서	-11.2495
▁케어	-11.2499
▁냉면	-11.25
▁경력이	-11.2505
▁경험을	-11.2507
▁향수	-11.2508
▁애플	-11.251
▁매년	-11.251
▁싸워	-11.2516
▁소재	-11.2518
▁배우면	-11.2521
▁비싸다	-11.2527
▁알려줬	-11.2531
▁파주	-11.2537
▁인터넷에	-11.2539
흡	-11.2551
릉	-11.2551
▁다녔던	-11.2553
틈	-11.2553
▁안타깝	-11.2553
▁조만간	-11.2553
▁휴학하고	-11.2556
▁어울려	-11.2556
▁아직까지는	-11.256
▁교환	-11.256
▁그래픽	-11.2577
▁넘어가는	-11.258
▁주위	-11.258
▁서울로	-11.259
▁대사	-11.2593
▁말해야	-11.2605
▁참치	-11.2609
▁사줬	-11.2609
짱	-11.2609
▁신문	-11.2618
▁페이지	-11.262
▁건너	-11.2621
▁트위터	-11.2622
▁와이파이	-11.2622
▁고민하고	-11.2624
▁쿠키	-11.2626
▁점심에	-11.2626
▁인맥	-11.2627
버릇	-11.2628
▁쩌기	-11.2629
▁오빤	-11.2629
▁중독	-11.2636
▁카트	-11.2642
▁기억해	-11.2644
▁형식	-11.2646
▁스시	-11.2646
▁그러구	-11.2647
▁파일	-11.2652
분위	-11.2664
▁생겼는데	-11.2668
▁웃겼	-11.2668
▁곳에서	-11.2669
▁자존심	-11.2691
▁사투리	-11.2691
▁꼰대	-11.2692
▁여의도	-11.2692
▁낭비	-11.2693
▁특별히	-11.2693
텐데	-11.2694
▁어려울	-11.2696
▁아니어도	-11.2702
▁급하게	-11.2704
▁원룸	-11.2705
▁다행이네	-11.2717
▁뿌려	-11.2722
▁찾아보면	-11.2727
▁사야지	-11.273
▁남성	-11.2731
▁마약	-11.2732
▁힘들겠다	-11.2736
▁상관없는데	-11.274
▁울고	-11.2745
▁인원이	-11.2749
이었다	-11.2756
냄	-11.2761
▁여름방학	-11.2761
▁기말고사	-11.2761
▁땡겨	-11.2762
▁뭐냐면은	-11.2762
▁블루	-11.2763
▁불법	-11.2772
▁왔었어	-11.2781
▁짓을	-11.2781
▁멋있어	-11.2794
명인데	-11.2797
▁무용	-11.2805
줄려고	-11.281
▁달아	-11.281
▁틀려	-11.2811
▁누구나	-11.2813
▁위해	-11.2818
▁모르겠는	-11.2824
줬다	-11.2825
▁외부	-11.283
쇄	-11.2831
▁재밌었던	-11.2849
▁환경이	-11.2852
▁부러	-11.2856
▁입어야	-11.2857
▁웃고	-11.2864
▁잡으면	-11.2864
▁중심	-11.2865
▁듣지	-11.2872
▁욕심이	-11.2876
▁목동	-11.2879
▁아저씨들	-11.2886
센치	-11.2887
었었	-11.289
해야겠다	-11.2895
▁광명	-11.2898
▁회원	-11.2898
딘	-11.2901
▁아메리카노	-11.2902
띵	-11.2902
칩	-11.2902
▁테니스	-11.2902
▁런닝	-11.2903
▁포스터	-11.2905
▁밑으로	-11.2905
▁반응이	-11.2907
▁들면은	-11.2924
▁받으	-11.2928
빠르게	-11.2937
▁사장이	-11.294
▁분석	-11.2941
▁넣어서	-11.2943
▁보내준	-11.2948
젤	-11.2948
▁조명	-11.2963
땜	-11.2967
려다가	-11.2972
스러워	-11.2973
▁대놓고	-11.2974
▁좋겠지	-11.2974
▁포토샵	-11.2974
▁홈페이지	-11.2974
넥	-11.2974
▁의정부	-11.2974
▁상하차	-11.2974
▁파는데	-11.2974
▁알아봐야	-11.2987
▁통금	-11.299
▁오면서	-11.2992
▁외국에서	-11.2998
▁비싸게	-11.3008
▁공학	-11.3009
▁생겨서	-11.3011
▁알기로	-11.3012
▁한동안	-11.3013
▁주먹	-11.3019
▁전라도	-11.3021
▁이쪽으로	-11.3034
▁합정역	-11.3036
롤	-11.3037
땅	-11.3043
▁뜬금없	-11.3046
푹	-11.3046
브리	-11.3046
▁저렴하	-11.3047
▁코딩	-11.3051
▁양심	-11.3062
▁와중에	-11.3064
▁틀렸	-11.3067
▁만나가지고	-11.3075
▁대여	-11.3077
▁그렇더라고	-11.308
▁아까운	-11.3082
▁직장인	-11.3099
▁먹구	-11.31
▁멀지	-11.3113
▁미치	-11.3113
▁이랬거든	-11.3118
▁바닷가	-11.3118
▁알다시피	-11.312
▁테스트	-11.3122
▁모르지만	-11.3124
▁물가가	-11.3126
해볼게	-11.3127
▁기록	-11.3127
▁상관없지	-11.3134
▁지옥	-11.3136
▁연봉	-11.3137
▁쓴다고	-11.3138
▁남자들은	-11.3144
▁어색해	-11.3144
이라던가	-11.3148
▁탔는데	-11.3148
▁없을걸	-11.3148
▁몰랐네	-11.3156
▁전역하고	-11.3164
▁나오더라고	-11.3169
▁무서웠	-11.317
▁됐던	-11.318
▁오래됐어	-11.3184
▁기숙	-11.3184
꾼	-11.3188
▁시끄럽	-11.3191
▁출퇴근	-11.3191
훅	-11.3191
▁미디어	-11.3191
▁어딘데	-11.3191
▁OT	-11.3191
▁일어날	-11.3191
▁액션	-11.3192
▁어떡할	-11.3193
▁프로필	-11.3194
▁고파	-11.3197
▁세븐	-11.3198
▁문법	-11.3199
▁재미있	-11.32
▁넘겨	-11.3205
▁들어간다	-11.3206
▁졸업할	-11.3208
똥	-11.3209
▁사라지	-11.3214
넘	-11.3214
▁취향이	-11.3214
▁내려서	-11.3217
▁이후	-11.3217
▁걸렸어	-11.322
▁성당	-11.3231
▁수시로	-11.3239
▁들었다	-11.3248
▁입대	-11.3254
▁저장	-11.3257
멸	-11.3265
▁예고편	-11.3265
▁힐링	-11.3265
▁풋살	-11.3265
▁넘어갔	-11.3269
▁갈아타	-11.327
▁대해선	-11.3271
▁김포	-11.3271
▁댄스	-11.3272
▁스무살	-11.3277
▁있었으니까	-11.3285
였구나	-11.3287
▁크니까	-11.3292
▁멋있다	-11.3297
▁미루	-11.33
딴	-11.3301
▁그것보다	-11.3301
▁분들은	-11.3304
▁자리에서	-11.3312
▁일하면서	-11.3316
▁만들면	-11.3321
▁사이에서	-11.3323
▁들어가니까	-11.3325
으까	-11.3326
▁드니까	-11.3327
▁보여서	-11.3331
▁성향	-11.3331
▁사정	-11.3334
▁퀄리티	-11.3339
▁중간고사	-11.3339
▁MT	-11.3339
▁예비군	-11.3341
▁밖으로	-11.3341
▁술자리	-11.3347
여가지구	-11.335
▁동창	-11.3354
▁쓸데없는	-11.3358
▁무서웠어	-11.336
▁토스	-11.3365
▁용산	-11.3366
▁남겨	-11.3366
▁백수	-11.337
▁싸울	-11.3371
▁나왔다고	-11.3374
▁기자	-11.3374
▁살다가	-11.3385
▁신기하네	-11.3389
▁극장	-11.339
▁노동	-11.3401
▁넣으면	-11.3402
▁연말에	-11.3403
▁대한민국	-11.3413
▁토마토	-11.3413
▁tv	-11.3413
▁즐겁	-11.3414
▁리뷰	-11.3415
▁찾기	-11.3416
한다니까	-11.3425
▁입술	-11.3425
▁최소한	-11.3439
▁나오기	-11.3442
▁노원	-11.3444
▁없어졌어	-11.3456
▁알아본	-11.3456
▁전달	-11.3459
▁받아들이	-11.3479
넨	-11.3482
▁대통령	-11.3489
▁메이크업	-11.3489
냬	-11.3489
룬	-11.3489
숲	-11.3489
▁사귈	-11.3489
▁슬픈	-11.3489
▁일어난	-11.3489
▁안녕하세요	-11.3489
라운드	-11.3489
▁심각하	-11.349
▁하얀색	-11.3492
▁앤데	-11.3494
겠니	-11.3495
▁알려준	-11.3497
▁가져오	-11.35
▁안녕	-11.35
쩔	-11.3503
▁어쩌고	-11.3505
▁회색	-11.351
▁여자들은	-11.3511
▁만들기	-11.3512
▁전화해서	-11.3514
▁양식	-11.3515
▁소식	-11.3523
▁요일	-11.3527
램	-11.3535
▁행복한	-11.3544
▁준비해야	-11.3552
▁않았던	-11.3557
▁있었다고	-11.3562
▁리더	-11.3564
▁스튜디오	-11.3564
▁예체능	-11.3564
▁유투버	-11.3564
셜	-11.3564
숏	-11.3564
젓	-11.3564
▁오디션	-11.3564
▁무거운	-11.3564
▁쪼그만	-11.3565
▁필름	-11.3565
▁붙잡	-11.3567
▁생활비	-11.3576
▁추울	-11.3582
▁동의	-11.3584
▁외워	-11.3591
▁아줌마들	-11.3596
하셨어	-11.3614
▁위험한	-11.3618
▁설정	-11.3623
▁조회	-11.3631
▁프사	-11.3636
▁많았던	-11.3639
▁리버풀	-11.3641
▁마이너스	-11.3641
뇨	-11.3641
▁놀이기구	-11.3641
▁짜장면	-11.3641
▁카카오톡	-11.3641
▁라이브	-11.3643
▁삭제	-11.3645
▁깔끔하게	-11.365
▁편할	-11.3662
▁일반인	-11.3663
보험	-11.3666
▁계셔	-11.3667
방송	-11.3668
▁뛰고	-11.3672
▁세부	-11.3677
▁놀랐	-11.3691
▁없었다	-11.3696
▁용인	-11.3698
▁이득	-11.3698
▁간단한	-11.3701
▁커지	-11.3702
▁좋아졌	-11.3704
잔데	-11.3705
▁특별	-11.3706
▁취한	-11.3709
▁가져와	-11.3714
뽕	-11.3718
▁무한리필	-11.3718
▁파란색	-11.3718
▁엑셀	-11.3718
▁커리	-11.3718
▁도어락	-11.3718
▁정거장	-11.3718
▁뷰티	-11.3718
▁룸메	-11.3718
하자마자	-11.3718
▁환불	-11.3719
▁99	-11.3724
▁올라간	-11.3724
▁가능성이	-11.3725
▁특별한	-11.3731
분이면	-11.3735
▁가족들이랑	-11.3737
엑	-11.374
▁먹던	-11.3743
▁동시에	-11.3749
춤	-11.3754
덴	-11.3756
▁요소	-11.3766
▁무료로	-11.3768
▁오키	-11.377
▁보던	-11.378
▁궁금해서	-11.3782
▁그러시	-11.3787
▁그러거든	-11.3787
▁모집	-11.3788
▁직원들	-11.3793
u	-11.3795
▁2019	-11.3795
▁디저트	-11.3795
▁디즈니	-11.3795
▁일러스트	-11.3795
▁춘천	-11.3796
▁보라색	-11.3796
▁짜증나	-11.3796
▁그러기	-11.3796
▁토끼	-11.3805
▁작업실	-11.3806
▁비쌀	-11.3806
▁돌아왔	-11.3807
▁마취	-11.3808
▁싶대	-11.3811
▁얼음	-11.3814
▁갠가	-11.3814
▁그렇구	-11.3815
▁성향이	-11.3818
▁원이면	-11.3819
▁공통	-11.382
▁봤으니까	-11.3824
▁동양	-11.3827
▁왔으면	-11.3839
▁분당	-11.3841
▁깨지	-11.3853
▁청소년	-11.3853
▁혼났	-11.3854
▁좋아했는데	-11.3854
▁많네	-11.3864
▁속에서	-11.3864
▁보상	-11.3866
▁면에서	-11.3867
▁써가지고	-11.3869
톱	-11.3872
▁아무렇지	-11.3873
▁보여준	-11.3874
▁웃어	-11.3874
▁풀려	-11.3876
▁빵빵	-11.3877
언니	-11.388
▁해석	-11.3886
▁요런	-11.3886
동안	-11.3891
▁설계	-11.3892
▁일어났는데	-11.3892
▁연예인들	-11.3894
▁쪼끔씩	-11.3903
▁그르니까	-11.3904
▁2000	-11.3906
▁29	-11.3911
▁일어나면	-11.3913
낭	-11.3914
▁없구나	-11.3919
▁기르	-11.3919
▁일어나야	-11.3926
▁입원	-11.3928
▁빠지면	-11.3929
얘	-11.3938
▁비싼데	-11.394
적이야	-11.3942
▁질려	-11.3948
▁페미니즘	-11.3952
▁포트폴리오	-11.3952
▁허벅지	-11.3952
▁면세점	-11.3952
▁해산물	-11.3952
▁엠티	-11.3953
▁핑계	-11.3953
▁다다음	-11.3954
▁그애서	-11.3954
▁국립	-11.3957
▁초딩	-11.3958
▁못하겠	-11.3959
▁글씨	-11.3962
분들도	-11.3964
▁더럽	-11.3965
▁새터	-11.3966
▁붙었어	-11.3967
▁지나서	-11.3971
▁내려가면	-11.3973
했더니	-11.3973
▁인해서	-11.3975
▁벌레	-11.3977
하죠	-11.3978
▁운동화	-11.3988
사님	-11.3991
▁구분	-11.3991
▁빌려주	-11.3992
▁분리	-11.4014
▁망해	-11.4014
▁아쉽다	-11.4014
▁배우들	-11.402
폼	-11.4031
▁뜨거운	-11.4031
쥬	-11.4031
▁오징어	-11.4031
▁불쌍해	-11.4032
홍	-11.4037
▁어떨까	-11.4037
▁만난다	-11.4039
▁벌었	-11.4044
▁웃음	-11.4045
▁구하기	-11.4047
▁반반	-11.4057
▁얘기하자	-11.4058
▁이상형	-11.4058
▁되니깐	-11.4061
렇	-11.4066
▁가능해	-11.4067
▁맛있대	-11.4067
▁그래가지	-11.4068
▁아니었나	-11.4068
▁바꾸면	-11.4079
▁사준다	-11.4079
▁그래가꼬	-11.4082
▁찍어야	-11.4093
▁구석	-11.4097
▁터치	-11.4098
했을걸	-11.4103
뷰	-11.4109
굔	-11.4111
▁바나나	-11.4112
▁왜냠	-11.4113
▁티켓팅	-11.4113
▁마라탕	-11.4113
▁겹쳐	-11.4123
▁불러서	-11.4125
▁상영	-11.4126
▁같기는	-11.4129
▁오랜	-11.4132
▁박사	-11.414
▁청주	-11.4141
사항	-11.4141
▁자막	-11.4144
▁고수	-11.4146
거리고	-11.4146
▁사람들끼리	-11.4155
▁극한	-11.416
▁사료	-11.4173
▁울었	-11.4177
▁선생	-11.4179
▁원작	-11.4179
▁보안	-11.4183
즘	-11.419
렴	-11.4191
▁인간관계	-11.4192
▁여드름	-11.4192
깃	-11.4192
▁농담	-11.4193
▁언닌	-11.4193
▁범위	-11.4194
▁알겠습니다	-11.4197
타워	-11.4198
▁받았다	-11.4199
▁내려갈	-11.4199
▁내려와	-11.4204
▁솔로	-11.4206
▁생리	-11.4211
▁매직	-11.4211
▁말하니까	-11.4217
▁찾아보니까	-11.422
▁조직	-11.4224
큰	-11.4231
▁친해졌	-11.4232
▁되어있	-11.4236
▁다행인	-11.4238
쳤는데	-11.4247
▁났는데	-11.425
었는지	-11.425
▁귀엽다	-11.4258
▁고통	-11.4259
▁다니던	-11.426
▁접수	-11.4267
▁입사	-11.4268
K	-11.4273
쉰	-11.4273
▁고깃집	-11.4273
▁트레이너	-11.4273
▁괴롭	-11.4273
▁규칙	-11.4274
▁압박	-11.4275
▁로봇	-11.4275
▁재밌잖아	-11.4276
▁저쪽	-11.4283
▁완성	-11.4285
▁좋아해가지고	-11.4291
▁특수	-11.4308
▁먹거나	-11.4316
▁걸려서	-11.4325
▁않으	-11.433
▁힘드	-11.4333
공학과	-11.4334
▁걸리면	-11.4339
▁여권	-11.4345
렬	-11.4355
얄	-11.4355
▁박물관	-11.4355
▁모바일	-11.4356
▁신입	-11.4356
▁희망	-11.4359
▁가져갈	-11.436
▁국밥	-11.4361
▁기다려야	-11.437
▁과장	-11.4373
▁만났던	-11.4376
었네	-11.4376
▁먹으라고	-11.4378
▁부담스럽	-11.4384
▁치워	-11.4387
▁받으니까	-11.4396
▁들었었	-11.4407
▁인터넷에서	-11.4408
▁올리면	-11.4418
▁시집	-11.4419
▁보이긴	-11.4427
▁학비	-11.4429
▁맞긴	-11.4436
v	-11.4438
횡	-11.4438
▁알기론	-11.4438
▁불가능	-11.4438
▁무제한	-11.4438
▁판타지	-11.4438
▁뒤집어	-11.4438
터미널	-11.4438
▁생각해봐	-11.4439
▁자극적	-11.4441
▁몰르겠어	-11.4442
▁냄새나	-11.4442
▁투표	-11.4444
▁설탕	-11.4445
▁친해질	-11.4449
▁학교생활	-11.4451
▁까먹고	-11.4453
▁추리	-11.446
▁45	-11.446
▁얘긴데	-11.4463
▁키운	-11.4465
▁증명	-11.4467
그램	-11.4469
빨	-11.451
▁궁금하다	-11.4517
▁이득이	-11.4519
렛	-11.4521
Y	-11.4521
f	-11.4521
▁머리카락	-11.4521
▁덮밥	-11.4522
▁모으고	-11.4522
▁닭갈비	-11.4522
▁구해야	-11.4525
▁넘어갈	-11.4529
▁감각	-11.4529
▁가져왔	-11.4531
▁괜찮았는데	-11.454
▁치킨집	-11.454
▁연습실	-11.4541
▁먹어봤는데	-11.4545
▁기준으로	-11.4546
철이	-11.4547
▁이해할	-11.4548
▁성우	-11.4555
줬던	-11.4556
▁올라와서	-11.4565
▁전통	-11.4566
웨	-11.4571
▁예쁘다	-11.4589
옹	-11.4605
▁샌드위치	-11.4605
▁주휴수당	-11.4605
뉘	-11.4605
▁못생겼	-11.4605
▁말했듯이	-11.4606
▁미뤄	-11.4607
▁마음대로	-11.4615
▁마늘	-11.4615
▁받기	-11.4622
▁느리	-11.4622
▁재밌대	-11.4622
▁몇백	-11.4624
▁따지고	-11.463
▁심했	-11.4632
▁먹어본	-11.4634
▁바빠서	-11.4649
떨	-11.4652
▁포차	-11.4655
▁달달	-11.4659
▁열차	-11.4663
▁재수할	-11.4666
▁슬기	-11.4666
▁묶어	-11.4674
▁망했다	-11.4681
▁있었대	-11.4684
▁초콜릿	-11.469
옵	-11.469
▁정확한	-11.469
▁배터리	-11.469
▁셀카	-11.4691
▁버전	-11.4697
▁고데기	-11.4697
▁친했	-11.4699
▁현실적으로	-11.4702
▁혹은	-11.4704
▁있길래	-11.4704
▁조각	-11.4708
▁숙제	-11.4708
▁특정	-11.472
▁이상하다	-11.4728
쭉	-11.4731
▁찾아야	-11.4737
▁망원	-11.4739
▁생물	-11.4744
▁놀자	-11.4748
▁배려	-11.4751
▁행복해	-11.4754
▁출구	-11.4755
미터	-11.4759
▁특성	-11.4763
만원이면	-11.4769
▁나오긴	-11.4771
뻘	-11.4776
▁슬라임	-11.4776
콕	-11.4776
▁청바지	-11.4776
▁일어났어	-11.4779
▁당첨	-11.4779
▁체대	-11.478
▁삼천	-11.4782
▁생각났어	-11.4785
▁먹어보	-11.4787
▁제외	-11.4789
▁스킬	-11.4789
▁발달	-11.4797
▁있죠	-11.4804
▁지혜	-11.4807
▁흘리	-11.4812
▁친해져	-11.4818
▁이슈	-11.4822
▁시력	-11.4824
▁옆으로	-11.4827
▁느낌이었어	-11.4847
▁조선	-11.4849
▁확실하	-11.485
▁넘어가면	-11.4852
껍	-11.486
쑥	-11.4862
옴	-11.4862
젖	-11.4862
x	-11.4862
▁배웠어	-11.4862
▁봉사활동	-11.4862
깄	-11.4862
▁아이패드	-11.4862
▁변호사	-11.4862
▁버거킹	-11.4862
▁궁금했	-11.4862
▁손톱	-11.4863
▁캠프	-11.4863
▁말해봐	-11.4872
▁포함해서	-11.4875
하시더라고	-11.4876
▁육회	-11.4879
▁고치	-11.4885
▁고용	-11.489
▁석사	-11.4895
놔서	-11.4905
▁만들었어	-11.4911
▁밀리	-11.492
▁서버	-11.4927
▁소린	-11.494
▁없기	-11.4943
▁심장	-11.4948
▁부끄러	-11.4949
▁양꼬치	-11.4949
므	-11.4949
▁로맨스	-11.4949
▁다이어리	-11.4949
▁더러워	-11.4949
▁600	-11.495
▁흡연	-11.495
▁쇼핑몰	-11.495
▁예뻤	-11.4951
▁구체적으로	-11.4953
▁다양하게	-11.4959
▁꽁짜로	-11.4961
▁금요일날	-11.4961
▁사라졌	-11.4964
▁벗어나	-11.4967
했기	-11.4969
▁들어왔어	-11.498
보세요	-11.4983
▁소금	-11.4995
▁서양	-11.5
검사	-11.5001
▁울었어	-11.5003
▁성경	-11.5018
▁현수	-11.502
였대	-11.5025
즌	-11.503
▁극한직업	-11.5036
괌	-11.5036
▁간호학과	-11.5036
▁셔츠	-11.5037
▁매우	-11.5037
▁노잼	-11.5038
▁솔직하게	-11.504
▁꾸며	-11.504
삐	-11.5042
으셔	-11.5048
▁전시회	-11.505
▁멀미	-11.5051
▁외출	-11.5052
바른	-11.5054
▁생겼다	-11.5063
▁가봐서	-11.5069
▁나갔는데	-11.5083
▁바에는	-11.5085
▁보장	-11.5091
▁전국	-11.5097
돼있는	-11.5097
하듯이	-11.5115
▁뉴질랜드	-11.5125
▁자유롭게	-11.5125
▁캠퍼스	-11.5125
▁롯데리아	-11.5125
▁SK	-11.5125
▁환전	-11.5132
▁먹었었	-11.5135
▁양파	-11.5148
▁돌아와	-11.5161
▁교수님한테	-11.5166
▁아침부터	-11.517
▁써있	-11.5177
▁비슷한데	-11.5197
▁글자	-11.5199
하믄	-11.52
▁환자	-11.521
▁약정	-11.521
꽈	-11.5214
▁움직여	-11.5214
▁수련회	-11.5214
▁스위스	-11.5214
▁히어로	-11.5214
▁스크린	-11.5215
▁마사지	-11.5218
▁이쁘다	-11.5218
▁들어갔다	-11.5219
▁피부과	-11.5233
▁빨개	-11.5233
▁이만한	-11.5242
댄데	-11.5243
▁넘으면	-11.5244
▁싶었거든	-11.5247
▁시각	-11.5261
▁당연하	-11.5262
▁불교	-11.5267
▁학회	-11.5287
▁통역	-11.5303
똘	-11.5304
첩	-11.5304
▁친군데	-11.5304
▁빡빡	-11.5304
▁누굴	-11.5307
▁좌석	-11.5308
▁붙이고	-11.5317
▁방탄	-11.5318
▁타투	-11.5326
▁있겠어	-11.5328
▁반말	-11.5348
딸	-11.5367
할만한	-11.5368
▁놀리	-11.5369
팬	-11.537
저런	-11.5372
▁선배님	-11.5379
▁읽었어	-11.5391
▁몰려	-11.5391
▁벗어	-11.5394
챔	-11.5395
쿵	-11.5395
▁빨리빨리	-11.5395
▁쌍둥이	-11.5395
▁엊그제	-11.5395
▁인공지능	-11.5395
▁동대문	-11.5395
▁태어났	-11.5395
▁가성비	-11.5396
▁해운대	-11.5396
▁컵라면	-11.5397
▁오뎅	-11.5397
▁심심해	-11.5398
▁가져갔	-11.5398
▁졸리	-11.5403
▁그러믄	-11.5405
▁특이하	-11.5405
▁고맙	-11.5406
▁쌤들	-11.5411
▁폭력	-11.5414
▁낫겠다	-11.5416
▁벌금	-11.5416
▁빌라	-11.5448
▁부모님들	-11.546
▁후보	-11.546
▁의외	-11.5475
총	-11.5476
갸	-11.5487
칫	-11.5487
▁감자튀김	-11.5487
▁메가박스	-11.5487
▁후드티	-11.5487
녜	-11.5487
▁모니터	-11.5487
▁즐겨	-11.5487
▁즐길	-11.5487
▁줄어들	-11.549
▁언덕	-11.5491
▁육십	-11.5492
▁손목	-11.5497
▁메모	-11.5502
▁낳고	-11.5509
▁부족한	-11.5515
▁어디였지	-11.5515
해준다고	-11.5519
▁맛있었는데	-11.552
▁피티	-11.5525
▁재밌더라	-11.5539
▁나쁘게	-11.5541
꿔	-11.5577
▁웨딩	-11.5579
▁브레이크	-11.558
▁신서유기	-11.558
쁨	-11.558
▁도깨비	-11.558
▁공짜로	-11.558
▁랜덤	-11.558
▁신도림	-11.558
▁경상도	-11.558
▁구멍	-11.5586
▁장갑	-11.5587
▁로또	-11.5589
▁무겁	-11.5591
▁가능성	-11.5594
▁뿐이지	-11.5595
▁존나	-11.5595
카페	-11.5599
▁후임	-11.5601
▁교실	-11.5608
▁검정	-11.5613
▁다르긴	-11.5623
게끔	-11.5623
▁동생한테	-11.5638
▁방문	-11.5649
▁구독	-11.5652
▁하시는데	-11.5653
▁고맙다	-11.5663
잼	-11.5671
▁탕수육	-11.5673
탭	-11.5673
▁대한항공	-11.5673
▁코엑스	-11.5673
▁사무직	-11.5673
▁떠오르	-11.5673
▁비속어	-11.5673
▁몽골	-11.5673
▁잔소리	-11.5674
▁덩치	-11.5679
▁쌍수	-11.5681
▁보컬	-11.5682
▁액정	-11.5686
▁토요일날	-11.5687
▁마침	-11.5689
▁점심시간	-11.5696
▁들어있는	-11.5696
▁심리학	-11.5698
▁동작	-11.5703
▁생각했거든	-11.5706
▁명품	-11.5716
▁야외	-11.5717
▁전교	-11.5729
▁질리	-11.5761
▁외워야	-11.5764
▁배고픈	-11.5767
▁어벤저스	-11.5767
랫	-11.5767
▁메리트	-11.5767
▁체인점	-11.5767
▁워킹	-11.5769
▁수학여행	-11.577
▁또다시	-11.5772
▁작곡	-11.5772
▁달랐	-11.5779
▁맞출	-11.578
▁올라가면	-11.5789
▁실버	-11.5797
▁이모부	-11.58
▁양쪽	-11.5801
▁싶으니까	-11.5811
▁정작	-11.5821
▁돌아가셨	-11.5834
슴	-11.5852
y	-11.5863
▁프로그래밍	-11.5863
섰	-11.5863
펀	-11.5863
▁따뜻해	-11.5863
▁효율	-11.5863
▁하와이	-11.5866
▁개꿀	-11.5866
▁연휴	-11.5869
▁마련	-11.5875
▁않았지만	-11.5877
▁생겨가지고	-11.5881
▁기말	-11.5886
▁의문	-11.5886
▁쌤한테	-11.5893
▁덴데	-11.5893
▁학식	-11.5895
▁파워	-11.59
▁때문인	-11.5911
놔가지고	-11.5913
▁같았어	-11.592
라이트	-11.5921
▁완벽	-11.5939
▁따르	-11.5939
▁부르면	-11.5946
마저	-11.5949
즉	-11.5959
/	-11.5959
▁오키나와	-11.5959
▁새내기	-11.5959
▁스케이트	-11.5959
▁존중	-11.596
▁께속	-11.596
▁맥북	-11.5961
▁경영학과	-11.5962
▁친절하	-11.5963
▁드렸	-11.5983
▁시켰는데	-11.5989
▁먹음	-11.6009
▁고향	-11.6017
▁몰랐거든	-11.6031
▁끼면	-11.6037
뭐	-11.6045
▁좋겠네	-11.6056
랗	-11.6056
▁찜닭	-11.6056
▁웃으면서	-11.6058
▁아주머니	-11.6058
▁왔냐	-11.6059
▁명지대	-11.6062
▁현타	-11.6074
▁최신	-11.6077
▁탄산	-11.6079
▁친구들끼리	-11.608
▁프라이	-11.6085
▁터진	-11.6086
▁주차장	-11.6108
▁남았네	-11.6119
▁물어봤거든	-11.6122
▁늘었	-11.6128
▁발생	-11.6128
▁계셨	-11.6135
▁롱패딩	-11.6154
▁바퀴벌레	-11.6154
▁한꺼번에	-11.6154
퀘	-11.6154
▁헌혈	-11.6154
▁착각	-11.6155
▁나타나	-11.6155
▁만화책	-11.6156
▁돼지고기	-11.6157
▁쪼꼬	-11.6157
▁그담에	-11.6157
▁보여줄게	-11.6159
▁버튼	-11.616
▁160	-11.616
흐	-11.6161
▁돌아다니면서	-11.6167
▁살아있	-11.6167
▁죽었어	-11.6172
▁상근	-11.6186
▁몰랐다	-11.6194
님들	-11.6203
▁신기했	-11.6211
▁먹어봐	-11.6226
▁쓸데없	-11.6228
▁위험해	-11.6229
▁호감	-11.623
▁나오겠지	-11.6233
▁당했	-11.6247
멈	-11.6253
▁갈라면	-11.6253
찝	-11.6253
▁드래곤	-11.6253
▁중간중간	-11.6253
벙	-11.6253
솜	-11.6253
▁캡틴	-11.6253
빌딩	-11.6254
▁전철	-11.6261
▁접근	-11.6261
▁편견	-11.6265
▁취급	-11.6269
▁부족해	-11.6277
▁후배들	-11.628
▁구독자	-11.6286
▁알아봤는데	-11.6289
▁복전	-11.63
▁없음	-11.6303
▁좋았다	-11.6311
▁임원	-11.6313
▁택시비	-11.6314
▁못하겠어	-11.6322
캡	-11.6353
앨	-11.6353
▁느꼈던	-11.6353
룡	-11.6353
퓨	-11.6353
않	-11.6394
훌	-11.6454
곽	-11.6454
쓱	-11.6556
렵	-11.6598
늬	-11.6659
럴	-11.6743
팟	-11.6763
겄	-11.6763
돔	-11.6763
픈	-11.6778
깨	-11.6816
쩐	-11.6859
닷	-11.6868
텝	-11.6868
텅	-11.6975
귓	-11.7082
뻤	-11.7188
깅	-11.7191
짖	-11.7191
찹	-11.7191
탠	-11.7191
툴	-11.7301
햇	-11.7412
욜	-11.7412
얌	-11.7412
왓	-11.7412
혐	-11.7524
뤄	-11.7636
뛸	-11.7638
벳	-11.7638
겟	-11.7638
뒤	-11.77
퀸	-11.7753
퍽	-11.7753
댈	-11.7869
숍	-11.7869
힙	-11.7987
됨	-11.8106
얀	-11.8218
눕	-11.8226
걱	-11.8348
갇	-11.8348
뻑	-11.8348
봄	-11.8405
j	-11.8472
팸	-11.8472
깍	-11.8597
퐁	-11.8597
쎄	-11.8707
뼈	-11.8707
끝	-11.8709
둑	-11.8713
획	-11.8721
햄	-11.8723
h	-11.8723
뭇	-11.8723
잎	-11.8723
츄	-11.8723
랙	-11.8851
삽	-11.8852
쯔	-11.8852
풋	-11.8981
셈	-11.8981
쌔	-11.8981
엉	-11.9017
씀	-11.9106
콧	-11.9113
읍	-11.9113
맘	-11.9176
눅	-11.9246
밸	-11.9246
헤	-11.9337
멀	-11.9494
꿈	-11.9503
롯	-11.9517
덧	-11.9519
렙	-11.9519
슥	-11.9519
쬐	-11.9519
쉽	-11.9568
왠	-11.965
럿	-11.9657
닫	-11.9678
꼼	-11.9798
팽	-11.9798
릏	-11.9798
샹	-11.9798
짭	-11.9798
흙	-11.9798
최	-11.9834
괄	-11.9941
늑	-11.9941
즙	-11.9941
둡	-12.0086
륙	-12.0086
삿	-12.0086
캉	-12.0086
킷	-12.0086
뿌	-12.0185
엣	-12.0233
톨	-12.0233
쿡	-12.0233
쁘	-12.0323
낑	-12.0382
덟	-12.0531
뱃	-12.0532
왁	-12.0534
줏	-12.0534
짚	-12.0534
빼	-12.0544
찐	-12.0544
싹	-12.0546
뛰	-12.0548
륨	-12.0844
쫑	-12.0844
갤	-12.1003
짼	-12.1003
펄	-12.1003
겜	-12.1003
킥	-12.1003
떤	-12.1103
빡	-12.111
봇	-12.1161
W	-12.1164
돗	-12.1164
렐	-12.1164
붐	-12.1164
싯	-12.1164
웰	-12.1164
못	-12.1283
찢	-12.1307
팥	-12.1328
륜	-12.1328
많	-12.1498
쏟	-12.1661
윽	-12.1664
씹	-12.1711
Q	-12.1836
갯	-12.1836
짤	-12.1919
쪼	-12.192
꼭	-12.1927
꿀	-12.2123
렷	-12.219
셰	-12.2191
깝	-12.2278
볍	-12.2372
뢰	-12.2554
쿼	-12.2557
싼	-12.2796
넣	-12.2801
셉	-12.2938
헐	-12.304
꼴	-12.3271
펙	-12.3332
멕	-12.3335
땐	-12.3381
쏘	-12.3765
넌	-12.3767
쩡	-12.3959
앞	-12.4022
댓	-12.4399
낌	-12.5097
탔	-12.5118
쵸	-12.5228
숫	-12.5584
녹	-12.6682
힘	-12.6685
좀	-12.6686
룹	-12.6831
젝	-12.6945
낙	-12.7027
뎅	-12.7847
툰	-12.7854
찾	-12.8542
틸	-12.9211
듣	-12.9386
옆	-12.9391
쓴	-12.9393
퀄	-12.9582
칵	-12.9967
쟤	-13.0319
퀴	-13.0353
녁	-13.0362
멧	-13.0784
왜	-13.0826
첼	-13.1214
땀	-13.1348
꼰	-13.2143
촬	-13.2149
녕	-13.2573
슐	-13.3176
맙	-13.3725
찡	-13.3731
썹	-13.4943
왤	-13.5611
욘	-13.5611
썰	-13.7009
핫	-13.7009
뽑	-13.701
쁜	-13.7035
곧	-13.8012
냠	-13.8824
펐	-13.8837
뀌	-13.9834
낫	-14.0373
쫌	-14.0375
걔	-14.1804
넓	-14.3469
쭝	-14.3553
귄	-14.3617
밌	-14.3625
쿄	-14.5282
텨	-14.5292
뀐	-14.729
횟	-14.9783
뭔	-15.1313
걍	-15.6329
땠	-15.8066
귈	-15.8117
뀔	-15.8124
펭	-15.8127
뭘	-16.6437
삘	-16.7971
딲	-16.7972
잣	-16.7973
슝	-16.7974
붉	-16.7975
껐	-16.7976
뵈	-16.7977
쏴	-16.7978
쏙	-16.7979
봅	-16.798
닙	-16.7981
얗	-16.7982
픔	-16.7983
펫	-16.7984
숟	-16.7985
넜	-16.7986
늫	-16.7987
됩	-16.7988
얜	-16.7989
샴	-16.799
굵	-16.7991
엮	-16.7992
뻗	-16.7993
깠	-16.7994
옳	-16.7995
훠	-16.7996
씌	-16.7997
꺾	-16.7998
벚	-16.7999
쭤	-16.8
껑	-16.8001
넛	-16.8002
맑	-16.8003
숱	-16.8004
펼	-16.8005
맺	-16.8006
폈	-16.8007
얹	-16.8008
팁	-16.8009
뱉	-16.801
굶	-16.8011
뭣	-16.8012
깼	-16.8013
짰	-16.8014
쏠	-16.8015
찼	-16.8016
융	-16.8017
훔	-16.8018
흉	-16.8019
섹	-16.802
맣	-16.8021
빚	-16.8022
뺑	-16.8023
빴	-16.8024
엎	-16.8025
뭉	-16.8026
딪	-16.8027
낯	-16.8028
멤	-16.8029
넉	-16.803
췄	-16.8031
엊	-16.8032
쌈	-16.8033
쫍	-16.8034
돋	-16.8035
밟	-16.8036
쉴	-16.8037
쌌	-16.8038
긁	-16.8039
띄	-16.804
늙	-16.8041
앱	-16.8042
좁	-16.8043
뺏	-16.8044
쫓	-16.8045
헷	-16.8046
쫙	-16.8047
샐	-16.8048
릎	-16.8049
붕	-16.805
꽉	-16.8051
겪	-16.8052
땄	-16.8053
뷔	-16.8054
뜯	-16.8055
낚	-16.8056
뺐	-16.8057
얇	-16.8058
왼	-16.8059
팠	-16.806
잊	-16.8061
혔	-16.8062
뚱	-16.8063
닮	-16.8064
뒀	-16.8065
꼐	-16.8066
떴	-16.8067
컸	-16.8068
깎	-16.8069
묻	-16.807
밝	-16.8071
꿨	-16.8072
섞	-16.8073
뒷	-16.8074
딨	-16.8075
걷	-16.8076
잃	-16.8077
N	-16.8078
홉	-16.8079
삶	-16.808
깊	-16.8081
웹	-16.8082
씻	-16.8083
걘	-16.8084
뚫	-16.8085
숨	-16.8086
얻	-16.8087
흔	-16.8088
눠	-16.8089
옮	-16.809
젊	-16.8091
맡	-16.8092
쌓	-16.8093
잤	-16.8094
믿	-16.8095
꽤	-16.8096
짧	-16.8097
멋	-16.8098
볶	-16.8099
낮	-16.81
꼈	-16.8101
녔	-16.8102
훨	-16.8103
굉	-16.8104
첫	-16.8105
냈	-16.8106
썼	-16.8107
앉	-16.8108
높	-16.8109
끊	-16.811
샀	-16.8111
굳	-16.8112
늦	-16.8113
읽	-16.8114
웠	-16.8115
옛	-16.8116
놓	-16.8117
찍	-16.8118
싫	-16.8119
괜	-16.812
떻	-16.8121
찮	-16.8122
랬	-16.8123
깥	-16.8124
좋	-16.8124
