[PAD]	0
[UNK]	0
[BOS]	0
[EOS]	0
[unused0]	0
[unused1]	0
[unused2]	0
[unused3]	0
[unused4]	0
[unused5]	0
[unused6]	0
[unused7]	0
[unused8]	0
[unused9]	0
[SEP]	0
[SEPT]	0
[MASK]	0
{laughing}	0
{clearing}	0
{singing}	0
{applauding}	0
~	0
▁	-3.01188
.	-3.38971
을	-4.18438
도	-4.23655
▁그	-4.34677
가	-4.49004
는	-4.55103
▁거	-4.60389
를	-4.62281
▁뭐	-4.73506
▁어	-4.77221
이	-4.799
▁그런	-4.95561
은	-5.04176
▁이제	-5.08439
에	-5.13208
▁그래서	-5.13798
고	-5.16947
?	-5.19511
▁많이	-5.2033
▁쫌	-5.33804
▁안	-5.35298
▁또	-5.35499
▁근데	-5.51019
의	-5.55019
▁게	-5.5682
▁한	-5.62887
▁때	-5.63182
▁이런	-5.64124
지	-5.64806
▁저는	-5.68718
▁수	-5.69342
▁하고	-5.70944
▁이렇게	-5.72081
▁이	-5.74256
▁인제	-5.77846
▁제가	-5.80738
▁아	-5.80901
▁막	-5.84596
▁있는	-5.84767
▁너무	-5.84787
▁그냥	-5.85015
▁되게	-5.85397
▁내가	-5.8593
▁다	-5.89637
▁잘	-5.93355
▁같은	-5.94964
나	-5.95827
서	-5.96938
▁지금	-5.98854
로	-6.01019
▁더	-6.0274
▁그리고	-6.02995
하고	-6.05599
▁나는	-6.08698
▁그렇게	-6.10783
▁좀	-6.11189
만	-6.11721
▁하는	-6.12254
에서	-6.13977
요	-6.1445
▁음	-6.20041
히	-6.25271
게	-6.26731
▁때문에	-6.2697
▁우리	-6.2842
다	-6.33068
▁어떤	-6.35094
한	-6.35854
▁생각을	-6.37435
▁혹시	-6.3765
▁보니까	-6.40044
▁정말	-6.41497
기	-6.43197
▁진짜	-6.43503
▁일	-6.44396
으로	-6.45542
▁해	-6.47404
▁할	-6.48372
▁약간	-6.48899
▁저	-6.51202
▁못	-6.51611
▁걸	-6.52088
던	-6.52692
▁그게	-6.53107
▁내	-6.53854
▁같애요	-6.53925
▁것	-6.55034
▁있고	-6.55067
▁같이	-6.56401
▁해서	-6.58341
▁나	-6.5847
어	-6.59011
라고	-6.60166
▁그래	-6.6037
▁있는데	-6.60859
▁그때	-6.62284
하는	-6.62444
▁것도	-6.63558
▁굉장	-6.66551
인	-6.67211
▁어떻게	-6.68877
▁같애	-6.71687
▁생각이	-6.71907
▁좋은	-6.72453
▁사	-6.74456
▁이게	-6.77177
들이	-6.777
리	-6.79328
이나	-6.80463
야	-6.81082
▁대해서	-6.81626
라	-6.81869
▁제	-6.83928
면	-6.84384
할	-6.84693
▁네	-6.85662
▁보고	-6.8796
라는	-6.88773
▁저도	-6.88882
▁다른	-6.89137
구	-6.90693
▁제일	-6.91781
▁가장	-6.92353
는데	-6.93159
진	-6.93679
▁좋아하는	-6.94055
▁정도	-6.94374
▁번	-6.95891
▁쪼끔	-6.96617
해	-6.96906
▁사실	-6.97024
▁건	-6.97436
▁영화	-6.97479
들	-7.00229
▁때는	-7.00969
긴	-7.01282
▁요즘	-7.01916
▁사람	-7.03799
▁생각	-7.04312
과	-7.04364
▁친구	-7.05577
니까	-7.05846
▁저희	-7.05901
▁거는	-7.05919
▁자기	-7.06506
▁싶은	-7.07933
▁되는	-7.08339
▁가서	-7.08736
▁보면	-7.09134
▁계속	-7.09815
▁거야	-7.10332
▁말	-7.10648
다고	-7.11028
▁하는데	-7.11426
▁먹고	-7.11676
▁년	-7.13144
▁사람이	-7.13649
▁뭔가	-7.13955
▁있어요	-7.14228
▁그거	-7.14575
랑	-7.14916
자	-7.14998
▁있어	-7.15005
▁한번	-7.15266
▁데	-7.15524
▁해야	-7.15563
▁사람들	-7.16208
해서	-7.16658
▁되고	-7.16939
▁오	-7.17622
거나	-7.17669
가지고	-7.18054
▁아니면	-7.18816
▁참	-7.1947
대	-7.19652
▁하	-7.19702
적인	-7.20121
▁했는데	-7.21259
데	-7.21988
▁그러면	-7.22691
▁대	-7.23293
▁살	-7.24502
거든요	-7.2494
시	-7.26296
▁있어서	-7.26317
▁엄청	-7.2659
지만	-7.26763
▁결혼	-7.27209
▁사람들이	-7.27553
▁두	-7.27648
▁하나	-7.27652
▁시간	-7.27769
▁일단	-7.29457
면서	-7.30078
▁항상	-7.30335
잖아	-7.31341
▁많은	-7.31392
스	-7.32015
▁전	-7.33989
▁알바	-7.34688
▁보	-7.34807
▁하면	-7.3515
▁없는	-7.35538
▁같고	-7.36013
▁본	-7.36156
▁너는	-7.36816
▁나도	-7.37369
▁이케	-7.37982
▁왜	-7.38149
잖아요	-7.38207
▁원	-7.38932
인데	-7.39018
▁거를	-7.39027
▁딱	-7.39228
▁중에	-7.39886
하게	-7.40492
▁주	-7.40654
▁거예요	-7.41025
▁기억이	-7.41206
아	-7.41489
까지	-7.41594
▁같아요	-7.41634
▁적이	-7.41873
기도	-7.42299
▁하면서	-7.42365
▁거기	-7.42711
▁별로	-7.43295
▁될	-7.43881
두	-7.4421
▁가고	-7.44578
사	-7.44579
▁먹는	-7.45398
▁가지	-7.46486
습니다	-7.46601
적으로	-7.47195
▁돈	-7.47533
▁난	-7.47617
▁우리가	-7.47677
단	-7.47688
▁음식	-7.47967
▁아무래도	-7.47993
이라고	-7.48306
▁삼	-7.49203
▁학교	-7.49923
▁거의	-7.49985
▁있	-7.50207
▁보면은	-7.50408
▁아까	-7.5052
일	-7.51046
▁엄마	-7.51439
▁꼭	-7.51571
▁그걸	-7.51783
▁기억에	-7.52655
▁큰	-7.52748
▁여러	-7.53605
거든	-7.53652
▁있습니다	-7.53972
▁대한	-7.53999
▁이거	-7.54731
▁여행	-7.5518
▁지	-7.55288
▁비	-7.57505
▁있을	-7.58136
▁보는	-7.58342
▁다시	-7.58842
들을	-7.58886
▁일을	-7.58942
▁같은데	-7.58962
면은	-7.59014
▁갈	-7.59193
▁세	-7.59257
▁쪼금	-7.59402
처럼	-7.59823
▁예	-7.6006
▁그것	-7.60683
상	-7.60937
▁코로나	-7.61024
장	-7.61035
▁그래가지고	-7.61615
▁전에	-7.61924
▁그니까	-7.62551
▁몇	-7.62577
▁생각해	-7.62993
▁지금은	-7.63695
▁그러니까	-7.6386
▁선물	-7.64407
▁싶	-7.64708
주	-7.64777
▁어느	-7.65154
한테	-7.65273
▁집	-7.65414
▁적	-7.6556
이랑	-7.66323
▁개	-7.66385
▁가는	-7.67218
구요	-7.68216
▁볼	-7.68311
▁그런데	-7.68353
▁아니	-7.684
▁아니라	-7.68922
▁시	-7.6967
하	-7.69751
부터	-7.70162
와	-7.70623
이라는	-7.70677
▁줄	-7.71492
▁영화를	-7.71589
▁하지만	-7.71741
▁그거를	-7.72121
니	-7.72559
▁않고	-7.72568
▁같습니다	-7.73251
▁얘기를	-7.74005
▁최근에	-7.74239
▁가지고	-7.74289
더라고요	-7.74557
▁서로	-7.74749
▁아직	-7.75472
▁집에	-7.75535
▁공부	-7.75764
▁솔직히	-7.75919
신	-7.7597
어요	-7.76616
치	-7.76727
▁분	-7.76911
▁위해서	-7.7785
수	-7.78096
▁같아	-7.78313
▁거기서	-7.78485
▁자주	-7.78806
더라구요	-7.79065
▁운동	-7.79249
▁성격	-7.79613
▁반	-7.79641
▁집에서	-7.80433
드	-7.81099
▁마	-7.81155
▁명	-7.81183
▁얼마	-7.8128
▁배우	-7.81352
▁가족	-7.81489
▁경우는	-7.82182
▁혼자	-7.82677
보	-7.82722
▁부분	-7.82802
▁언니	-7.82918
▁강아지	-7.83343
▁된	-7.83505
보다는	-7.83744
▁했던	-7.83868
▁남자	-7.84241
러	-7.84265
▁얘기	-7.84382
▁없	-7.84449
▁성격이	-7.84665
▁나중에	-7.84975
▁고등학교	-7.85012
▁알고	-7.85321
▁문제	-7.85332
▁처음	-7.85532
▁없고	-7.8609
▁자	-7.86333
▁그럼	-7.86465
▁아르바이트	-7.86691
▁어렸을	-7.86826
▁생활	-7.87456
▁한데	-7.87613
▁하니까	-7.87702
▁가면	-7.87745
▁원래	-7.88032
▁예전에	-7.88328
▁차	-7.88623
▁간	-7.88715
▁물론	-7.88929
▁수도	-7.89069
▁선물을	-7.89335
▁되는데	-7.89588
▁만약에	-7.89906
▁남	-7.89979
보다	-7.9007
▁부	-7.90486
▁학년	-7.90646
다가	-7.91195
질	-7.91207
▁되	-7.91225
▁여행을	-7.91444
▁왜냐면	-7.91875
▁고양이	-7.91888
▁너	-7.92171
▁우리나라	-7.92189
▁기억	-7.92368
으면	-7.92679
▁해요	-7.92724
▁싶어	-7.92853
된	-7.92855
했던	-7.9303
▁보면서	-7.93114
▁드라마	-7.93301
▁특히	-7.93658
구나	-7.93835
전	-7.94315
▁돼	-7.94901
▁날	-7.9511
▁남는	-7.95341
▁않을까	-7.95467
▁어디	-7.95725
죠	-7.95837
▁먹	-7.95933
려	-7.96367
▁보통	-7.96454
▁일이	-7.96896
▁좋	-7.97012
▁연애	-7.97174
▁구	-7.9725
트	-7.97343
▁정	-7.9749
지는	-7.97928
▁무슨	-7.98299
네	-7.98342
▁건강	-7.98369
▁있었는데	-7.98684
비	-7.98755
▁애	-7.98804
었는데	-7.99305
었던	-7.99452
▁애들	-7.99869
▁아니고	-7.99892
▁있으신가요	-7.99927
▁편	-7.99994
성	-8.00323
▁하지	-8.00478
▁같	-8.00677
▁여자	-8.00746
▁먹을	-8.01028
▁있다고	-8.01114
부	-8.01187
▁하게	-8.01242
려고	-8.0141
▁아빠	-8.01649
▁무	-8.02471
▁나라	-8.03079
들은	-8.03228
▁달	-8.03372
▁해가지고	-8.03405
▁그다음에	-8.03744
▁이야기	-8.0377
든	-8.04337
다는	-8.04684
원	-8.04863
▁마음	-8.05176
어서	-8.05309
▁말을	-8.05431
▁것들	-8.05492
▁요리	-8.05541
▁그러	-8.05868
하지	-8.05914
▁하면은	-8.05976
▁들	-8.06372
▁되면	-8.06735
▁밥	-8.06744
여	-8.06865
▁여	-8.0826
▁아마	-8.08357
▁열	-8.08469
▁나서	-8.08555
▁주는	-8.0858
화	-8.0909
▁있으면	-8.09116
▁있다	-8.09188
▁선수	-8.09745
▁나오는	-8.10386
정	-8.107
우	-8.10751
▁일본	-8.10884
산	-8.11048
▁요즘에	-8.11349
더라고	-8.11798
▁식으로	-8.11946
▁알	-8.12018
선	-8.12329
▁열심히	-8.12666
▁엄마가	-8.1272
▁경우에는	-8.12853
▁중에서	-8.12953
▁유	-8.13109
▁중	-8.13118
▁공	-8.13403
실	-8.13421
마	-8.14001
▁맞는	-8.14121
엔	-8.14246
동	-8.14915
▁것이	-8.14994
래	-8.15389
▁시간이	-8.15392
▁하다	-8.15492
▁있으세요	-8.15554
식	-8.15884
▁한국	-8.15987
▁경우	-8.16728
▁딸	-8.16899
미	-8.17016
▁있잖아요	-8.17026
오	-8.17102
▁해도	-8.17559
▁주고	-8.1775
▁기	-8.17771
▁활동	-8.17864
▁물	-8.17932
▁걔	-8.17939
▁여름	-8.18348
▁걸로	-8.18503
하기	-8.18662
까	-8.18765
▁나이	-8.18776
▁말이야	-8.19247
하면서	-8.19249
으니까	-8.19294
▁에	-8.19344
▁오히려	-8.19542
▁친구들	-8.19579
▁애들이	-8.19731
가지구	-8.19827
▁그러면은	-8.19868
▁따른	-8.20027
▁아이	-8.2004
▁십	-8.20127
▁갔다	-8.20172
▁합니다	-8.20175
▁불	-8.20182
▁선생님	-8.20349
▁말고	-8.20655
▁부분이	-8.20934
▁좋아하고	-8.21108
▁아르바이트를	-8.21569
▁들어서	-8.21607
▁때도	-8.22066
▁갑자기	-8.22627
▁딱히	-8.22659
▁점	-8.22798
▁않	-8.22872
▁된다고	-8.22967
▁주로	-8.23125
▁않는	-8.23428
▁거에	-8.23776
▁있으니까	-8.24536
▁소	-8.24711
에는	-8.24791
▁있잖아	-8.24887
▁좋아하	-8.24981
▁들어	-8.25002
▁먼저	-8.25219
▁강	-8.25239
으	-8.25358
▁나이가	-8.25372
▁상	-8.25729
▁받고	-8.25893
제	-8.26812
▁그러고	-8.26861
▁많고	-8.26872
▁운동을	-8.26889
▁미	-8.26956
▁스	-8.27304
▁마음이	-8.27354
▁직접	-8.27472
소	-8.27524
▁갖고	-8.27654
▁타	-8.27757
▁옷	-8.27781
▁와서	-8.28105
▁오래	-8.28187
▁스포츠	-8.2826
▁생각은	-8.28283
▁피	-8.28484
▁정도로	-8.28823
▁건데	-8.28848
▁바로	-8.28885
▁거기에	-8.29158
▁아주	-8.29224
▁와	-8.29237
▁하기	-8.29391
▁인	-8.29426
▁약	-8.29709
▁온	-8.29854
▁모든	-8.30115
▁생각하고	-8.30296
▁아니면은	-8.30361
▁배	-8.3111
▁크게	-8.31255
▁힘들	-8.31644
▁먹어	-8.31676
▁있지만	-8.31877
란	-8.31906
▁때부터	-8.32169
▁저기	-8.32179
▁없이	-8.32253
▁옛날에	-8.32567
▁쪽으로	-8.32595
▁겨울	-8.32795
▁대학교	-8.32836
▁치매	-8.32878
▁중학교	-8.3296
▁얘	-8.33033
▁많	-8.333
▁장	-8.33463
▁봤는데	-8.33974
▁아닌	-8.34169
▁노력	-8.34178
▁곳	-8.34327
▁있기	-8.34342
▁돼서	-8.34598
▁조	-8.34735
연	-8.3482
▁케이크	-8.34923
▁수가	-8.34943
▁있지	-8.35371
물	-8.35465
드라구요	-8.35593
▁좋고	-8.35676
냐	-8.35938
▁그까	-8.3599
안	-8.36212
들도	-8.36353
▁되지	-8.36601
▁종류	-8.36689
▁했	-8.36809
르	-8.3703
적	-8.37067
▁입	-8.37102
▁좋아	-8.37176
피	-8.374
▁가게	-8.37692
▁들고	-8.37772
▁있나요	-8.37914
▁바	-8.38013
▁동안	-8.38861
▁좋을	-8.39067
▁맨날	-8.39188
▁그거는	-8.39661
▁것들이	-8.39828
▁이상	-8.40227
▁모	-8.40232
▁조금	-8.40361
▁있거든요	-8.40534
▁빨리	-8.40964
▁좋아하는데	-8.41138
▁산	-8.41383
▁프로그램	-8.41464
▁눈	-8.41631
▁신	-8.41687
▁과	-8.41883
▁꿈이	-8.41918
▁사진	-8.42174
봤던	-8.42238
▁따로	-8.42277
밖에	-8.4296
해야	-8.43269
▁봐	-8.43383
▁노래	-8.43491
▁받았	-8.43539
▁만들어	-8.43942
▁길	-8.44272
▁앞으로	-8.44518
▁그럴	-8.44522
▁없어	-8.44959
▁어릴	-8.45036
▁처음에	-8.45097
▁나한테	-8.45107
▁준비	-8.45633
▁사는	-8.45749
입니다	-8.46106
▁싶어요	-8.46287
▁했었는데	-8.46373
하면	-8.46406
▁되나	-8.46715
거	-8.46737
▁적은	-8.46785
▁느낌	-8.46845
▁영화가	-8.47116
▁좋았던	-8.47156
▁않은	-8.4725
▁오빠	-8.47409
▁사람을	-8.47533
▁생각하는	-8.47594
▁타고	-8.47773
이고	-8.48121
▁힘든	-8.48163
▁봤을	-8.48205
▁생각합니다	-8.4849
▁제주도	-8.48713
▁싶다	-8.48756
▁재밌게	-8.49433
간	-8.49461
감	-8.49725
마다	-8.49826
였	-8.49867
▁할머니	-8.50309
▁육	-8.50361
▁그때는	-8.50698
었어요	-8.51195
▁그렇고	-8.51287
인가	-8.51467
▁맞	-8.51688
▁말씀	-8.51811
▁키우고	-8.51861
▁경험이	-8.51866
▁봄	-8.51913
▁여기	-8.52063
루	-8.52225
▁손	-8.52392
▁성	-8.5251
집	-8.52547
▁챙겨	-8.5265
▁이번에	-8.52687
▁꿈을	-8.52725
본	-8.5276
▁대학	-8.5287
▁초등학교	-8.53045
차	-8.53141
▁경험	-8.5316
▁일단은	-8.53491
▁요즘에는	-8.5368
▁저한테	-8.53714
▁굳이	-8.5383
▁싶고	-8.54121
▁술	-8.54171
▁해보고	-8.54325
▁요	-8.54564
에게	-8.54614
▁있었던	-8.54937
방	-8.54942
▁부모님	-8.55252
▁없는데	-8.55295
▁사랑	-8.55478
▁스트레스	-8.55535
▁관련	-8.5603
▁선생님이	-8.56095
▁팔	-8.56138
▁오는	-8.56292
▁살고	-8.56315
▁왜냐하면	-8.56456
▁거지	-8.56532
▁동	-8.56728
▁발	-8.57085
▁말이	-8.57211
라서	-8.57313
▁사람은	-8.57348
▁우	-8.57416
갖고	-8.57454
▁가끔	-8.57498
당	-8.57679
▁쪽	-8.57847
▁관계	-8.57919
▁단	-8.58044
▁이십	-8.5822
하다	-8.58278
▁않아	-8.58404
▁되니까	-8.58494
린	-8.58547
▁치	-8.58665
▁가을	-8.58715
▁느낌이	-8.58764
▁맛있는	-8.58897
▁겨울에	-8.59213
디	-8.59303
▁선	-8.59312
▁가보고	-8.59429
▁그랬	-8.59504
▁거라고	-8.59546
용	-8.59844
레	-8.59878
▁아버지	-8.59984
▁그러다	-8.60157
▁자꾸	-8.60479
아예	-8.60645
▁올	-8.60794
▁것을	-8.60869
다면	-8.60989
▁자체가	-8.61073
▁받는	-8.61077
▁없어서	-8.612
국	-8.61537
▁어쨌든	-8.6168
문	-8.61688
▁사실은	-8.61755
▁곳이	-8.61852
▁생일	-8.61996
▁기회	-8.62075
▁그리구	-8.62085
▁수업	-8.62108
▁좋아해서	-8.62129
▁친구들이	-8.62177
조	-8.62183
▁현재	-8.62338
▁경기	-8.62388
져	-8.62577
▁축구	-8.62612
▁갔는데	-8.6262
▁바다	-8.62787
▁동아리	-8.62906
라도	-8.62937
▁맛	-8.6305
▁프로	-8.63083
세	-8.63179
▁양	-8.63328
▁좋다고	-8.63398
▁사회	-8.63425
▁관심	-8.63633
▁반려동물	-8.63684
▁싶은데	-8.63781
▁관리	-8.63852
▁된다	-8.63937
워	-8.64125
대로	-8.64419
▁아들	-8.6498
▁추억	-8.64986
▁상황이	-8.65154
그	-8.65169
▁함께	-8.65282
▁몸	-8.65421
관	-8.65701
분	-8.6601
▁분들	-8.664
학	-8.66623
▁관심이	-8.66701
▁만	-8.66863
▁둘	-8.66884
▁백	-8.6689
▁다음에	-8.66983
라면	-8.67062
▁삼십	-8.67237
하거나	-8.67383
▁키우	-8.67575
▁받	-8.67951
운	-8.67962
해가지고	-8.67989
▁번씩	-8.68033
▁편이	-8.68112
▁꽃	-8.68247
▁아이가	-8.68417
▁파	-8.68419
▁돈이	-8.68461
인지	-8.68464
체	-8.68811
날	-8.68917
네요	-8.69017
길	-8.6913
바	-8.69261
▁나가	-8.69503
▁쓰	-8.69772
▁너가	-8.7
▁직장	-8.70051
▁연	-8.70059
▁접	-8.7025
릴	-8.70387
파	-8.70595
▁방	-8.70748
▁완전	-8.70811
▁그러면서	-8.70925
▁예를	-8.71059
▁선물이	-8.71162
▁외	-8.71527
▁노	-8.71534
이에요	-8.71573
▁기분이	-8.718
▁마음에	-8.71934
▁응	-8.72092
▁실	-8.72111
▁재미	-8.7249
▁경우가	-8.72811
▁갔을	-8.72847
▁했을	-8.72928
양	-8.72985
▁화	-8.73017
▁여행지	-8.73187
▁아이들	-8.73203
▁다이어트	-8.73298
▁음악	-8.73361
▁위	-8.73466
▁꿈	-8.73532
▁전복	-8.73561
▁들어가	-8.73736
기는	-8.73832
에서는	-8.73891
▁요새	-8.73899
▁그렇	-8.74062
▁봤	-8.74095
력	-8.74117
▁같아서	-8.74123
▁부분에	-8.74278
▁것처럼	-8.74295
▁먹으면	-8.74388
▁좋아해	-8.74499
▁했고	-8.74569
▁다니고	-8.7457
▁않았	-8.74637
▁주변에	-8.74789
▁남편	-8.7488
▁음식이	-8.74939
▁오늘	-8.74966
▁하루	-8.75055
▁때마다	-8.75139
▁처음에는	-8.75207
▁분들이	-8.75288
직	-8.75375
▁아무	-8.75408
▁분이	-8.75424
▁한다고	-8.75448
가주구	-8.75504
시는	-8.75546
▁개인적으로	-8.7556
▁통해서	-8.75615
▁나오	-8.75785
▁신경	-8.76098
▁중국	-8.76178
▁키우는	-8.7642
▁여름에	-8.76615
▁연기	-8.76784
▁때가	-8.76847
▁하다가	-8.76943
▁모르겠는데	-8.76954
▁날씨	-8.77191
▁나온	-8.77277
▁시험	-8.77358
▁된다면	-8.77448
▁직업	-8.7768
▁야구	-8.7772
▁개월	-8.77792
▁쪽에	-8.77834
▁있는지	-8.77951
생	-8.7803
▁많은데	-8.7804
▁친구들이랑	-8.78283
명	-8.78584
▁되면은	-8.78653
▁올해	-8.78907
경	-8.7891
▁목표	-8.7912
무	-8.79219
▁워낙	-8.7922
중	-8.79228
▁책	-8.79337
▁무조건	-8.79365
▁경제	-8.79409
▁그건	-8.795
▁회	-8.79604
▁저희가	-8.79757
▁니	-8.79939
▁중요한	-8.79951
▁인생	-8.80027
▁군대	-8.80153
▁됐	-8.80283
▁많아서	-8.80294
▁언제	-8.80405
▁방송	-8.805
이다	-8.80684
▁받아	-8.80762
▁법	-8.80936
▁없었	-8.80995
▁문	-8.8123
▁초	-8.81287
▁회사	-8.81307
되는	-8.81387
▁했어요	-8.81408
▁고민	-8.81622
▁많았	-8.81825
▁교육	-8.81833
▁만나	-8.81891
이라	-8.82087
▁바뀌	-8.82095
지도	-8.82413
▁늘	-8.82501
▁대부분	-8.82618
▁싫어	-8.82875
▁추천	-8.83026
기가	-8.83061
▁마리	-8.83133
▁옛날	-8.83217
▁동물	-8.8351
박	-8.83512
▁있을까요	-8.83533
프	-8.8384
▁생	-8.83858
권	-8.83864
였는데	-8.83868
▁맛이	-8.83912
▁그랬는데	-8.83967
호	-8.8404
▁장르	-8.84176
석	-8.84229
더니	-8.84286
▁재	-8.84334
▁뭐지	-8.84536
반	-8.8483
▁계절	-8.85005
▁본인	-8.85006
▁이해	-8.85023
▁맛있	-8.85032
▁잘못	-8.85051
▁식	-8.8512
▁이러	-8.85149
▁케익	-8.85243
류	-8.85453
▁하셨는데	-8.85468
▁없어요	-8.85489
티	-8.85723
▁친	-8.85749
▁시작	-8.85771
겠다	-8.85867
급	-8.86067
▁싶어서	-8.86119
회	-8.86129
심	-8.8618
▁비싸	-8.86301
금	-8.86683
모	-8.86707
▁수영	-8.86759
▁내용	-8.86771
▁텐데	-8.86917
▁듣고	-8.87016
▁거고	-8.87256
▁지원	-8.874
▁크	-8.87635
▁아이들이	-8.87694
▁점점	-8.87729
▁있었고	-8.8788
▁따라	-8.87894
▁놀러	-8.88055
▁자신	-8.88096
▁티비	-8.88265
내	-8.88268
▁가기	-8.88272
▁영화는	-8.88272
크	-8.88344
천	-8.88464
발	-8.88507
▁갔	-8.88518
▁김	-8.88698
런	-8.89055
▁인상	-8.89366
▁강아지를	-8.89405
▁죽	-8.89476
▁대화	-8.89508
▁까페	-8.89529
약	-8.89555
▁사고	-8.89588
▁가격	-8.89607
▁됐는데	-8.8964
▁작은	-8.89655
▁잠	-8.89715
▁라는	-8.89725
▁소리	-8.8983
▁했어	-8.89846
▁국내	-8.90024
형	-8.90048
했	-8.90118
라든지	-8.90257
▁순	-8.90298
▁보기	-8.90502
던지	-8.90506
계	-8.90532
▁쉽게	-8.90814
▁걱정	-8.90833
▁등	-8.90879
▁이걸	-8.90904
▁생각보다	-8.90935
▁통	-8.90953
세요	-8.91013
▁선택	-8.91036
▁씨	-8.91318
▁누구	-8.91383
▁연예인	-8.91448
▁벌	-8.91722
▁빵	-8.91828
▁필요	-8.91852
▁맛집	-8.91954
었거든요	-8.91971
이라서	-8.92109
▁친구랑	-8.92173
▁갔던	-8.92243
지고	-8.92271
▁좋겠다	-8.92359
▁인자	-8.92417
민	-8.92547
▁왔	-8.9256
▁훨씬	-8.92562
품	-8.92614
▁좋지	-8.92743
▁학원	-8.92852
공	-8.92889
▁미국	-8.92945
타	-8.92946
▁있다면	-8.93215
▁글	-8.93404
▁다닐	-8.93424
▁상황	-8.93426
▁부모	-8.93434
▁영	-8.93532
▁같애서	-8.93584
▁만들	-8.93591
▁다르	-8.93606
더라	-8.93808
▁나는데	-8.9401
▁반대	-8.9403
▁없다	-8.94032
▁하시는	-8.94045
▁있었어요	-8.9419
▁잡	-8.94359
▁지금까지	-8.94388
▁좋아해요	-8.94517
▁잠깐	-8.94577
▁가정	-8.94777
▁개인	-8.94859
▁있게	-8.94872
점	-8.94954
▁나와서	-8.95045
▁영상	-8.95056
▁나오고	-8.95284
겠지만	-8.95425
▁결국	-8.95465
는지	-8.95494
▁어머니	-8.95503
▁못하고	-8.95541
▁건지	-8.9556
위	-8.95624
▁있었	-8.95742
▁편이에요	-8.95812
▁우선	-8.95986
갈	-8.96176
▁유명한	-8.96339
▁재밌	-8.9644
터	-8.96448
▁당연히	-8.96495
준	-8.96772
었고	-8.96846
어가지고	-8.96981
▁천	-8.97008
▁전혀	-8.97028
▁보러	-8.97176
▁따라서	-8.97274
▁영어	-8.97332
셨	-8.97335
음	-8.97383
▁누가	-8.9739
▁아닌데	-8.97491
▁했었	-8.97548
울	-8.97628
▁커피	-8.97687
▁학교에서	-8.97703
이라든지	-8.97746
▁매	-8.97799
▁쓰고	-8.979
▁가족이	-8.98453
▁동생	-8.98518
▁놀	-8.98739
포	-8.98797
▁나랑	-8.9887
▁포	-8.98884
▁이것	-8.98969
▁안에	-8.99031
▁해외	-8.99113
▁기분	-8.99354
▁확실히	-8.99432
재	-8.9951
▁박	-8.99517
▁되겠다	-8.99531
▁젊은	-8.99704
줄	-8.99734
▁살짝	-8.99808
개	-8.99947
▁나와	-9.00003
여서	-9.00086
하시는	-9.00127
▁애가	-9.00238
▁눈이	-9.00285
▁속	-9.00309
▁세계	-9.00324
▁새로운	-9.00338
▁만드는	-9.00379
▁가야	-9.00385
즈	-9.00653
▁이번	-9.00785
▁하거든요	-9.00785
▁대해	-9.00846
▁짜	-9.00901
▁같기	-9.00917
▁나를	-9.01046
▁어린	-9.01212
▁폐지	-9.01217
▁언니는	-9.01228
보고	-9.01237
▁유튜브	-9.01407
▁행동	-9.01417
▁인해서	-9.01464
▁나가서	-9.01611
▁있다는	-9.01683
▁같다	-9.01689
▁아는	-9.01715
색	-9.01987
▁어려운	-9.02135
님	-9.02155
▁다니	-9.02224
▁문화	-9.02272
▁심	-9.02275
▁제대로	-9.02294
▁힘들어	-9.02584
었어	-9.02944
예요	-9.02976
칠	-9.03141
▁그런지	-9.0327
▁지역	-9.03346
▁둘이	-9.03448
속	-9.03491
▁감	-9.03721
셔서	-9.03929
▁싫어하는	-9.03929
▁받은	-9.03999
복	-9.04062
▁전화	-9.04376
▁역시	-9.04388
▁점이	-9.04471
▁자체	-9.04544
니가	-9.04548
▁그래갖고	-9.04568
▁특별히	-9.04676
되	-9.04688
▁그거에	-9.04763
▁앞에	-9.04788
씩	-9.04823
▁해봤	-9.04861
▁경	-9.05079
▁방법	-9.05166
▁생각하면	-9.05435
▁야	-9.05503
▁해본	-9.05541
▁상당	-9.05712
함	-9.05805
▁맞아	-9.05868
▁주변	-9.06032
▁고기	-9.06116
▁질문	-9.06267
▁시켜	-9.06441
▁외국	-9.06575
▁따	-9.06587
난	-9.06752
▁몸이	-9.068
▁애기	-9.0684
▁별	-9.06864
▁이유가	-9.06919
▁좋게	-9.06983
역	-9.07007
른	-9.07133
▁후	-9.0717
주고	-9.07217
▁편인데	-9.0722
▁나고	-9.07325
▁아침에	-9.07343
▁보게	-9.07395
▁이름	-9.0749
▁않나	-9.07491
▁데이트	-9.07585
▁난민	-9.07607
▁필요한	-9.07715
▁않아서	-9.07827
▁추억이	-9.07834
▁자녀	-9.07838
져서	-9.07844
기를	-9.079
▁거죠	-9.07912
▁오십	-9.08126
▁서울	-9.08262
적이	-9.08406
▁감정	-9.0843
▁즐겨	-9.08554
▁느끼	-9.08627
▁다음	-9.08859
▁밖에	-9.089
▁드는	-9.08919
하긴	-9.08935
▁있어야	-9.09076
▁형	-9.09095
법	-9.0922
▁싸	-9.09267
▁역할	-9.09383
▁현실	-9.09483
▁호	-9.09484
▁학	-9.09588
▁데리고	-9.09608
만큼	-9.09633
▁비슷한	-9.09722
드라고	-9.09937
백	-9.10108
▁표현	-9.1012
▁아니지만	-9.10406
▁딸이	-9.1046
▁보내	-9.1055
매	-9.10622
▁일자리	-9.10715
▁찾아	-9.10824
▁하시	-9.10917
▁계획	-9.11053
▁연락	-9.11108
▁오고	-9.11139
▁머리	-9.11149
에다가	-9.11172
▁가격이	-9.1119
듯	-9.11222
며	-9.11302
▁다섯	-9.11536
▁줬	-9.11666
리고	-9.11792
졌	-9.11841
▁새	-9.11852
다라는	-9.11992
▁실제로	-9.12014
도록	-9.12132
달	-9.12162
버	-9.12466
주는	-9.12475
▁어쩔	-9.12756
성이	-9.12863
▁칠	-9.129
에도	-9.1291
▁생각해요	-9.12952
봤	-9.13019
추	-9.1305
▁명이	-9.13064
▁드	-9.13154
▁괜찮은	-9.13215
유	-9.13281
먹	-9.13328
온	-9.13566
놓고	-9.13598
니다	-9.13693
▁덜	-9.13728
▁원하는	-9.13767
▁사귀	-9.13767
▁아닌가	-9.13769
▁재밌었	-9.13864
▁많아	-9.13918
▁순간	-9.13928
▁하더라고요	-9.14121
▁추	-9.14347
▁기대	-9.14407
▁평소에	-9.1441
저	-9.1449
리는	-9.14598
▁모르겠지만	-9.14599
▁옆에	-9.14632
▁살아	-9.14706
▁받을	-9.15077
▁궁금합니다	-9.15189
▁의미	-9.1524
▁생기	-9.15372
▁취업	-9.15403
▁아직도	-9.15442
▁하더라구요	-9.15497
이었는데	-9.15518
▁국가	-9.15578
▁영화관	-9.15582
▁좋아합니다	-9.15624
쳐	-9.15799
▁했지만	-9.15851
살	-9.15878
▁않을	-9.15908
케	-9.15932
▁번도	-9.16145
▁본인이	-9.16267
더라도	-9.16317
행	-9.16535
▁좋다	-9.16602
▁하더라고	-9.16741
▁느꼈	-9.17037
까지는	-9.17067
▁스스로	-9.1708
▁다양한	-9.1708
▁유럽	-9.17089
▁절대	-9.17097
▁부산	-9.17208
▁키울	-9.17304
▁봉사	-9.17348
▁뭐야	-9.17419
▁도움이	-9.17428
▁너도	-9.17524
▁대신	-9.17605
▁좋았	-9.17616
▁날씨가	-9.17693
혀	-9.17807
▁없으니까	-9.17842
▁땜에	-9.17933
▁산책	-9.17943
▁나름	-9.18062
▁할려고	-9.18067
▁살이	-9.18081
이니까	-9.18089
론	-9.18099
▁잘하는	-9.18123
카	-9.18136
▁땐	-9.18157
▁쓰는	-9.184
▁가가지고	-9.18553
탕	-9.18565
있	-9.18945
▁자식	-9.19025
▁있거든	-9.19082
▁교	-9.19189
름	-9.1926
▁일반	-9.19304
▁남자친구	-9.19328
▁없다고	-9.19409
▁당	-9.19432
▁치킨	-9.19446
▁찍	-9.19464
▁전공	-9.19527
▁써	-9.19674
다거나	-9.19713
등	-9.19764
▁얼굴	-9.19967
더	-9.1998
▁혈액형	-9.19992
▁생각하세요	-9.20118
▁보니	-9.20346
▁뭐라	-9.20422
▁저랑	-9.20606
▁않아요	-9.20938
▁들어요	-9.21028
▁나왔	-9.21297
브	-9.21523
▁자전거	-9.21636
대요	-9.21644
▁아이돌	-9.21649
▁대로	-9.21659
▁저희는	-9.21677
▁졸업	-9.21731
▁그만큼	-9.21753
▁보이	-9.21772
▁걱정이	-9.21861
▁괜찮	-9.21976
▁팀	-9.22002
▁아무리	-9.22036
봐	-9.22094
병	-9.2221
▁저렇게	-9.22304
▁그나마	-9.22313
들한테	-9.22409
▁목	-9.22432
▁변	-9.22462
▁집이	-9.22472
▁모습을	-9.22496
볼	-9.22498
▁있었어	-9.22503
▁알아	-9.22529
림	-9.22556
었거든	-9.22591
시고	-9.22602
▁담	-9.22618
니깐	-9.22643
▁진	-9.227
이기	-9.22947
▁없을	-9.22948
▁불구하고	-9.22977
▁허	-9.23254
절	-9.23326
▁키	-9.23376
▁병원	-9.23536
▁다니면서	-9.23563
▁있을까	-9.23613
▁되기	-9.23614
돼	-9.23762
▁그렇다고	-9.23816
▁있어가지고	-9.23887
▁안에서	-9.23891
믄	-9.24157
▁만한	-9.24177
작	-9.24245
▁있구요	-9.24312
▁까	-9.24342
▁다니는	-9.24396
▁데서	-9.24457
애	-9.24489
▁선생님은	-9.24571
▁분위기	-9.24582
▁그랬던	-9.24654
▁행복	-9.24733
▁자리	-9.24841
▁해보	-9.24861
▁코	-9.25021
십	-9.25074
▁아들이	-9.25168
종	-9.25206
▁다녔	-9.25327
▁갔었는데	-9.25451
지가	-9.25539
아서	-9.25587
▁한다	-9.256
이라도	-9.2568
입	-9.258
▁남편이	-9.25871
▁준	-9.25983
교	-9.26033
합	-9.26108
염	-9.26174
스트	-9.26251
▁편이고	-9.26291
▁끼	-9.26396
▁마찬가지	-9.26409
▁좋은데	-9.26411
업	-9.26417
▁청	-9.26437
▁기사	-9.26458
▁만들어서	-9.26573
께	-9.26592
▁말씀하신	-9.26656
▁되었	-9.26855
▁해결	-9.26894
습	-9.26917
▁좋아하지	-9.26928
▁떠	-9.2695
▁만났	-9.26974
▁생각나는	-9.27
라든가	-9.27006
▁입고	-9.2712
▁중요하	-9.27185
▁자연	-9.27214
했는데	-9.27333
▁풀	-9.27435
▁비가	-9.27541
▁대만	-9.27689
▁건물주	-9.27715
▁살았	-9.27808
▁돌	-9.28031
▁아프	-9.28123
▁만큼	-9.2817
플	-9.28171
▁감독	-9.28189
▁먹기	-9.2844
▁그렇지	-9.28445
▁또한	-9.28763
▁보니깐	-9.28838
▁차라	-9.28849
▁역사	-9.28874
▁먹었던	-9.2901
▁만족	-9.29022
▁먹어야	-9.29035
▁편입니다	-9.29083
▁커	-9.29176
▁정책	-9.29265
▁키웠	-9.29298
▁이건	-9.29334
▁노인	-9.29389
했을	-9.2941
▁쓸	-9.2942
▁갔었	-9.29458
▁그쪽	-9.29498
▁올라가	-9.29544
한다고	-9.29599
영	-9.29624
▁여름이	-9.30014
노	-9.3014
▁넘	-9.30176
▁확	-9.3018
지를	-9.30243
거리	-9.3026
▁그중에서	-9.30338
▁하잖아요	-9.30389
▁상태	-9.30399
▁좋아서	-9.30418
수록	-9.3042
▁빼	-9.30496
코	-9.30544
하니까	-9.30639
냐면	-9.30764
년	-9.30965
▁못하는	-9.30995
▁사십	-9.31023
▁애들은	-9.31272
이야	-9.3131
겨	-9.31476
▁아이를	-9.3156
였던	-9.316
곤	-9.31617
▁쉬	-9.31661
출	-9.31724
▁이유	-9.31849
외	-9.32046
▁없지만	-9.32111
▁캐릭터	-9.32159
▁식당	-9.32238
▁만든	-9.3226
▁보지	-9.32313
▁맛있게	-9.32457
▁추천해	-9.32503
▁사이	-9.32623
줘야	-9.32701
▁보호	-9.32983
겠	-9.33
▁차이	-9.33017
키	-9.33102
▁좋겠	-9.33152
▁매일	-9.33232
▁금	-9.33325
▁키워	-9.33334
▁군	-9.3352
▁이래	-9.33627
▁편지	-9.33684
판	-9.33729
▁힘들었던	-9.33851
▁너무너무	-9.339
▁봐요	-9.33949
▁검사	-9.34043
▁그날	-9.34091
▁당시에	-9.34215
장이	-9.34301
▁비해서	-9.34421
▁몸에	-9.34509
락	-9.34789
▁돼요	-9.34791
었	-9.34795
▁나라에서	-9.34805
▁만나고	-9.34862
▁끝나고	-9.35085
▁그래가지구	-9.35088
다라고	-9.35126
▁올림픽	-9.35163
▁시간에	-9.35204
▁했으면	-9.35232
▁분명	-9.35238
목	-9.3525
▁최	-9.35272
▁으	-9.353
▁부모님이	-9.35323
하는데	-9.35531
▁진행	-9.35638
▁고런	-9.35717
▁생겼	-9.35738
태	-9.35744
량	-9.36079
▁스타일	-9.36305
하다고	-9.36357
다던가	-9.36365
▁예쁜	-9.36447
▁예능	-9.36472
▁오면	-9.36478
▁찾아보	-9.36619
냐고	-9.36626
▁같긴	-9.36786
▁카	-9.36867
▁누나	-9.36872
해요	-9.36925
▁충분	-9.37226
▁이유는	-9.37298
되고	-9.37349
▁재밌는	-9.37422
▁지나	-9.37489
이라던	-9.3755
▁모습	-9.3758
▁계시	-9.37729
▁특별	-9.37751
통	-9.37828
군	-9.37846
▁과일	-9.37909
▁싶지	-9.37934
▁근	-9.37985
쳤	-9.37998
려서	-9.38071
▁있으면은	-9.38077
▁힘	-9.38179
건	-9.38278
▁해주	-9.38363
▁차이가	-9.38426
줬	-9.38622
설	-9.38652
▁암	-9.38746
▁유지	-9.38816
이라든가	-9.38931
았	-9.39017
▁거니까	-9.39069
▁파는	-9.39117
으로써	-9.39117
▁계절이	-9.39189
밥	-9.39209
▁요새는	-9.39231
▁어제	-9.39284
▁병	-9.39392
▁쉽지	-9.39438
▁말하는	-9.39551
▁작년에	-9.39712
나요	-9.39843
별	-9.3988
▁떡볶이	-9.39901
▁생각하는데	-9.39939
▁보신	-9.39953
받	-9.40255
▁계획을	-9.40551
▁신랑	-9.40553
▁모르는	-9.40673
▁생각하	-9.40695
친	-9.40797
어야	-9.40853
▁입장	-9.40935
▁기본	-9.40947
▁봐야	-9.41207
▁좋겠어	-9.41263
▁투	-9.41267
▁복	-9.41277
▁전부	-9.41371
겠지	-9.41649
력이	-9.41673
▁하루에	-9.41721
▁자격증	-9.41738
▁나쁜	-9.41743
합니다	-9.41932
▁비싼	-9.42
가주고	-9.42112
▁저런	-9.42128
▁봐도	-9.4216
▁환경	-9.4216
▁이용	-9.42442
▁가수	-9.4249
▁거리	-9.42518
이란	-9.42661
▁적도	-9.42743
▁냄새	-9.42819
▁공포	-9.42863
▁달라	-9.43005
▁만나서	-9.43017
▁같구요	-9.43102
▁그분	-9.4314
▁작년	-9.4324
▁평	-9.43241
▁많지	-9.43434
▁들면	-9.43437
▁예전	-9.43547
이면	-9.43666
▁많잖아요	-9.4367
▁물건	-9.43676
▁노래를	-9.4384
강	-9.43872
▁들어가서	-9.43891
뿐만	-9.4403
▁겨울이	-9.44059
▁궁금해	-9.44164
▁가보	-9.44203
▁절	-9.44263
▁도움	-9.4436
▁싶다는	-9.44394
▁생각해서	-9.44401
▁사서	-9.44463
▁많아요	-9.44495
▁바람	-9.44605
▁힘들고	-9.44665
▁영향	-9.44689
▁해외여행	-9.44762
▁상대	-9.44864
▁효과	-9.45072
▁수술	-9.45231
겠죠	-9.45265
▁못한	-9.45268
다시피	-9.45326
▁둘째	-9.45329
▁왔다	-9.4555
▁엠비티아이	-9.456
▁앞	-9.45601
언	-9.45606
▁뒤에	-9.45624
▁취미	-9.45637
▁종	-9.45738
▁얼	-9.45842
▁지내	-9.45871
▁사람들한테	-9.45913
▁기간	-9.46061
▁보다	-9.46248
▁알게	-9.46272
▁가본	-9.46305
▁편의점	-9.46382
▁그대로	-9.4657
삼	-9.466
든지	-9.4665
▁아침	-9.46673
▁생각할	-9.46681
토	-9.46764
▁부분들	-9.46773
▁살면서	-9.46787
▁위주로	-9.46794
▁북한	-9.46803
▁장소	-9.46823
▁왔는데	-9.46861
▁놓고	-9.46929
▁외에	-9.46947
증	-9.47171
으시	-9.47198
▁넷플릭스	-9.47258
▁가까운	-9.47307
▁그렇기	-9.47416
▁부분에서	-9.47457
▁돌아가	-9.4746
▁버	-9.47475
▁늦게	-9.47595
▁가봤	-9.47759
▁거기가	-9.47772
▁된다는	-9.47848
▁꾸준히	-9.47883
▁동네	-9.48086
▁선물은	-9.48186
▁들어갔	-9.48195
▁먹었	-9.48495
▁몰라	-9.48559
▁났	-9.48671
▁잡아	-9.48706
▁성격은	-9.48777
순	-9.48791
▁나올	-9.48888
▁정신	-9.48897
▁체	-9.48938
▁가끔씩	-9.49074
▁여유	-9.49087
려면	-9.49091
▁나면	-9.49116
▁울	-9.4912
임	-9.49146
▁이름이	-9.49261
투	-9.49347
▁동생이	-9.49384
씨	-9.49393
▁응원	-9.49417
▁많다	-9.49488
▁라고	-9.49651
▁밤에	-9.4986
편	-9.49918
▁미술	-9.4994
▁개를	-9.49991
▁최고	-9.49995
▁이상형	-9.49999
▁의사	-9.50026
▁봄에	-9.50125
▁이벤트	-9.50219
▁될지	-9.50274
▁모르	-9.5028
▁물어보	-9.50382
▁있구	-9.50486
▁토	-9.50503
립	-9.50505
▁꾸	-9.50574
▁부부	-9.50686
▁듭니다	-9.50811
▁그러는데	-9.50832
▁좋아하거든요	-9.50852
▁상대방	-9.50858
▁하셨	-9.50863
드라고요	-9.5104
▁다녀	-9.51041
▁보는데	-9.51068
망	-9.51096
▁때까지	-9.51097
▁할아버지	-9.51109
▁달에	-9.51161
▁과정	-9.51239
각	-9.5129
▁운동이	-9.51346
▁과목	-9.51439
▁결과	-9.51457
▁밤	-9.51477
▁있던	-9.51503
근	-9.51568
▁가족들	-9.5159
분들	-9.51608
르케	-9.51693
▁나름대로	-9.51732
청	-9.51845
▁엄마한테	-9.51881
었습니다	-9.52018
▁이러면서	-9.52044
▁입장에서는	-9.52045
남	-9.52145
불	-9.52234
▁않지만	-9.52258
▁건물	-9.52363
▁전문	-9.52472
▁거기에서	-9.52479
▁그러는	-9.5262
▁싶었는데	-9.52641
▁티	-9.52654
▁설	-9.52715
셔	-9.52729
▁학교에	-9.52784
▁멋있	-9.52789
▁똑같이	-9.52826
너	-9.52851
▁학생	-9.52875
▁국	-9.52914
▁사람한테	-9.52922
▁체육	-9.52922
▁아파트	-9.52952
▁등산	-9.52972
▁놀고	-9.52983
▁이래서	-9.53231
예	-9.53238
▁싶다고	-9.53247
▁스무	-9.53279
▁되어	-9.53304
▁여성	-9.53376
견	-9.53394
▁아직까지	-9.53495
▁좋겠어요	-9.53532
▁게임	-9.53575
▁그렇지만	-9.53656
▁가을에	-9.53696
▁봐서	-9.53706
분이	-9.53844
▁받아서	-9.53852
▁편하게	-9.53891
▁음식은	-9.54012
▁중간에	-9.54019
▁좋아하시는	-9.54047
야지	-9.54105
▁최근에는	-9.54111
▁어때	-9.54214
▁깊게	-9.54224
▁깨	-9.54282
▁놓	-9.5433
육	-9.54477
▁보험	-9.54533
▁꺼	-9.54544
▁똑같은	-9.54553
▁스타일이	-9.54625
▁한다는	-9.54638
▁싶었	-9.54799
▁좋아하세요	-9.54805
▁들었는데	-9.54808
▁엄마랑	-9.54818
▁피해	-9.54821
▁팬	-9.54838
▁들었	-9.54859
다들	-9.54925
님이	-9.55002
숙	-9.55033
▁있다가	-9.55234
▁저녁	-9.55343
▁돌아	-9.55463
로는	-9.55504
▁어차	-9.55554
였어요	-9.55664
▁시기	-9.55665
▁걸어	-9.55682
▁크리스마스	-9.55683
▁맨	-9.55746
창	-9.55768
▁작	-9.5584
렸	-9.56001
▁찾아서	-9.56085
▁해주고	-9.56101
▁잔	-9.56124
▁레	-9.56188
▁귀	-9.5623
▁번째	-9.56368
▁자유	-9.5637
▁사장님	-9.56533
▁모아	-9.56597
▁액션	-9.56624
▁며칠	-9.56624
▁있니	-9.56656
▁기사를	-9.56725
느냐	-9.56761
막	-9.56868
▁라면	-9.56916
▁여섯	-9.56954
▁도시	-9.56969
하면은	-9.57086
▁것보다	-9.57165
링	-9.57208
▁아픈	-9.57288
▁인간	-9.57345
▁위에	-9.57352
▁각자	-9.57363
팔	-9.57402
녀	-9.57475
데요	-9.5748
▁모르고	-9.57576
▁않게	-9.57773
▁시장	-9.57821
▁매운	-9.5792
▁넣어	-9.57953
▁유행	-9.58051
▁피자	-9.58058
쯤	-9.58167
▁최대한	-9.58211
▁데는	-9.58222
▁키로	-9.58267
▁호텔	-9.58301
▁얘기하	-9.58311
▁하구	-9.58475
▁이럴	-9.58602
▁아니야	-9.58617
▁농구	-9.58667
▁앞에서	-9.5875
셨는데	-9.58773
▁후회	-9.58877
▁하잖아	-9.59219
▁시절	-9.59231
담	-9.59259
올	-9.5932
▁사건	-9.59339
▁편인	-9.5935
▁최근	-9.5941
블	-9.59457
글	-9.59467
▁넌	-9.59517
▁부담	-9.59616
▁만들고	-9.59626
▁위한	-9.59693
▁망	-9.597
▁막내	-9.59747
말	-9.59754
▁시즌	-9.59829
▁복지	-9.59858
드라	-9.59898
▁구경	-9.59911
▁집중	-9.59931
▁떨어지	-9.59932
▁탈	-9.59937
▁이루	-9.59978
움	-9.60067
'	-9.60149
있는	-9.60165
▁선생님께서	-9.60173
▁작품	-9.60273
득	-9.60379
▁깊었	-9.6039
▁더운	-9.6043
쪽	-9.60434
▁여름에는	-9.60441
▁먹으러	-9.60492
다든지	-9.60524
▁생긴	-9.60658
▁몰랐	-9.60724
십만	-9.60778
▁연습	-9.60829
격	-9.60893
자가	-9.60924
▁한다면	-9.61082
▁보여	-9.61122
▁하여튼	-9.61133
▁시리즈	-9.61133
▁카페	-9.61141
▁아무튼	-9.61144
현	-9.61241
▁우리나라가	-9.61611
▁근처에	-9.61645
▁됐어요	-9.61692
▁우리나라에서	-9.61742
▁있나	-9.61744
갔	-9.61911
▁나가는	-9.61956
▁사업	-9.61966
▁일주일	-9.61997
▁했었어요	-9.62064
▁했었고	-9.62211
▁계기	-9.62233
▁공감	-9.62306
었다	-9.62333
▁뭐라고	-9.62374
▁부분들이	-9.62381
하기도	-9.6242
▁가진	-9.62599
▁취	-9.62707
▁중요하다고	-9.62714
▁잘하고	-9.62719
▁뉴스	-9.62752
▁찍어	-9.62752
▁봤어요	-9.62755
▁손님	-9.62815
▁있더라구요	-9.62819
▁금방	-9.62822
▁했거든요	-9.62841
▁먹거리	-9.62843
배	-9.62911
▁간에	-9.62926
▁이러니까	-9.62984
▁힘이	-9.62984
▁엄	-9.63127
초	-9.63269
▁않는데	-9.63283
▁넘어가	-9.63296
▁누	-9.63416
▁친한	-9.63476
▁감동	-9.6351
▁건강에	-9.63681
▁각	-9.63688
셨어요	-9.63975
으면서	-9.63985
▁끝나	-9.64117
▁무섭	-9.64149
▁것만	-9.64178
▁특	-9.64211
▁듣는	-9.64254
▁폭	-9.64297
▁했습니다	-9.64346
▁화가	-9.6436
▁일찍	-9.64495
▁장점	-9.64497
▁가니까	-9.64531
▁돼가지고	-9.64565
▁합	-9.64573
▁배우는	-9.64604
▁이쁘	-9.64779
▁마지막	-9.64815
▁아이스크림	-9.64825
이든	-9.64911
▁좋아하게	-9.64974
감이	-9.64995
▁경험을	-9.65027
▁혼자서	-9.65051
▁타는	-9.65079
▁밀	-9.65158
▁낳고	-9.65167
▁비행기	-9.65168
▁나왔던	-9.65241
됐	-9.65265
▁집안	-9.65287
적이고	-9.65293
▁이미	-9.65331
▁했잖아	-9.65526
▁아닐까	-9.65568
▁철	-9.65578
▁가는데	-9.65633
▁멀리	-9.65856
슬	-9.65858
▁면	-9.65865
▁내용이	-9.65897
▁장사	-9.659
▁육십	-9.65935
했다	-9.65956
▁수밖에	-9.6598
▁완전히	-9.6601
▁입장에서	-9.66122
▁가져	-9.66144
▁에이	-9.66173
▁같다고	-9.66332
▁있으신지	-9.66425
▁그림	-9.66464
▁그다음	-9.66512
▁종목	-9.6656
▁소개	-9.66593
달라고	-9.66728
리가	-9.66815
▁나니까	-9.66852
▁먹은	-9.67017
▁보이는	-9.67032
▁휴가	-9.6704
▁정치	-9.67048
범	-9.67244
▁싫은	-9.67247
▁자기는	-9.67332
▁욕	-9.67346
▁미리	-9.67371
아이	-9.67408
▁후에	-9.67437
▁먹지	-9.67476
▁쭉	-9.67573
▁있으	-9.67585
▁고생	-9.67686
라던가	-9.67693
▁발전	-9.6771
▁있겠지만	-9.67799
▁장면	-9.67805
으면은	-9.67822
▁맞춰서	-9.67842
▁되면서	-9.67881
▁맞지	-9.67898
▁챙겨주	-9.67948
놨	-9.68001
▁계	-9.6802
하신	-9.68074
▁듣	-9.68082
▁말씀해	-9.6809
▁모두	-9.68167
▁시대	-9.68292
▁올려	-9.68297
▁개봉	-9.68334
▁관	-9.68337
▁터	-9.68487
향	-9.68508
▁꿈은	-9.68566
▁가을이	-9.6865
후	-9.68656
▁마스크	-9.68667
▁유통	-9.68699
▁메	-9.68707
▁느껴	-9.6872
지마는	-9.68781
▁눈에	-9.68809
▁주문	-9.68841
▁만약	-9.68844
이어서	-9.68848
▁만나는	-9.68876
▁괜찮아	-9.6897
▁주면	-9.69009
▁베트남	-9.69014
▁배우고	-9.69171
▁끝까지	-9.69442
▁거라	-9.69671
▁느낄	-9.6973
▁가자	-9.69782
▁얘길	-9.69796
▁줘야	-9.69808
▁들어간	-9.69816
▁뜨	-9.69845
▁저에게	-9.69874
북	-9.69993
가면서	-9.69999
▁선수들	-9.70009
▁너무나	-9.70034
▁했었던	-9.70076
▁비타민	-9.70089
▁용돈	-9.70093
▁배달	-9.70133
▁힘들었	-9.70163
▁처음으로	-9.70366
▁에이형	-9.70372
▁이것저것	-9.7045
▁가까이	-9.70452
▁치료	-9.70471
▁당신	-9.70528
▁여기서	-9.70572
▁채	-9.70581
▁먹는데	-9.70751
▁있죠	-9.70768
덕	-9.70806
▁말한	-9.70808
▁디	-9.70924
족	-9.71042
한다	-9.71084
▁용	-9.7116
▁넣고	-9.71176
▁일어나	-9.71229
이었던	-9.71295
▁모습이	-9.71304
인데요	-9.71305
▁수학	-9.71367
▁수능	-9.71461
▁민	-9.71521
▁키워보	-9.71562
▁음식점	-9.71593
▁중의	-9.71654
▁배려	-9.71684
웠	-9.71714
▁생각했	-9.71724
끼리	-9.71771
▁영화도	-9.71912
▁병원에	-9.71966
들에게	-9.72035
▁전에는	-9.72107
▁있더라고요	-9.72117
▁정리	-9.72132
페	-9.72142
료	-9.72165
▁있구나	-9.72194
▁걸리	-9.72209
▁다리	-9.72229
▁유투브	-9.72275
▁좋아요	-9.7239
▁곳에	-9.724
때	-9.72433
▁당장	-9.72436
▁질	-9.72444
▁옆에서	-9.72472
▁쪽이	-9.72523
▁않으면	-9.72635
▁벚꽃	-9.72644
▁주제	-9.72676
▁행사	-9.72736
▁정부	-9.72892
▁좋아했	-9.72912
팅	-9.73008
더라구	-9.73018
▁전쟁	-9.7304
▁다르게	-9.73064
▁새로	-9.73089
▁맞고	-9.73094
▁하거든	-9.73122
▁생각에는	-9.73127
▁계신	-9.73139
▁맞춰	-9.73193
▁방법이	-9.7335
▁세대	-9.73392
▁남고	-9.73438
▁없지	-9.7345
끄	-9.73759
▁포장	-9.74013
▁들었어요	-9.74069
▁디자인	-9.74134
▁그랬더니	-9.74178
같이	-9.74335
▁빠져	-9.74352
▁나가고	-9.74393
▁한두	-9.74426
▁뛰어	-9.74494
▁거보다	-9.74585
▁투자	-9.74641
닥	-9.74862
▁아저씨	-9.74887
▁컴퓨터	-9.74887
▁야채	-9.74902
▁근까	-9.74929
▁골	-9.74945
▁그걸로	-9.7495
▁싸우	-9.75083
▁푸	-9.75134
▁자고	-9.75134
▁학기	-9.75148
▁저번에	-9.75208
▁이러면	-9.75229
▁느끼는	-9.75235
▁증	-9.75344
희	-9.75458
▁변화	-9.75511
▁크고	-9.75566
▁일본에	-9.75726
께서	-9.75882
▁해봤는데	-9.75899
기보다는	-9.75953
▁웃	-9.75957
스러운	-9.76028
▁근무	-9.76051
▁집을	-9.76165
▁애들한테	-9.76297
다던지	-9.76393
▁아무것	-9.76417
▁저녁에	-9.76452
▁유형	-9.76481
▁배웠	-9.76507
될	-9.76522
▁밑에	-9.76544
▁털	-9.76552
▁쪽에서	-9.76573
▁봤었	-9.7663
▁잡고	-9.76973
자면	-9.76985
하다가	-9.77074
▁모르겠어	-9.77127
▁책임	-9.77135
▁의견	-9.77223
하셨	-9.77301
▁봤어	-9.77321
▁고양이가	-9.77381
▁어렵	-9.77413
로써	-9.77446
▁먹게	-9.77527
▁말씀드렸	-9.77566
▁높은	-9.77569
▁이미지	-9.77652
▁나오면	-9.77657
고요	-9.77661
분들이	-9.77688
▁못했	-9.77697
▁친정	-9.77707
▁되잖아요	-9.7775
▁이랬	-9.77827
▁좋겠고	-9.77863
령	-9.7794
던데	-9.77973
으루	-9.78056
▁하나가	-9.78058
▁좋아하기	-9.78135
▁벌어	-9.78202
▁영화관에서	-9.78202
▁함	-9.78215
▁독	-9.78217
▁생각해보면	-9.78221
▁평생	-9.78376
▁운전	-9.78386
▁같다는	-9.78387
▁향	-9.78399
▁한참	-9.78415
셔가지고	-9.7845
쓰	-9.78452
▁드리	-9.78455
▁피부	-9.78504
▁양식	-9.78557
또	-9.78613
▁많다고	-9.78678
▁걔네	-9.78678
▁프로그램이	-9.78721
▁자신이	-9.78725
▁안타깝	-9.78741
걸	-9.78885
▁끝	-9.78946
▁알려	-9.79078
셨던	-9.79179
▁단계	-9.79187
▁니는	-9.79323
▁짐	-9.7935
▁생각하기	-9.79418
▁쌓	-9.79418
▁틀	-9.79497
▁재료	-9.79546
▁대표	-9.79591
▁그룹	-9.79627
▁이후에	-9.79743
▁단순	-9.79911
였어	-9.79945
한다는	-9.7998
▁아파	-9.79983
▁괜찮을	-9.80001
▁싶기	-9.80299
▁층	-9.80332
▁먹어서	-9.80472
▁현	-9.80499
▁이해가	-9.80508
▁중에서는	-9.80515
▁방학	-9.80549
▁그때부터	-9.80618
▁날이	-9.80648
▁나오는데	-9.80727
▁거잖아	-9.80728
▁마라탕	-9.8073
되어	-9.8074
▁테	-9.80784
▁쌤	-9.80914
▁중간	-9.80988
▁좋아했던	-9.81035
▁훈련	-9.81127
▁축제	-9.81165
▁기본적으로	-9.81213
▁넘어	-9.81264
▁말고는	-9.81265
▁싫어하	-9.8131
▁들어가는	-9.81391
냥	-9.81445
▁느끼고	-9.81515
▁무리	-9.81529
▁강원도	-9.81532
▁광고	-9.8167
했어	-9.81772
▁아직까지는	-9.81807
▁말했	-9.81848
▁기억나는	-9.81864
▁필	-9.82047
▁주변에서	-9.82083
▁해가지구	-9.82121
▁돼야	-9.82136
▁같지	-9.82157
▁했다	-9.82308
▁기생충	-9.82341
▁시댁	-9.82354
▁올라오	-9.82393
▁나요	-9.82504
▁도와주	-9.82506
▁남아	-9.82516
▁드는데	-9.82695
▁속에서	-9.82736
▁형제	-9.8274
▁줍는	-9.8275
▁그러지	-9.82768
▁계란	-9.8278
▁알아서	-9.82864
▁요가	-9.82873
▁치고	-9.82877
▁꼬	-9.82947
▁잘해	-9.83128
▁이사	-9.83144
▁운영	-9.83169
▁결정	-9.83216
드리	-9.8322
▁먹었는데	-9.83224
▁많으니까	-9.83282
하시	-9.83398
▁뭐냐면	-9.83434
▁줘	-9.83447
▁월	-9.83473
▁분들은	-9.8351
▁관광	-9.8351
▁그동안	-9.83573
▁갔다가	-9.8366
▁생각하지	-9.83682
▁년에	-9.83693
▁곳을	-9.83766
▁표	-9.8378
▁설명	-9.83808
▁진로	-9.83881
축	-9.83973
▁없으면	-9.83981
▁학생들	-9.84152
▁그분이	-9.84189
▁없었는데	-9.84248
쯤에	-9.8438
▁좋았고	-9.84435
▁비교	-9.84495
▁나갈	-9.84763
▁생각나	-9.84773
▁혼	-9.84786
▁예쁘	-9.84797
▁부르	-9.84799
▁군데	-9.84946
▁출	-9.84958
▁밖에서	-9.85009
▁알바가	-9.85063
▁태	-9.85064
▁당시	-9.85141
▁와가지고	-9.8521
▁땀	-9.85236
보면	-9.8534
▁짜증	-9.85434
▁거잖아요	-9.85472
▁생일이	-9.85507
촌	-9.85534
▁알았	-9.85561
▁아이들을	-9.85612
▁스토리	-9.85658
▁면이	-9.85703
▁느	-9.85843
▁가만	-9.85854
하구	-9.86022
▁않았는데	-9.86056
▁떨어져	-9.86071
학과	-9.86075
▁노후	-9.86096
▁기술	-9.86108
▁예술	-9.8612
▁역	-9.86163
▁내려	-9.86169
▁간식	-9.86315
르고	-9.86353
▁그분들	-9.86359
▁인정	-9.86378
줘서	-9.86378
▁나왔는데	-9.86485
▁판매	-9.8651
▁김치	-9.86592
▁친구들과	-9.86599
▁좋지만	-9.86674
정이	-9.86735
빵	-9.86849
▁총	-9.86993
만한	-9.87007
▁일하는	-9.8702
▁붙	-9.87028
▁말고도	-9.87051
▁되다	-9.87078
▁사용	-9.87121
▁대회	-9.87134
테	-9.8717
▁모르겠어요	-9.87201
평	-9.87264
▁정보	-9.87284
록	-9.87298
로운	-9.87302
▁담배	-9.87366
▁생각하시나요	-9.87379
▁한국에서	-9.87411
▁그래야	-9.87556
▁가도	-9.87561
▁싶을	-9.87587
▁쪼	-9.87589
점이	-9.87591
▁즐겁	-9.87606
▁폐	-9.8761
드라구	-9.87699
하구요	-9.87741
▁군인	-9.87774
▁뒤로	-9.87782
▁단풍	-9.87794
▁만난	-9.87845
▁연예인들	-9.87865
▁한국에	-9.87877
▁할까	-9.87922
을까	-9.87929
독	-9.88056
▁단점	-9.88187
▁유치원	-9.88213
▁추운	-9.8825
▁하신	-9.88286
▁대전	-9.88311
▁논	-9.88542
채	-9.88552
탄	-9.88586
▁얘기해	-9.8861
생기고	-9.8862
▁탄	-9.88706
▁외모	-9.88733
▁오면은	-9.8877
▁한식	-9.88792
었으면	-9.88803
▁해주는	-9.88809
▁찌	-9.88815
▁분야	-9.88831
▁배워	-9.88897
▁배우자	-9.88909
▁선물로	-9.88923
▁오형	-9.88946
능	-9.89018
▁성장	-9.8902
했고	-9.89081
▁깜짝	-9.89081
▁빼고	-9.89123
▁도전	-9.89263
▁안정	-9.89275
▁풀어	-9.89276
이라던가	-9.89324
▁광	-9.89331
▁찍고	-9.89356
▁악	-9.89491
▁농	-9.89495
베	-9.89513
▁없었고	-9.89533
▁짓	-9.89558
▁서울에	-9.89672
사를	-9.89752
▁않습니다	-9.89816
▁봤었는데	-9.89856
▁들어오	-9.89881
▁섬	-9.89944
▁경찰	-9.89963
▁월급	-9.89972
▁포기	-9.89979
▁마시	-9.90002
▁있었거든요	-9.90043
▁하죠	-9.90052
하셔서	-9.90052
▁활	-9.90056
사가	-9.90065
▁진상	-9.90102
▁신랑이	-9.90103
▁나갔	-9.90169
▁됐고	-9.90211
▁우리나라에	-9.90213
▁여자친구	-9.90292
▁콘서트	-9.90397
▁핸드폰	-9.90397
▁간다	-9.904
▁선배	-9.90423
▁아니다	-9.90436
▁커서	-9.90437
▁그래요	-9.90442
해보	-9.9054
▁아르바이트는	-9.90573
▁딴	-9.9058
▁면에서	-9.90608
▁아니었	-9.90683
왕	-9.90832
▁자연스럽게	-9.90844
▁동물을	-9.90873
▁임	-9.9091
▁만날	-9.90934
▁운	-9.90945
▁지나가	-9.90958
인이	-9.90967
시면	-9.90995
▁관련해서	-9.91137
책	-9.9121
▁직	-9.91241
▁남들	-9.91262
▁나머지	-9.91285
▁궁금하	-9.913
▁점수	-9.91315
▁급	-9.91348
▁나누	-9.91373
▁비용	-9.91427
▁국민	-9.91548
▁안전	-9.91569
▁나쁘지	-9.91575
▁상황에서	-9.91672
훈	-9.9173
▁않다고	-9.91823
악	-9.91896
▁대통령	-9.91931
▁닭	-9.91959
▁되는지	-9.92006
▁말이에요	-9.9201
▁땅	-9.92136
▁편이야	-9.92174
▁햄스터	-9.92178
▁존재	-9.92179
▁아니에요	-9.9219
이었	-9.9221
▁됐던	-9.92266
▁매력	-9.9229
▁위해	-9.92337
▁저거	-9.92367
▁소비	-9.9237
▁여행이	-9.92377
▁아쉽	-9.92383
값	-9.92455
▁강의	-9.92475
▁식사	-9.92489
▁이후로	-9.92578
▁친구들하고	-9.92601
▁누군가	-9.92608
▁해갖고	-9.92617
▁선호하는	-9.92619
▁자라	-9.92892
▁언니랑	-9.92949
▁인터넷	-9.92977
▁트	-9.93009
국수	-9.93072
▁애니메이션	-9.93081
수가	-9.93114
▁곳에서	-9.9323
▁불러	-9.93306
▁바닷가	-9.93332
▁헤	-9.9336
▁있더라고	-9.93368
▁협	-9.93428
▁코스	-9.93436
▁내고	-9.93453
▁작가	-9.93471
버린	-9.93476
▁그쪽으로	-9.93491
줘	-9.93492
였고	-9.93504
▁풍	-9.93528
▁납니다	-9.93536
▁다행히	-9.93537
▁있으실까	-9.93537
▁검색	-9.93547
▁쪽을	-9.93668
▁것에	-9.93793
▁지방	-9.93811
▁되더라구요	-9.93853
▁느껴지	-9.93858
환	-9.93925
▁그러다가	-9.93957
▁동물들	-9.93982
까진	-9.94005
▁업무	-9.94007
갑	-9.94152
▁승	-9.94227
▁날에	-9.94239
▁성적	-9.94289
▁아니라고	-9.94291
▁첫째	-9.94451
▁권	-9.94455
▁관람	-9.94456
▁신청	-9.94488
▁사장님이	-9.94575
▁이천	-9.94579
▁말하면	-9.94581
생활	-9.94627
▁편이라서	-9.94771
▁느낀	-9.94913
▁벌써	-9.94916
▁올리	-9.95127
▁일들이	-9.95147
▁빠	-9.95181
와서	-9.95184
▁일본에서	-9.95286
▁제도	-9.95321
▁보내고	-9.95352
▁걷는	-9.95375
▁여덟	-9.95375
▁사촌	-9.95508
▁해줄	-9.95544
끼	-9.95554
열	-9.95567
▁겁	-9.95568
활	-9.95588
해지	-9.95683
▁스키	-9.95687
▁우리나라도	-9.95777
왔	-9.95798
▁먹으면서	-9.95826
▁청소	-9.95884
들이랑	-9.95968
▁돈도	-9.96043
▁것들은	-9.96086
▁칠십	-9.9615
▁결국에	-9.96212
겠다고	-9.96231
먼	-9.96238
▁있었으면	-9.9627
▁찾는	-9.96307
▁주인공	-9.96338
볼까	-9.96341
▁빠지	-9.9637
버려	-9.96434
▁살다	-9.9651
▁가족들이	-9.96553
▁않다	-9.96593
▁없잖아	-9.96626
송	-9.96646
▁괜찮았	-9.96716
퇴	-9.96729
▁에어컨	-9.96777
둥	-9.96777
▁숙소	-9.96779
▁일부러	-9.968
▁하늘	-9.96816
▁식품	-9.96822
▁헬스	-9.96961
▁식단	-9.96969
▁이슈	-9.96993
▁년이	-9.97009
▁없잖아요	-9.9703
한테는	-9.97096
▁뭐냐	-9.97097
▁거랑	-9.97264
▁개가	-9.97322
▁정말로	-9.9734
▁점심	-9.97352
▁쪼금씩	-9.97376
▁일주일에	-9.97434
▁아니요	-9.97494
▁없기	-9.97515
▁못해서	-9.97546
▁주인	-9.9755
▁티비에서	-9.97638
할려고	-9.97639
▁봤고	-9.9765
▁학과	-9.97705
▁아쉬운	-9.97723
▁파스타	-9.9773
▁질병	-9.97739
▁예뻐	-9.97749
▁어떠한	-9.97832
▁일상	-9.97889
식이	-9.97908
번	-9.97976
▁유명하	-9.98104
▁똑같	-9.98155
▁온라인	-9.982
▁휴	-9.98222
▁기억나	-9.98283
▁되겠	-9.98297
▁갖다	-9.98308
▁될까	-9.98337
▁봄이	-9.98344
▁슬	-9.98378
▁시설	-9.98388
▁않았던	-9.98397
▁문제는	-9.98436
▁직업이	-9.98507
잡	-9.98559
튼	-9.98583
▁스릴러	-9.98677
▁목소리	-9.98683
▁케어	-9.98693
▁성공	-9.98739
▁시골	-9.98752
▁지키	-9.9881
▁미래	-9.98811
▁영화에	-9.98828
▁공연	-9.98832
항	-9.98913
▁좋겠는데	-9.98974
▁시키	-9.99002
▁위로	-9.99111
▁공무원	-9.99158
▁필라테스	-9.99158
▁무서운	-9.99158
▁대충	-9.99206
▁십오	-9.99331
▁환자	-9.99339
짜	-9.99385
▁노는	-9.99419
▁현금	-9.99501
▁이상한	-9.99519
야겠다	-9.99635
▁레시피	-9.99641
▁시절에	-9.99663
▁어디서	-9.99691
▁쳐	-9.99714
했어요	-9.99733
까요	-9.99841
▁못할	-9.99846
▁하더라도	-9.99858
▁팔십	-9.99863
했듯	-9.99968
이지	-9.99974
▁살아야	-10.0009
규	-10.0011
▁백화점	-10.0013
월	-10.0013
▁보다가	-10.0017
▁이름은	-10.0031
▁사람과	-10.0035
▁쪼끔씩	-10.0037
▁답	-10.0038
▁재밌고	-10.0038
째	-10.0042
결	-10.0043
자고	-10.0047
▁귀엽	-10.0054
▁불편하	-10.0062
▁새끼	-10.0063
▁실망	-10.0064
▁과제	-10.0072
▁장점이	-10.0084
▁그중에	-10.0087
▁베	-10.0088
▁제품	-10.0093
맡	-10.0097
표	-10.0101
션	-10.0102
▁하자	-10.0105
▁장난	-10.011
꾸	-10.0112
▁있었거든	-10.0116
▁입양	-10.0119
▁찾아가	-10.0126
▁앉아서	-10.0133
▁극	-10.0139
▁쎄	-10.014
▁이상형이	-10.0154
자마자	-10.0161
술	-10.0169
▁결혼하고	-10.0177
줬으면	-10.0187
▁많기	-10.0188
집이	-10.0207
▁고등학생	-10.0209
▁바꿔	-10.0209
▁캠핑	-10.0209
▁서빙	-10.021
▁의무	-10.0216
▁처	-10.0217
▁구매	-10.0219
▁하실	-10.0226
▁입장이	-10.0229
▁인식	-10.025
▁조심	-10.0251
▁자세	-10.0257
▁없습니다	-10.0258
▁뭔지	-10.0259
▁에피소드	-10.0259
츠	-10.0259
▁병역	-10.0261
들었던	-10.0262
이잖아요	-10.0268
▁먹으니까	-10.0281
▁주위에	-10.0282
했다고	-10.0284
▁않았나	-10.0287
▁하시고	-10.0299
▁남았	-10.0305
▁없어가지고	-10.0307
딩	-10.0309
▁충격	-10.0309
▁면접	-10.031
▁쟤	-10.031
▁가족끼리	-10.0315
▁생각으로	-10.0321
화가	-10.0322
▁고르	-10.0333
▁실수	-10.0333
▁보이고	-10.0334
▁친구들한테	-10.0337
▁주말에	-10.0339
▁친구한테	-10.0341
▁맞다고	-10.0343
빙	-10.0357
다든가	-10.0359
▁대구	-10.0359
▁해야지	-10.036
▁교회	-10.0363
▁힘들게	-10.0364
▁배울	-10.0366
▁많아지	-10.0373
돌	-10.0373
▁알았는데	-10.0375
▁황	-10.0381
▁캐	-10.0381
▁요번에	-10.0384
▁제주도에	-10.0387
▁말씀하셨	-10.04
▁정부에서	-10.0403
▁좀비	-10.0406
끈	-10.041
▁적응	-10.0411
처	-10.0416
▁경우에	-10.042
별로	-10.0422
는데요	-10.0422
▁그리	-10.0423
었잖아	-10.0425
▁신기하	-10.0429
▁남았던	-10.0431
▁검	-10.0432
▁가방	-10.0434
▁알지	-10.0435
▁떡	-10.0437
주의	-10.0438
쳐서	-10.0441
▁빵집	-10.0441
돼서	-10.0446
▁그렇다	-10.045
▁썼	-10.0454
련	-10.0456
▁야구를	-10.0456
▁흥미	-10.0461
▁드리고	-10.0462
▁되더라고요	-10.0463
▁쉬운	-10.0464
▁마련	-10.0465
▁영국	-10.0466
▁사주	-10.0472
▁들어가고	-10.0473
▁선수들이	-10.0475
▁어머니가	-10.049
▁가면서	-10.0491
▁그때가	-10.0494
봤는데	-10.0494
▁상상	-10.0497
낸	-10.0498
▁했었거든요	-10.0503
▁저두	-10.0509
▁메뉴	-10.0512
▁지내고	-10.0517
▁언	-10.0547
▁좋았어	-10.0552
▁생각한	-10.0555
▁맛있었	-10.0558
▁칼	-10.0558
혈	-10.0563
▁왠지	-10.0563
▁엄청나게	-10.0564
▁가슴	-10.0564
▁않은데	-10.0565
▁독일	-10.057
▁생각하시는지	-10.0574
▁광주	-10.0576
▁하나씩	-10.0582
▁아빠랑	-10.0583
▁쉽	-10.0585
▁되잖아	-10.0598
다니	-10.06
▁대한민국	-10.0614
▁젊었	-10.0614
하시고	-10.0618
▁지인	-10.0619
▁충	-10.0627
▁젤	-10.0636
▁마시고	-10.064
▁부산에	-10.0646
▁치매에	-10.0649
▁간다고	-10.0649
▁로맨스	-10.0666
길래	-10.0673
▁말로	-10.0675
▁공원	-10.0678
들끼리	-10.0685
▁보조	-10.0687
▁눈치	-10.0687
이지만	-10.0689
클	-10.0698
▁사과	-10.0704
▁됩니다	-10.0718
▁강아지는	-10.0719
드릴	-10.072
▁바꾸	-10.0721
▁체력	-10.0725
▁많잖아	-10.0734
▁어른들	-10.074
▁그것이	-10.0754
▁주말	-10.0758
▁주실	-10.0762
▁상관없	-10.0771
▁영양제	-10.0776
▁감독이	-10.0777
▁했다고	-10.0779
▁정서	-10.078
▁배운	-10.0781
▁사람이랑	-10.0786
해지고	-10.0793
져가지고	-10.0795
꼬	-10.0799
▁알려주	-10.0804
▁생각에	-10.0805
▁생각했는데	-10.0806
▁기간이	-10.0808
퍼	-10.0808
▁애들이랑	-10.0821
식으로	-10.0822
▁즐길	-10.0823
▁소비자	-10.0824
▁주기	-10.0825
▁손님이	-10.0828
▁맞추	-10.0828
▁방금	-10.0829
▁신발	-10.0831
▁기업	-10.0832
▁했지	-10.0834
▁선생님들	-10.0836
▁판	-10.0841
▁쪽은	-10.0858
▁호주	-10.0861
따	-10.0862
새	-10.0863
하실	-10.0863
혜	-10.0875
▁습관	-10.0877
▁마트	-10.0879
▁치즈	-10.0882
▁구십	-10.0885
틀	-10.0886
겠구나	-10.089
▁직원	-10.0891
▁구조	-10.0893
▁탁	-10.0894
▁감사하	-10.09
▁될까요	-10.0907
시나요	-10.0907
▁이상하게	-10.0909
▁능력	-10.091
▁아니라서	-10.0916
▁기준	-10.092
▁맛있어	-10.0926
▁그곳	-10.0928
▁만들었	-10.0929
▁오랫동	-10.0929
▁짧게	-10.0929
▁봉사활동	-10.093
▁좋아하시나요	-10.0933
었을	-10.0947
놓	-10.0952
버렸	-10.0953
▁틀어	-10.0955
▁생각하거든요	-10.0962
▁생산	-10.0965
▁보냈	-10.0973
▁의지	-10.0976
되지	-10.0977
▁정확하게	-10.0983
▁바쁘	-10.0983
▁않았을까	-10.0986
▁반찬	-10.0986
▁내리	-10.0989
▁생선	-10.0994
▁편한	-10.0996
▁여행은	-10.1007
▁놀았	-10.101
▁색	-10.1016
▁비슷하	-10.1018
▁하드라구요	-10.1027
▁왕	-10.1037
▁들어갈	-10.1045
▁일곱	-10.1046
치고	-10.1049
물이	-10.1051
▁스물	-10.1053
▁웬만하면	-10.1055
▁세상	-10.1061
▁재밌어	-10.1062
▁누구나	-10.1074
었다고	-10.1074
광	-10.108
층	-10.109
▁토끼	-10.1092
▁담임	-10.1093
▁상담	-10.1098
▁에스엔에스	-10.1099
▁해준	-10.1101
▁돌아다니	-10.1104
▁예방	-10.1115
▁갈아	-10.1115
해지는	-10.1115
▁실제	-10.1129
▁아니더라	-10.113
▁됐어	-10.1132
존	-10.114
▁힐링	-10.1145
▁해산물	-10.1145
▁레저	-10.1147
▁조건	-10.115
침	-10.1156
▁마음으로	-10.1159
▁살기	-10.1159
▁생기는	-10.1168
▁교수님	-10.1169
▁예쁘게	-10.117
▁길게	-10.1187
이었어요	-10.1193
▁싫고	-10.12
▁패	-10.1204
▁아우	-10.1206
이긴	-10.1222
▁드렸	-10.1229
▁헬스장	-10.1233
▁개선	-10.1235
▁화를	-10.1245
▁일본이	-10.1253
▁서비스	-10.1253
▁체험	-10.1255
▁풍경	-10.1256
▁계약	-10.1257
기에	-10.1269
▁쉬는	-10.1271
▁돌려	-10.1272
▁전체	-10.1277
▁좋아하시	-10.129
스럽	-10.1292
▁어머님	-10.1301
▁며느리	-10.131
▁독립	-10.1311
▁족발집	-10.1312
봉	-10.1313
▁연예인이	-10.1317
손	-10.1319
▁결	-10.1322
▁찾아보고	-10.1325
떡	-10.1332
▁하겠	-10.1337
▁있었습니다	-10.1339
▁키우면서	-10.1356
▁행복한	-10.1356
▁시작했	-10.1361
▁시어머니	-10.1365
몬	-10.1365
▁색깔	-10.1366
▁업	-10.1377
벌	-10.1378
▁적어	-10.1386
해주는	-10.1395
▁감자	-10.14
했었	-10.1403
▁좋아해가지고	-10.1406
▁감정이	-10.141
▁버리	-10.1415
▁좋아한다고	-10.1417
▁심지어	-10.1421
▁맥주	-10.1422
▁하기도	-10.1424
▁어떨	-10.144
하지만	-10.1442
▁수영장	-10.1444
▁건가요	-10.1445
▁녹	-10.1446
▁외식	-10.1447
▁나이에	-10.1448
▁마지막에	-10.1453
▁싶으면	-10.1454
▁산다	-10.1472
▁단기	-10.1476
▁좋아하니까	-10.1483
라기보다는	-10.1483
▁괜찮다고	-10.1483
▁대답	-10.1485
▁추워	-10.1489
▁때에	-10.1492
▁말할	-10.1494
▁해먹	-10.1495
답	-10.1495
▁회사에서	-10.1498
▁계획이	-10.15
량이	-10.1501
▁갈려고	-10.1521
▁케이	-10.1522
▁초등학생	-10.1534
▁격	-10.1535
▁익	-10.1538
▁앉아	-10.1549
▁경제적으로	-10.1564
▁계절에	-10.1568
▁나만	-10.1573
▁침	-10.1584
▁산지	-10.1589
압	-10.1591
▁징병제	-10.1593
▁금액	-10.1594
▁모르겠고	-10.1595
▁판단	-10.1597
났	-10.1603
▁당시에는	-10.1607
▁창	-10.1611
▁떨	-10.1612
메	-10.1613
▁갖다가	-10.1614
▁나에게	-10.1615
▁드시는	-10.1621
▁이러고	-10.1633
▁못해	-10.1639
▁계시는	-10.164
▁낫	-10.164
▁분위기가	-10.1643
▁생각했을	-10.1644
▁심리	-10.1647
▁범죄	-10.1648
▁물고기	-10.1652
▁먼	-10.1655
▁장면이	-10.1666
▁좋아할	-10.1666
▁급식	-10.1674
▁너네	-10.168
▁걔네들	-10.1681
▁있으신	-10.1687
례	-10.1693
▁빈	-10.1695
▁우울	-10.17
장에	-10.1701
겼	-10.1703
▁말해	-10.1704
▁걷기	-10.1705
▁백종원	-10.1705
▁낳아	-10.1705
▁돈으로	-10.1708
▁매우	-10.1716
워서	-10.1717
▁과학	-10.1717
▁원이	-10.1722
승	-10.1725
▁하는지	-10.1733
▁브	-10.1734
▁생활이	-10.1741
▁곧	-10.1743
▁홍	-10.1744
▁부모님한테	-10.1756
▁받으면	-10.1756
▁공간	-10.1761
▁밥도	-10.1762
널	-10.1762
▁프랑스	-10.1763
▁같더라고요	-10.1763
▁자식이	-10.1766
▁먹어요	-10.1768
▁이쁜	-10.1772
▁관광지	-10.1772
▁됐을	-10.1772
▁클	-10.1784
▁갑	-10.1785
이었어	-10.1806
▁해줬	-10.1812
랄	-10.1818
▁스페인	-10.1821
▁화장실	-10.1823
▁부럽	-10.1825
곡	-10.1851
밀	-10.1852
▁두고	-10.1856
▁자랑	-10.1856
▁그렇다면	-10.1865
택	-10.1871
롭	-10.1875
▁착	-10.1876
▁싫었	-10.188
▁성향이	-10.188
▁성향	-10.1883
▁공유	-10.1888
▁키우다	-10.1892
▁정해	-10.1892
▁멤버	-10.1893
▁불안	-10.1897
▁성인이	-10.19
▁노동	-10.19
해주고	-10.1908
▁글쎄	-10.1917
겠어	-10.1921
▁산에	-10.1923
▁연구	-10.1927
궁	-10.1939
렁	-10.1939
▁시급	-10.1939
▁하나하나	-10.1939
▁극복	-10.194
▁가졌	-10.1946
▁해보면	-10.1958
하니	-10.1958
▁고기를	-10.196
겠습니다	-10.1985
▁이러는	-10.1996
둔	-10.1997
▁패키지	-10.1998
▁쩨일	-10.1998
▁많을	-10.2
▁학창	-10.2
▁간단하게	-10.2001
▁지냈	-10.2003
▁따뜻한	-10.2006
▁명절	-10.2009
▁특별하게	-10.2012
▁송	-10.2012
▁해줘야	-10.2013
▁모임	-10.2015
▁몰랐는데	-10.2015
▁억	-10.2019
▁식구	-10.2026
이거든요	-10.2028
철	-10.2034
▁이쪽	-10.2035
▁얘기하는	-10.204
▁거기도	-10.2045
▁소화	-10.2052
▁들었어	-10.2053
▁같으면	-10.2054
▁희망	-10.2056
▁골프	-10.206
▁태국	-10.206
▁주지	-10.2063
▁생명	-10.2064
준다고	-10.2066
▁친구들을	-10.2067
▁기계	-10.2071
▁퍼	-10.2074
▁모르겠	-10.2081
▁싼	-10.2083
▁했거든	-10.2086
빠	-10.2103
▁불만	-10.2107
▁내내	-10.2112
으세요	-10.2113
▁쇼트트랙	-10.2117
▁양념	-10.2118
▁조끔	-10.2119
한데	-10.2119
▁싸움	-10.2119
▁서른	-10.2121
▁같더라고	-10.2122
▁인형	-10.2129
▁인기	-10.2138
▁인사	-10.214
▁무시	-10.2141
▁확인	-10.2153
▁이모	-10.2156
▁봤거든요	-10.2162
▁힘들어서	-10.2163
▁키운	-10.2164
▁위험	-10.2171
▁어찌	-10.2178
여가지고	-10.218
▁출연	-10.2181
▁너희	-10.2183
▁보기에는	-10.2186
▁간호사	-10.2187
치는	-10.2189
▁키가	-10.2189
▁자체를	-10.2194
▁치매가	-10.2196
▁쉬고	-10.2198
들에	-10.2212
번에	-10.2217
▁싸웠	-10.2223
▁넘게	-10.2225
▁들어가면	-10.2233
기로	-10.2235
▁어려워	-10.2241
▁형이	-10.2242
▁친해지	-10.2247
▁부담이	-10.2248
▁시청	-10.2248
▁되었는데	-10.2249
▁해주시	-10.2251
▁물어봤	-10.2253
▁무엇	-10.2254
▁번쯤	-10.2256
▁생겨서	-10.2258
▁영화들	-10.2263
▁무서워	-10.2264
▁이틀	-10.228
▁고민이	-10.2288
셨는지	-10.2295
▁움직이	-10.2296
▁동남아	-10.2299
▁배드민턴	-10.2299
▁불편한	-10.2299
▁늘어나	-10.2299
봐야	-10.23
놓은	-10.2301
▁은행	-10.2308
▁다양하게	-10.2311
▁가족들이랑	-10.2326
▁아들은	-10.2341
켜	-10.2342
익	-10.2344
▁맞다	-10.2351
▁촬영	-10.236
▁헤어지	-10.2361
▁왔을	-10.2361
▁월세	-10.2363
▁참여	-10.2364
▁나라에	-10.2374
▁했기	-10.2393
치를	-10.2394
▁근육	-10.2397
▁나가면	-10.2416
▁있었을	-10.2418
쾌	-10.2421
▁선호	-10.2422
트를	-10.2426
▁써서	-10.2434
어져	-10.2444
▁많아가지고	-10.2445
▁보셨	-10.2446
▁예쁘고	-10.2447
▁엠	-10.2452
▁갔어요	-10.2457
▁배가	-10.2459
▁끝나면	-10.2459
▁시에	-10.2472
어가지구	-10.2472
▁맞았	-10.2475
하기에는	-10.2478
버리	-10.248
▁짧은	-10.2484
▁하겠다	-10.2487
▁이동	-10.2489
져야	-10.2504
▁가다	-10.2509
▁꼽	-10.2513
▁준다	-10.2521
▁좋았어요	-10.2523
▁했었어	-10.2527
▁받아들이	-10.2537
▁말은	-10.2541
▁얘기했	-10.2546
빛	-10.2547
▁사람들이랑	-10.2547
▁홍보	-10.2551
▁계산	-10.2553
▁단체	-10.2557
▁먹어보	-10.2561
▁학교가	-10.2561
▁죽어	-10.2562
▁언어	-10.2567
▁세금	-10.2567
▁깔	-10.2584
들과	-10.2586
▁떠나	-10.2591
▁경주	-10.2593
음에	-10.2597
율	-10.26
취	-10.2604
▁주인공이	-10.2607
킹	-10.2609
맥	-10.2609
옥	-10.261
▁거기다	-10.2612
▁먹어보고	-10.2613
▁배구	-10.2616
▁조절	-10.2616
▁법이	-10.2622
▁모르지만	-10.2625
▁가능	-10.2629
▁가지가	-10.2631
▁같구	-10.2634
해주	-10.2643
▁낙	-10.265
▁보여주	-10.2653
▁굴	-10.2661
윤	-10.2672
닝	-10.2673
▁나타나	-10.2673
▁일정	-10.2673
▁초코	-10.2677
죽	-10.2686
기에는	-10.2688
▁개발	-10.2692
▁지난	-10.2695
알	-10.2696
▁닫	-10.2697
▁너랑	-10.2698
▁아프고	-10.2702
▁노력하고	-10.2706
▁필요하다고	-10.2711
▁받지	-10.2719
드리고	-10.2722
▁진짜로	-10.2724
▁소스	-10.2725
함이	-10.2733
▁건강하게	-10.2736
▁디저트	-10.2737
쩍	-10.2737
큐	-10.2737
▁유기견	-10.2737
▁동물이	-10.2741
▁모양	-10.2747
▁실내	-10.2748
▁사료	-10.2757
느	-10.2761
▁가르치	-10.2767
▁무대	-10.2771
▁넣어서	-10.2788
맘	-10.2798
▁여쭤보	-10.2801
변	-10.2801
▁있어가지구	-10.2806
▁어떨까	-10.281
▁필요하	-10.2812
▁수박	-10.2816
▁않았고	-10.2819
▁더위	-10.2828
시켜	-10.2834
▁세상에	-10.2841
▁어떻	-10.2848
▁반한	-10.2855
▁놀라	-10.2857
▁바라는	-10.2863
자들	-10.2864
▁나무	-10.2867
▁그랬었	-10.287
▁걸린	-10.2871
▁인기가	-10.2873
▁지나고	-10.2878
▁조카	-10.2886
짝	-10.2888
▁주세요	-10.289
▁전부터	-10.2892
▁주시	-10.2896
찬	-10.2897
했었는데	-10.2897
▁몰	-10.2907
▁시선	-10.2908
▁좋아했는데	-10.2909
▁대단하	-10.291
▁벗	-10.2911
뿐	-10.2912
들이나	-10.2915
▁다녀왔	-10.2923
▁영화나	-10.2925
▁결혼식	-10.2927
▁소심한	-10.293
▁브랜드	-10.293
▁새벽에	-10.2931
▁국제	-10.2936
▁여수	-10.2938
▁마블	-10.2939
▁약속	-10.2939
▁갖	-10.2947
골	-10.2951
▁대학생	-10.2952
▁요소	-10.2953
▁도와	-10.2953
▁하시는데	-10.2966
▁편하	-10.2966
점을	-10.2967
▁일할	-10.2969
▁모병제	-10.2971
▁짤	-10.2976
▁챙겨보	-10.2988
▁깊	-10.299
▁있으면서	-10.2991
솔	-10.2995
찜	-10.2995
▁귀여운	-10.2995
삭	-10.2995
▁쓰레기	-10.2996
▁올라갔	-10.2996
▁기념일	-10.2997
▁취직	-10.2999
▁대처	-10.3005
▁되더라고	-10.3007
▁환	-10.3012
▁정상	-10.3019
▁시작하	-10.3021
▁되어서	-10.3023
▁단어	-10.3024
▁구워	-10.3029
▁모르게	-10.3038
하러	-10.304
▁못했던	-10.3046
▁먹다	-10.3047
빌	-10.3053
▁사이에	-10.3053
▁가질	-10.3055
쿠	-10.3061
룰	-10.3061
▁경향이	-10.3061
▁퇴근	-10.3061
▁길거리	-10.3067
▁들었고	-10.3081
극	-10.309
▁즐기	-10.3094
커	-10.31
했으면	-10.3106
하잖아	-10.3107
▁열두	-10.3116
▁대비	-10.3117
했다는	-10.3123
▁맛집이	-10.3123
▁사람들에게	-10.3125
▁바뀐	-10.3128
▁홍콩	-10.3128
▁몰래	-10.313
▁챙기	-10.3132
혼	-10.3136
▁있었다	-10.3139
▁머	-10.3139
▁크기	-10.3157
람	-10.3163
▁봉	-10.3163
▁속에	-10.3164
▁살아가는	-10.3166
탈	-10.3169
뜨	-10.3172
▁목표가	-10.3175
놀이	-10.3176
▁그러기	-10.3176
맨	-10.3177
▁치우	-10.3178
둘	-10.318
▁내년에	-10.3181
▁뮤지컬	-10.3194
▁승무원	-10.3194
▁안타까운	-10.3194
▁교복	-10.3198
▁상태에서	-10.3206
셨나요	-10.3206
신가요	-10.321
▁잘하	-10.3211
▁찍는	-10.3224
▁음식들	-10.3227
낼	-10.3228
▁손님들	-10.3236
▁번째로	-10.3236
▁내년	-10.3247
▁하라고	-10.3248
보셨어요	-10.3252
▁있어도	-10.3258
▁춤	-10.3266
▁교사	-10.327
▁여름은	-10.3277
▁준비하고	-10.3278
겠어요	-10.3281
다보니까	-10.3284
▁언젠가	-10.3289
주시는	-10.3289
▁다니시	-10.3289
▁혈액형이	-10.3293
▁제작	-10.3293
▁난민들	-10.3307
▁많거든요	-10.3313
▁좋았는데	-10.3313
럽	-10.3314
▁새벽	-10.3328
▁들면서	-10.3331
▁커플	-10.3331
▁감명	-10.3335
▁놔	-10.3338
▁큰애	-10.3345
으신	-10.3349
▁말씀드리	-10.3356
▁결혼해서	-10.3358
▁국민들	-10.3362
▁지나면	-10.3367
▁결혼에	-10.3369
▁만나면	-10.3378
▁가족은	-10.3384
싱	-10.3396
▁삼겹살	-10.3397
▁브라질	-10.3397
▁냉면	-10.3398
▁덥	-10.3399
비가	-10.3402
▁벌레	-10.3405
▁경우에도	-10.3405
▁공장	-10.3411
해줄	-10.3415
▁참고	-10.3419
▁가시	-10.3427
▁쌀	-10.3434
▁핵	-10.3434
▁똥	-10.3436
▁웬만	-10.3442
▁맛있고	-10.3447
▁배우들	-10.3447
▁아이들한테	-10.3451
맛	-10.3454
▁반응	-10.3467
▁형님	-10.347
▁파티	-10.3473
▁기름	-10.3477
▁향수	-10.3481
▁듣기	-10.3485
▁목적	-10.3487
▁기차	-10.3488
▁진학	-10.3488
▁글쎄요	-10.3491
▁대중	-10.3501
▁포함	-10.3503
▁추천하고	-10.3503
▁달려	-10.3503
▁해야겠다	-10.3505
▁계시고	-10.351
▁얘기하고	-10.3528
▁없었어요	-10.3531
▁일하고	-10.3533
▁매장	-10.3533
▁찾고	-10.3534
넷	-10.3534
▁부동산	-10.3534
▁한편으로	-10.3534
▁쇼핑	-10.3534
▁반려견	-10.3535
▁흔히	-10.3535
▁출근	-10.3536
▁종이	-10.3538
▁장기	-10.3542
▁아홉	-10.3543
▁치면	-10.3546
▁한창	-10.3546
▁고맙	-10.3549
▁식구들	-10.3551
▁웃기	-10.3557
▁되거든요	-10.3558
▁터지	-10.3561
▁나와가지고	-10.3564
▁있단	-10.3564
▁채워	-10.3575
▁조리	-10.3583
▁해라	-10.3589
▁죽을	-10.3597
▁하던	-10.3597
까지도	-10.3598
▁하는데요	-10.3602
▁중학생	-10.3604
▁활용	-10.3607
보셨나요	-10.3609
▁건가	-10.3619
▁싹	-10.3622
▁우산	-10.3623
짜리	-10.364
심이	-10.3646
▁일어나서	-10.3653
▁이러다	-10.3656
▁없으	-10.3656
려는	-10.3656
▁나서는	-10.3658
땐	-10.367
▁전까지	-10.3673
듬	-10.3674
힌	-10.3674
▁어뜨케	-10.3674
▁채널	-10.3674
오는	-10.3675
이었고	-10.3675
▁사회생활	-10.3676
▁졸업하고	-10.3677
▁기초	-10.3681
▁생길	-10.3682
▁좋아한	-10.3691
▁초반에	-10.3695
▁이렇	-10.37
▁좋겠다는	-10.3701
갈비	-10.3701
▁이어	-10.3706
▁뜻	-10.3707
▁즐기는	-10.371
▁내려가	-10.372
▁하려고	-10.3729
▁조사	-10.3729
▁노인들	-10.373
▁방향	-10.3732
▁가봤는데	-10.3734
▁싶긴	-10.374
징	-10.3743
▁애완동물	-10.3744
▁계곡	-10.3745
▁화장품	-10.3745
▁씨가	-10.3749
▁미용	-10.376
▁성격에	-10.3761
▁차가	-10.3764
▁예약	-10.3766
▁재미있	-10.3767
▁먹을려고	-10.378
▁알아보	-10.3805
▁세워	-10.3806
▁꼴	-10.3814
▁롯데	-10.3815
▁쫓아	-10.3815
▁기숙사	-10.3815
▁여기저기	-10.3815
▁수학여행	-10.3816
머	-10.382
▁앞으로도	-10.3828
▁틀리	-10.3829
▁강아지들	-10.3836
▁모여서	-10.3842
▁서서	-10.3849
먹고	-10.385
었지	-10.3853
▁짝	-10.3856
▁든	-10.386
았던	-10.386
▁키우기	-10.3861
▁없었어	-10.387
▁귀찮	-10.3871
였거든요	-10.3874
▁그쪽에	-10.3877
춘	-10.3886
주시고	-10.3886
▁시원한	-10.3887
▁고객	-10.3888
▁실질적으로	-10.3889
▁끓여	-10.389
▁자취	-10.3891
암	-10.3897
▁이뻐	-10.3915
▁지내는	-10.3915
▁그분들이	-10.3928
춥	-10.393
▁지식	-10.3933
▁바라	-10.3934
▁오만	-10.3941
▁해봐	-10.3943
▁쓴	-10.3951
▁상대방이	-10.3952
콜	-10.3956
둬	-10.3958
▁영화배우	-10.3958
▁좋아하다	-10.3985
▁빠르	-10.3988
▁어깨	-10.399
▁쌤이	-10.399
기만	-10.3992
▁그전에	-10.4008
▁있으시	-10.4009
착	-10.4014
▁아니니까	-10.4016
▁먹이	-10.4023
필	-10.4027
엘	-10.4028
냉	-10.4029
괴	-10.403
▁경쟁	-10.4032
▁흘리	-10.4034
▁허리	-10.404
▁영환데	-10.4041
▁유학	-10.4048
▁완	-10.4049
▁키운다	-10.4053
▁명이서	-10.4053
▁했잖아요	-10.4054
▁스키장	-10.4063
▁국물	-10.4065
▁괜찮은데	-10.4065
▁남아있	-10.4068
▁수준	-10.407
▁이상은	-10.4077
▁애기들	-10.4078
▁분은	-10.4079
▁냈	-10.4081
▁하세요	-10.4096
▁여동생	-10.4104
▁택시	-10.4104
▁강릉	-10.4105
▁축하	-10.4109
들었습니다	-10.4117
▁서울에서	-10.4117
랑은	-10.4119
▁기다리	-10.4121
▁외국인	-10.4128
싸	-10.413
▁의식	-10.4133
▁많았는데	-10.4143
▁써야	-10.4146
▁않았어요	-10.4146
시킬	-10.4146
▁가다가	-10.416
▁하든	-10.4166
▁썩	-10.417
▁필리핀	-10.4177
▁교통	-10.418
▁지구	-10.4186
푸	-10.4187
▁생기면	-10.4188
▁한국인	-10.419
▁상황에	-10.4193
▁능력이	-10.4205
찌개	-10.4206
▁들기도	-10.4208
▁고려	-10.421
짐	-10.4211
▁음료	-10.4211
▁사태	-10.4212
▁수입	-10.4213
준다	-10.4226
▁아님	-10.4226
▁난리	-10.4241
▁졸	-10.4245
액	-10.425
뚜	-10.4251
▁특징	-10.4252
▁발생	-10.4252
▁먹어봤	-10.4253
▁방문	-10.4262
▁살인	-10.427
▁재미있게	-10.4271
▁말해서	-10.4274
▁들어와서	-10.4277
▁곡	-10.4278
▁않기	-10.4287
▁착한	-10.4287
▁주의	-10.4289
▁해볼	-10.429
황	-10.429
▁좋아지	-10.4295
보니까	-10.43
▁근력	-10.4302
▁때문이	-10.4304
까지만	-10.4307
▁갔어	-10.4308
▁이때	-10.4309
▁남은	-10.4316
▁낫지	-10.4322
▁심해	-10.4325
밭	-10.4326
▁놀랬	-10.4327
▁계신가요	-10.4327
▁억울	-10.4328
▁발표	-10.4329
▁미안하	-10.4329
▁임차인	-10.4335
▁맞아요	-10.4338
▁걸렸	-10.4348
▁않으니까	-10.4351
▁좋아하거든	-10.4351
▁어떠	-10.4355
휴	-10.4355
▁됐으면	-10.4359
▁효	-10.4359
돈	-10.4359
꺼	-10.4364
▁대통령이	-10.4367
▁걸려	-10.4376
하라	-10.4377
▁정도만	-10.4385
▁끝났	-10.4387
▁따지	-10.4391
▁알아보고	-10.4395
▁물어보고	-10.4395
▁감기	-10.4396
어도	-10.4398
▁요렇게	-10.4401
▁콤플렉스	-10.4401
▁활발하	-10.4402
▁오니까	-10.4402
▁부족	-10.4404
▁소통	-10.4409
▁들어온	-10.4411
▁영화에서	-10.4411
▁지짜	-10.4412
▁야간	-10.4413
▁홀	-10.4414
▁카드	-10.4414
▁지켜	-10.4415
누	-10.4418
▁도망	-10.4419
▁이랬는데	-10.442
▁낼	-10.4423
▁누워	-10.4427
▁비슷하게	-10.4428
▁국가에서	-10.4428
값이	-10.443
▁처리	-10.4431
내는	-10.4432
접	-10.4434
으러	-10.4434
▁앉	-10.4436
▁부족한	-10.4436
▁드시	-10.444
▁그랬었는데	-10.4442
▁겸	-10.4446
▁내일	-10.4447
▁뼈	-10.4448
▁반려동물이	-10.4456
▁여기는	-10.4457
▁선물해	-10.4457
▁버스	-10.4459
▁들더라고요	-10.447
▁힘들다	-10.4475
측	-10.4476
▁깊은	-10.4477
깜	-10.4477
▁팝콘	-10.4477
▁토요일	-10.4477
▁오르	-10.4477
▁마인드	-10.4478
▁작업	-10.448
래요	-10.448
▁몰라도	-10.4481
▁의료	-10.4481
▁발견	-10.4482
▁달리	-10.4484
관이	-10.4484
▁연세	-10.4488
▁전주	-10.4488
▁말씀하시	-10.4489
시면서	-10.449
▁에이형이	-10.4497
났는데	-10.4498
▁됐다	-10.4499
▁들어왔	-10.4506
▁입학	-10.4508
▁비형	-10.4508
▁잠시	-10.451
▁근처	-10.4513
▁다녀오	-10.4514
▁되지만	-10.4517
한다면	-10.4523
▁편이라	-10.4524
▁현재는	-10.4526
두세	-10.4541
▁살아가	-10.4544
▁싸게	-10.4552
튀	-10.4553
▁고령화	-10.4553
▁당황	-10.4555
▁남들이	-10.4555
▁나보다	-10.4557
▁추위	-10.4558
▁특정	-10.456
▁가르	-10.4561
▁생겨	-10.4562
▁꿈에	-10.4563
프라	-10.4568
▁바라보	-10.4569
▁맞게	-10.4575
▁나네요	-10.4576
▁들어보	-10.459
▁받았는데	-10.4591
▁입는	-10.4602
▁초반	-10.4615
▁아직까지도	-10.4618
▁덥고	-10.462
킨	-10.4622
▁만화	-10.4624
▁떠오르는	-10.4625
▁햄버거	-10.463
▁문재인	-10.463
▁옆	-10.4631
▁바퀴	-10.4631
▁최악	-10.4632
▁축	-10.4633
▁보조제	-10.4641
▁상품	-10.4642
▁눈물	-10.4644
▁취향	-10.4651
▁찬	-10.4657
▁그러나	-10.4665
충	-10.4665
▁오천	-10.4668
▁괜찮다	-10.4677
게끔	-10.4683
이죠	-10.4684
▁담아	-10.4685
▁돌리	-10.4688
▁하러	-10.4691
▁일본은	-10.4698
▁정성	-10.4698
▁많았어	-10.4699
▁모르는데	-10.4706
핀	-10.4708
▁생각하십니까	-10.4709
▁티비에	-10.4711
▁회계	-10.4715
▁찬성	-10.4716
▁과외	-10.4716
▁무엇보다	-10.472
▁사람들과	-10.4724
▁많았고	-10.4726
▁마음대로	-10.4728
▁상처	-10.4734
▁삼천	-10.4736
▁가요	-10.474
▁왔어요	-10.4741
▁현장	-10.4746
▁코로나로	-10.4748
하여	-10.4749
▁강한	-10.4754
▁그렇게까지	-10.4758
험	-10.4765
려가지고	-10.4768
▁받아야	-10.4769
끌	-10.477
척	-10.4779
주면	-10.4781
▁사건이	-10.4782
찰	-10.4783
릇	-10.4785
켓	-10.4785
▁끊어	-10.4786
릿	-10.4786
컵	-10.4786
▁테니스	-10.4786
▁피아노	-10.4786
거등요	-10.4786
▁아쉬웠	-10.4786
▁이루어지	-10.4786
▁자유롭	-10.4787
▁이래가지고	-10.481
▁폭력	-10.481
▁털이	-10.4811
▁단점이	-10.4819
▁타임	-10.4823
▁없어지	-10.4823
▁거라서	-10.4826
▁힘들다고	-10.4839
▁자녀들	-10.4848
▁좋더라고요	-10.4854
▁학생들이	-10.4856
▁맞을	-10.4858
욕	-10.4859
렌	-10.4864
▁갱년기	-10.4865
두고	-10.4865
▁업체	-10.487
▁대면	-10.4882
▁하셨잖아요	-10.4882
▁개념	-10.4883
▁건강이	-10.4887
▁내려오	-10.489
제를	-10.4896
▁없구	-10.4903
▁피곤	-10.4903
▁사랑하는	-10.4906
슈	-10.4908
▁좋아했었	-10.4909
▁감당	-10.491
▁프	-10.4913
▁편이거든요	-10.4913
▁있겠다	-10.4914
▁알기로	-10.4916
▁내에서	-10.4923
▁치는	-10.4934
▁주장	-10.4934
▁주신	-10.4935
▁흐	-10.494
▁셋이	-10.4941
▁가시는	-10.4942
▁동기	-10.4942
▁해리포터	-10.4944
껏	-10.4944
컷	-10.4944
▁다혈질	-10.4944
▁캐나다	-10.4944
▁부탁	-10.4947
▁물놀이	-10.4948
▁신나	-10.4949
▁현지	-10.4949
깐	-10.4951
▁반복	-10.4962
▁되세요	-10.4962
▁동네에	-10.4965
▁싶으신	-10.4966
십니까	-10.4974
▁이성	-10.4977
▁들으면서	-10.4977
▁좋아한다	-10.4978
이었나	-10.4981
▁나쁘	-10.4987
짓	-10.5017
▁낚시	-10.5024
▁봅니다	-10.5024
▁슬프	-10.5027
▁연결	-10.5027
▁휴학	-10.5027
▁아버님	-10.503
▁배경	-10.5038
▁시키고	-10.5045
▁심한	-10.5045
▁것이고	-10.5047
▁옛날부터	-10.5048
▁돌아오	-10.5056
▁과거	-10.5066
▁이혼	-10.5068
동에	-10.507
▁심하게	-10.507
▁바람이	-10.5071
▁재밌을	-10.5084
▁않았어	-10.5093
▁갖게	-10.5094
▁학생이	-10.5095
뿐만이	-10.5101
▁드신	-10.5101
▁해줘	-10.5102
▁얻어	-10.5105
놈	-10.5105
콤	-10.5105
▁기쁨	-10.5105
▁실패	-10.5106
▁제목	-10.5108
▁볶	-10.5112
▁떠오르	-10.5115
▁했었거든	-10.5117
▁평가	-10.5125
▁감사	-10.513
▁세계적으로	-10.5131
▁물어봐	-10.5136
였나	-10.5147
▁동생이랑	-10.5159
▁잘할	-10.516
▁유기	-10.5162
▁버는	-10.517
▁즐기고	-10.5177
▁받았을	-10.5185
▁미역국	-10.5186
▁유산균	-10.5186
▁퍼센트	-10.5186
앤	-10.5186
▁뻐쓰	-10.5186
▁무언가	-10.5186
팀	-10.5187
▁걍	-10.5188
▁사람에게	-10.5188
▁않습니까	-10.5189
▁자기네	-10.5189
▁시도	-10.519
▁선생님들이	-10.5192
▁뇌	-10.5195
▁고거	-10.5208
▁떨어졌	-10.521
▁페이	-10.5211
▁있냐	-10.5215
▁그르케	-10.5216
할까	-10.5216
▁감성	-10.5222
줬는데	-10.5223
▁팬이	-10.5231
▁당연	-10.5235
▁화장	-10.5235
▁결혼할	-10.5235
▁거였는데	-10.5237
▁환경이	-10.5238
▁방식	-10.5244
하자	-10.5249
자들이	-10.525
▁제주도에서	-10.5256
▁제주	-10.5257
달라	-10.5261
풍	-10.5262
▁삐	-10.5263
뽀	-10.5268
▁디즈니	-10.5268
▁슬픈	-10.5268
▁대단한	-10.5269
▁계세요	-10.5271
▁이전에	-10.5273
▁연락이	-10.5275
▁생계	-10.5276
▁말아야	-10.5278
▁있다라고	-10.5278
빈	-10.5283
머니	-10.5291
▁이용해서	-10.5291
▁벌고	-10.531
▁깨끗	-10.5314
▁가봐	-10.5316
▁영화관에	-10.5324
▁북	-10.534
콘	-10.5351
▁정확히	-10.5351
시는데	-10.5353
▁리그	-10.5354
▁성적이	-10.5355
▁초밥	-10.5355
▁체중	-10.5355
▁있게끔	-10.5358
옷	-10.5358
▁대책	-10.5365
▁얘기할	-10.5365
▁오지	-10.5369
▁간단한	-10.5374
▁현실적으로	-10.5375
▁분양	-10.5377
▁받기	-10.5377
었지만	-10.5378
▁달라지	-10.5381
▁케이스	-10.5384
▁영화들이	-10.5387
▁그러구	-10.5388
▁집으로	-10.5388
▁친하게	-10.5395
▁입을	-10.54
▁나오니까	-10.5402
▁쇼	-10.5405
조차	-10.5407
▁가지로	-10.5413
▁힘들지	-10.5414
하잖아요	-10.5416
▁같은데요	-10.542
▁못하겠	-10.5422
패	-10.5424
었는지	-10.5432
▁들으면	-10.5433
▁일본어	-10.5433
멘	-10.5434
▁어트게	-10.5436
▁끌고	-10.5437
▁어려웠	-10.5439
▁자극	-10.5439
▁좋다는	-10.5441
▁생각해보	-10.5444
▁뭐든지	-10.5446
▁소금	-10.5449
▁떨어지는	-10.545
▁신기했	-10.545
▁키우면	-10.5451
▁우울증	-10.5452
장에서	-10.5455
▁일부	-10.546
▁셋	-10.5467
▁반지	-10.5467
내고	-10.5474
▁가치	-10.5488
▁빨	-10.5489
▁위치	-10.5496
▁어쩌다	-10.5503
▁어려움	-10.5505
▁아니어서	-10.551
흥	-10.5518
잎	-10.5518
▁쪼꼼	-10.5518
▁익숙	-10.5519
에다	-10.552
▁인스타	-10.552
▁주인이	-10.5521
▁사회적	-10.5521
▁사다	-10.5523
▁말라고	-10.5523
▁항	-10.5525
습니까	-10.5529
찌	-10.5534
▁되었고	-10.5536
쓸	-10.554
▁했으니까	-10.5543
▁싫다	-10.5545
▁장래	-10.5547
▁극장	-10.5549
▁모병제로	-10.555
▁과거에	-10.5558
▁변하	-10.5562
▁동안에	-10.5562
하던	-10.5563
▁심하	-10.5571
▁맞으면	-10.5572
▁괜찮고	-10.5586
▁장마	-10.5593
▁생각하거든	-10.5598
▁오빠는	-10.5599
▁체력이	-10.56
▁판타지	-10.5603
▁귀여워	-10.5603
▁한동안	-10.5603
▁반면에	-10.5604
끔	-10.5607
▁보낼	-10.5611
▁우유	-10.5611
▁입맛에	-10.562
▁사람들하고	-10.5622
▁대상	-10.5629
▁보드	-10.5633
냐면은	-10.5636
▁전복이	-10.564
럼	-10.5644
증이	-10.5648
▁국어	-10.5648
▁까먹	-10.565
▁버리고	-10.5651
▁동의	-10.5653
더래	-10.566
▁실력	-10.5668
▁건강한	-10.5674
▁살려	-10.5687
▁러시아	-10.5688
롱	-10.5688
▁특이한	-10.5689
▁카톡	-10.5689
▁후반	-10.5695
▁원짜리	-10.5696
▁주셨	-10.5699
냈	-10.5701
▁있겠	-10.5702
▁신고	-10.5705
▁중이	-10.5706
겠다는	-10.5707
▁니네	-10.5712
▁행복하게	-10.5727
여행	-10.5732
셨다고	-10.5732
▁추가	-10.5742
▁탁구	-10.5747
▁사회에	-10.575
▁공기	-10.5755
▁들어오는	-10.5757
▁핸	-10.5762
▁하나만	-10.5765
▁어디로	-10.5767
▁인식이	-10.5767
시간	-10.5768
▁노인분들	-10.5768
▁과자	-10.5774
▁유튜버	-10.5774
▁최저임금	-10.5774
▁김치찌개	-10.5775
▁연극	-10.5777
잔	-10.5777
▁취소	-10.5781
▁두부	-10.5782
▁보거든요	-10.5784
▁과정이	-10.5785
▁가져가	-10.5789
▁신문	-10.5791
▁현대	-10.5792
▁정권	-10.5795
관한	-10.5801
▁원씩	-10.5804
▁나간	-10.5808
▁에프	-10.5808
▁제목이	-10.5808
▁싸우고	-10.5819
▁지역에	-10.5841
▁올라	-10.5845
쭐	-10.5856
▁따라가	-10.5858
납	-10.5861
▁고깃집	-10.5861
▁최저시급	-10.5861
▁사춘기	-10.5861
▁께임	-10.5862
시니까	-10.5872
▁조금씩	-10.5872
▁구입	-10.5876
▁오시	-10.5878
▁자매	-10.588
▁긴장	-10.5884
당이	-10.5885
▁내는	-10.5889
▁그럴까	-10.5893
▁떠나서	-10.5898
▁보장	-10.5911
▁하드라고	-10.5912
▁저보다	-10.5925
▁병이	-10.5926
▁가자고	-10.5934
앙	-10.5944
▁형성	-10.5944
▁있을지	-10.5945
▁영양	-10.5948
▁지하철	-10.5949
▁의외로	-10.5949
▁존중	-10.5949
▁홍삼	-10.595
▁확실하	-10.5952
▁우승	-10.5952
▁종종	-10.5952
▁주고받	-10.5954
▁설레	-10.5955
▁척	-10.5955
▁꿀	-10.5959
▁일에	-10.597
▁문제를	-10.597
▁들었을	-10.5975
들만	-10.5977
▁드네	-10.5978
▁첨	-10.5986
▁있으시면	-10.5989
▁행	-10.5996
▁시까지	-10.6
▁그쪽에서	-10.6001
▁아니기	-10.6003
▁그른	-10.6003
▁많더라고요	-10.6005
▁핫	-10.6011
였다	-10.6019
▁여자들	-10.602
▁문제에	-10.6023
▁겨	-10.6023
빡	-10.6037
▁코미디	-10.6038
롤	-10.6038
픽	-10.6038
▁닭갈비	-10.6038
▁티켓	-10.6038
▁최저	-10.6041
▁매년	-10.6042
▁계셨	-10.6045
▁시골에	-10.6046
▁너한테	-10.6046
해가지구	-10.6046
▁주택	-10.6047
▁누나는	-10.6048
▁방안	-10.6054
▁다행이	-10.6056
▁만나게	-10.6062
인가요	-10.6068
▁자식들	-10.6076
다기보다	-10.6082
▁어렵다	-10.6082
엠	-10.6084
시키는	-10.6086
▁강사	-10.6089
▁얼굴이	-10.609
▁난다	-10.6098
▁남편하고	-10.6099
▁편집	-10.6101
▁생각하면서	-10.6101
▁크다	-10.6119
▁앞서	-10.6119
렀	-10.6124
뒀	-10.6127
▁봉준호	-10.6127
▁즐거운	-10.6127
룬	-10.6127
▁그때그때	-10.6127
▁임대료	-10.6127
▁맛있다고	-10.613
▁주위	-10.613
하거든요	-10.6131
▁예전부터	-10.6142
▁재산	-10.6145
▁종일	-10.6145
▁계획은	-10.615
▁같거든요	-10.615
▁마라	-10.6159
▁엄청난	-10.6159
▁학대	-10.6164
▁둘이서	-10.6164
▁죽었	-10.6166
▁팔아	-10.6183
▁정해져	-10.6185
잖	-10.6188
▁시집	-10.6191
▁평소	-10.6203
▁주위에서	-10.6206
▁매력이	-10.6208
▁단백질	-10.6217
▁손흥민	-10.6217
엉	-10.6217
▁위안부	-10.6217
▁뭐랄까	-10.6217
▁흘러	-10.6217
▁에너지	-10.6217
▁매번	-10.6219
▁시켰	-10.6219
▁떨어진	-10.6222
▁복무	-10.6222
▁바닥	-10.6223
▁올라가서	-10.6224
▁웃긴	-10.6239
▁들어와	-10.624
웃	-10.6241
▁강제	-10.6245
▁대형	-10.6259
▁해보신	-10.626
▁어떻게든	-10.6261
▁시작해서	-10.6262
받고	-10.6266
▁볼려고	-10.627
▁생각하니까	-10.6281
▁돌아가셨	-10.6282
▁음식에	-10.6283
▁좋아하지만	-10.629
▁좋아가지고	-10.6291
▁센터	-10.6294
놓으면	-10.6301
적으루	-10.6307
으실	-10.6308
▁방탄소년단	-10.6308
맹	-10.6308
▁스케이트	-10.6309
▁기다려	-10.6309
▁고쳐	-10.631
▁아깝	-10.6314
▁소고기	-10.6314
▁세우	-10.6314
▁보람	-10.6317
▁무엇이	-10.6318
▁친구들끼리	-10.633
▁같았	-10.6331
▁상처를	-10.6332
▁경력	-10.6334
▁제한	-10.6348
▁어딜	-10.635
▁해봐야	-10.6355
▁싶어가지고	-10.6355
▁연애는	-10.6357
뻐	-10.6358
▁그랬어	-10.6359
▁사계절	-10.6363
▁어르신들	-10.6365
▁스타	-10.6365
확	-10.6366
▁노력하는	-10.6367
▁읽어	-10.637
▁곳으로	-10.6373
▁우리한테	-10.6373
▁힘드	-10.6379
뿐이	-10.6387
▁어머님이	-10.6394
▁즐거움	-10.64
뚝	-10.64
옹	-10.64
촉	-10.64
▁아쉬워	-10.64
▁희생	-10.64
▁줄어들	-10.64
▁당뇨	-10.64
▁꿈꾸	-10.6403
담에	-10.6404
▁근로	-10.6405
▁어른	-10.6409
▁애교	-10.6413
집에	-10.6415
▁계단	-10.6416
▁들어가지고	-10.642
▁갈등	-10.6421
▁다가오	-10.6428
▁한강	-10.6429
억	-10.6435
▁아유	-10.6445
▁병원에서	-10.6449
▁쥐	-10.645
▁예정	-10.6452
▁강화	-10.6453
▁길이	-10.6461
▁년대	-10.6466
▁태어나	-10.6466
▁가깝	-10.6474
▁과정에서	-10.6479
▁여기에	-10.6487
으니	-10.6487
▁배우들이	-10.649
▁남성	-10.649
▁입시	-10.6491
긍	-10.6492
▁긍정적인	-10.6492
쑥	-10.6492
▁퇴직	-10.6492
▁주시고	-10.6493
▁결론	-10.6494
▁평창	-10.6495
▁움직이는	-10.6497
▁허위	-10.6498
▁미래에	-10.6499
▁카레	-10.6499
▁출산	-10.6499
▁장애	-10.6503
한텐	-10.6506
▁귀엽고	-10.6508
▁현상	-10.6515
상으로	-10.6517
▁선물이라고	-10.6518
▁욕심	-10.652
▁신선	-10.6522
▁사이트	-10.6525
▁자제	-10.6533
스럽고	-10.6541
▁풀리	-10.6543
▁넘어지	-10.6552
▁인원	-10.6557
▁기르	-10.656
▁물이	-10.6562
것	-10.6566
엄	-10.657
랐	-10.6575
슨	-10.6581
▁거다	-10.6582
펜	-10.6586
▁긍정적으로	-10.6586
▁친절	-10.6586
잉	-10.6586
찐	-10.6586
▁낳았	-10.6586
▁볶음밥	-10.6586
▁우연히	-10.6586
▁결혼한	-10.6588
▁않구	-10.6589
▁물어보면	-10.6592
▁추석	-10.6593
▁순위	-10.6593
랜드	-10.6595
▁묵	-10.6597
▁양파	-10.6599
▁아니잖아	-10.6599
▁형식	-10.6601
▁아들을	-10.6607
▁연관	-10.6619
▁그르	-10.6621
▁영화제	-10.6621
▁인구	-10.6626
▁사람인데	-10.663
▁끼고	-10.6633
▁사용하	-10.6635
▁남아요	-10.6636
▁손님들이	-10.6638
늘	-10.6639
소리	-10.665
▁열어	-10.6659
곱	-10.6664
▁항공	-10.6664
▁어디가	-10.6665
플레이	-10.6666
쟁	-10.6672
▁사람에	-10.6676
묘	-10.6679
몽	-10.668
▁가볍게	-10.668
▁송강호	-10.668
럭	-10.668
▁쪼끄만	-10.668
▁태풍	-10.6681
스럽게	-10.6681
▁새롭	-10.6682
▁또래	-10.6692
▁꺼내	-10.6696
▁사례	-10.67
두루	-10.6701
▁대체	-10.6701
▁무서워서	-10.672
▁좋으니까	-10.672
▁이분	-10.6722
▁그전에는	-10.6725
▁그만두	-10.6725
▁가리	-10.6728
▁아니잖아요	-10.673
▁시내	-10.6733
▁단지	-10.6736
▁뻔	-10.6747
▁시골에서	-10.6759
▁그것만	-10.6766
▁돌아가시	-10.6771
탐	-10.6775
▁닮았	-10.6775
띠	-10.6775
빗	-10.6775
톤	-10.6775
▁태권도	-10.6775
▁어려울	-10.6775
▁께속	-10.6775
▁일요일	-10.6776
▁바빠	-10.6779
▁할지	-10.6784
▁비용이	-10.6786
▁빌려	-10.6788
▁새우	-10.679
▁다양하	-10.6795
▁날씨에	-10.6809
▁가격에	-10.6811
▁줬는데	-10.6813
▁했다가	-10.6815
▁표정	-10.6817
▁빠졌	-10.683
일까	-10.6835
▁싸워	-10.6837
▁들더라구요	-10.684
▁시설이	-10.6852
▁좋겠다고	-10.6856
▁좋아지고	-10.6865
시키고	-10.6865
▁물에	-10.6867
▁오에스티	-10.6871
▁부러워	-10.6871
▁왔던	-10.6873
▁오픈	-10.6874
▁궁금하네요	-10.6875
▁적극적으로	-10.6876
▁많으신	-10.6879
▁은근	-10.6882
▁최선	-10.6883
▁많구	-10.6884
▁보내는	-10.6887
▁되구	-10.689
생이	-10.6896
▁놀아	-10.69
▁좋아하신다	-10.6903
▁자세히	-10.6909
▁들지	-10.6912
▁들으니까	-10.6915
▁남기	-10.6923
▁주방	-10.6925
▁노인들이	-10.6926
▁애들하고	-10.6927
▁면제	-10.6929
▁그만두고	-10.693
▁해보니까	-10.693
▁있었지만	-10.6937
▁있었기	-10.6944
▁떼	-10.6944
탁	-10.696
몰	-10.6963
▁유명	-10.6967
▁나이대	-10.6967
▁뽑아	-10.6968
▁설거지	-10.6969
▁깔끔하	-10.6969
▁억지로	-10.6969
▁다치	-10.6969
▁목욕	-10.697
▁놀랐	-10.697
▁해놓고	-10.697
▁파악	-10.6972
▁체크	-10.6974
▁등급	-10.6977
▁요양	-10.6986
▁다르다	-10.6987
▁운동하는	-10.6988
▁시대가	-10.6988
▁임대인	-10.6989
▁해봤어요	-10.6991
▁소소	-10.6993
▁화려	-10.6996
▁시민	-10.6998
▁올리는	-10.7
▁실력이	-10.701
▁부모님들	-10.7015
▁오게	-10.7016
학교	-10.702
▁보시는	-10.7021
▁땀이	-10.7021
해보고	-10.7023
▁삼만	-10.7028
▁살다가	-10.7033
았는데	-10.7034
▁문제점	-10.7038
▁준비하는	-10.7047
▁힘든데	-10.7059
▁올라가는	-10.7061
▁자동차	-10.7067
▁가운데	-10.7067
▁비대면	-10.7067
▁어린이집	-10.7067
▁팔월	-10.7067
▁본다	-10.7072
▁공항	-10.7073
▁실천	-10.7078
졌다	-10.708
▁지갑	-10.7081
▁들어보니까	-10.7081
▁손이	-10.7083
▁열정	-10.7084
▁봤거든	-10.7085
▁오후	-10.7088
▁기타	-10.7088
▁방향으로	-10.7089
▁시스템	-10.7091
운동	-10.7092
▁보내주	-10.7093
▁쪄	-10.7095
▁모르니까	-10.7095
▁전달	-10.7099
▁보았	-10.71
▁봤다	-10.7106
▁들었거든요	-10.7111
▁권리	-10.7112
으셔	-10.7115
▁연예인들이	-10.7117
▁마당	-10.7122
▁착하	-10.7122
▁날은	-10.7127
▁어렵고	-10.7128
▁필요할	-10.7135
▁휘	-10.7135
▁하시나요	-10.7139
▁가사	-10.7141
됐다	-10.7143
▁벽	-10.7147
쪽으로	-10.7151
▁도로	-10.7151
▁모으	-10.7157
춰	-10.7163
홈	-10.7165
덩	-10.7165
▁앵무새	-10.7166
▁튀김	-10.7166
▁곱창	-10.7166
▁목걸이	-10.7166
▁팁	-10.7166
▁남동생	-10.7167
▁자랐	-10.717
▁한다거나	-10.7171
▁영업	-10.7171
센	-10.7179
폭	-10.7179
▁해가주구	-10.7179
▁온천	-10.7182
▁달달	-10.7182
▁반에	-10.7194
▁야구장	-10.7195
▁먹방	-10.7196
▁감독님	-10.7198
▁놀래	-10.7203
▁번째는	-10.7204
▁하시면서	-10.7214
▁들리	-10.7218
▁든다	-10.7226
시다	-10.7226
▁연상	-10.7227
왔던	-10.7228
▁성인	-10.7238
▁취향이	-10.724
▁얘기한	-10.7241
▁회사에	-10.7248
귀	-10.7264
▁궁금한	-10.7264
▁쌓아	-10.7264
▁매니저	-10.7266
뜬	-10.7266
▁존경	-10.7266
▁시키는	-10.7266
▁해외에	-10.7274
▁봐주	-10.7276
▁필수	-10.7278
▁아빠한테	-10.728
▁볼링	-10.728
▁이유로	-10.7282
▁시각	-10.7282
▁관해서	-10.7291
▁이거에	-10.7298
했습니다	-10.7301
▁재수	-10.7303
▁일식	-10.7307
▁나지	-10.7317
▁콩	-10.7317
▁끝내	-10.7319
▁하겠지만	-10.7324
▁시작한	-10.7324
▁어플	-10.7325
▁농사	-10.7326
▁센	-10.7327
▁친척	-10.7328
▁어디에	-10.7328
▁없어졌	-10.7331
▁제공	-10.7331
▁깊이	-10.7331
▁예상	-10.7331
▁나가야	-10.7332
▁의해서	-10.7333
▁것두	-10.7346
▁저렴하	-10.735
덤	-10.7367
▁어땠어	-10.7367
긋	-10.7367
▁앨범	-10.7367
▁유산소	-10.7367
▁유재석	-10.7367
쿨	-10.7367
▁알러지	-10.7367
▁종교	-10.737
▁오빠랑	-10.7371
▁동갑	-10.7371
▁동창	-10.7373
▁실습	-10.7374
▁고향	-10.7375
▁급여	-10.7375
▁전체적으로	-10.7377
▁거북이	-10.7382
굴	-10.7385
▁이후	-10.739
▁순수	-10.7396
▁엇	-10.7401
▁선호하	-10.7405
▁물질	-10.7416
웨이	-10.7418
▁멍	-10.7423
갖구	-10.7425
▁저만	-10.7427
▁못하니까	-10.7429
▁가족들하고	-10.7447
▁사무	-10.7449
▁수업이	-10.7464
▁못했는데	-10.7465
좌	-10.7468
죄	-10.7469
폰	-10.7469
훌	-10.7469
▁유투버	-10.7469
▁즐거웠	-10.7469
캔	-10.7469
▁있습니까	-10.7475
▁차려	-10.7476
▁줄이	-10.7476
▁남한테	-10.7477
▁산업	-10.7478
▁배우님	-10.7479
센타	-10.7485
▁계절은	-10.7489
▁경기도	-10.7492
▁부산에서	-10.7495
▁들더라고	-10.7497
▁행복하	-10.7497
▁생신	-10.7499
▁자신감	-10.7507
▁들어주	-10.7512
▁모기	-10.7513
▁들긴	-10.7516
▁더워	-10.7521
▁남자친구랑	-10.7521
▁선생님한테	-10.7535
▁사회적으로	-10.7535
▁악기	-10.7535
▁만들기	-10.7541
▁상관이	-10.7542
▁케익이	-10.7547
▁넘어서	-10.7548
▁잘해야	-10.7562
▁들기	-10.7564
▁찍었	-10.7566
스러워	-10.7571
▁정규직	-10.7572
푼	-10.7572
▁말티즈	-10.7572
▁대기업	-10.7572
▁교환	-10.7574
▁끝난	-10.7575
▁동생들	-10.7579
▁남녀	-10.7584
▁모여	-10.7587
▁오기	-10.759
▁싸우는	-10.7591
▁중반	-10.7592
▁그러더라고	-10.7595
▁때랑	-10.7597
▁이삼	-10.7601
▁책임감	-10.7604
▁우린	-10.7604
킬	-10.7608
▁보시면	-10.761
▁인물	-10.7611
▁싶구	-10.7617
▁근육이	-10.7617
▁드니까	-10.7621
▁세상이	-10.7631
▁키우지	-10.7631
▁할려면	-10.7633
▁경치	-10.7638
었었는데	-10.764
▁이백	-10.7658
▁어쩌면	-10.766
▁했는지	-10.7661
겠냐	-10.7671
▁짝은	-10.7672
셨고	-10.7674
신다고	-10.7675
샵	-10.7676
▁휴대폰	-10.7676
혔	-10.7676
▁적당히	-10.7676
▁답답하	-10.7676
▁사소한	-10.7676
▁밖으로	-10.7677
▁출발	-10.768
▁데로	-10.7683
▁야외	-10.7683
▁채소	-10.7684
▁추세	-10.7685
▁함부	-10.7686
▁만들어주	-10.7695
▁더욱	-10.7697
▁따르	-10.7701
▁삼백	-10.7706
▁쌓이	-10.7706
▁남는데	-10.7707
쉬	-10.7709
▁싫어하고	-10.771
▁먹다가	-10.7711
리아	-10.7711
▁편이어서	-10.7712
▁하던데	-10.7714
▁내리는	-10.7715
▁시작했는데	-10.7723
▁좋아했었는데	-10.7723
▁통해	-10.7725
병원	-10.7727
▁가치관	-10.7736
▁나쁘다	-10.7739
▁좋아졌	-10.7742
스터	-10.7745
▁지인들	-10.775
▁욕심이	-10.7754
▁편이긴	-10.7756
▁간장	-10.7756
▁있드라고	-10.7768
▁입맛이	-10.7769
▁뒤에서	-10.7772
▁아래	-10.7774
▁간다면	-10.7775
해갖고	-10.7776
즘	-10.7778
하려고	-10.778
깃	-10.7781
▁아쉬움	-10.7781
▁여쭤봐	-10.7781
▁토마토	-10.7781
▁길고양이	-10.7781
▁무한도전	-10.7781
▁택배	-10.7781
▁중요시	-10.7781
▁신기한	-10.7782
▁종합	-10.7785
▁연말	-10.7787
▁편안하게	-10.7787
▁방에	-10.7789
시장	-10.7789
▁소득	-10.779
▁중국어	-10.779
▁외국에서	-10.7802
▁어려서	-10.7808
밖	-10.7813
▁죽는	-10.7818
▁입어	-10.7819
▁주는데	-10.7819
▁안내	-10.7819
쌀	-10.7829
▁물리	-10.7831
▁느낌으로	-10.7833
▁같거든	-10.7844
▁해주면	-10.7847
▁아내	-10.7857
▁알바생	-10.7861
▁티비로	-10.7862
▁갔으면	-10.7862
▁기다리고	-10.7864
▁남자애들	-10.7868
▁여자애	-10.7873
▁있대	-10.7875
▁언니야	-10.7884
쌍	-10.7887
▁매일매일	-10.7887
▁아름다운	-10.7887
릭	-10.7887
▁말씀드린	-10.7887
▁선진국	-10.7887
▁김정은	-10.7888
▁범위	-10.7888
▁그렇구	-10.7888
▁측면	-10.7889
▁테스트	-10.789
▁외롭	-10.7891
▁딸기	-10.7892
▁저와	-10.7893
▁일어났	-10.7894
▁특례	-10.7897
겠는데	-10.7901
▁것으로	-10.7906
▁프리	-10.7907
▁일구	-10.7909
▁올린	-10.791
▁자리에서	-10.7918
▁인상이	-10.7919
▁팀이	-10.7924
▁좋으면	-10.7932
▁없거든요	-10.7932
▁오랜만	-10.7932
효	-10.7935
폐	-10.7936
닭	-10.7936
▁하냐	-10.7936
▁알겠	-10.7936
주셨	-10.7937
저런	-10.7943
껴	-10.7964
▁위험하	-10.7967
▁친구와	-10.797
▁인성	-10.797
랜	-10.7975
▁쓰지	-10.7976
▁없나	-10.7977
▁드시고	-10.7981
▁팬들	-10.7983
▁속으로	-10.7987
▁나왔을	-10.799
펴	-10.7995
잇	-10.7995
탑	-10.7995
▁정확한	-10.7995
▁도대체	-10.7995
▁바램	-10.7997
▁어떠세요	-10.7997
▁아시는	-10.7999
▁없으세요	-10.8004
▁싸이	-10.8005
▁자료	-10.8007
▁기구	-10.8011
▁아이유	-10.8011
▁데꼬	-10.8012
▁담당	-10.8013
▁것들에	-10.8014
▁이때까지	-10.8016
협	-10.8019
▁어울리	-10.802
▁정도까지	-10.8034
▁이후로는	-10.8034
▁가수들	-10.8037
▁경제적	-10.8038
웠던	-10.8042
▁베이	-10.8045
▁모습들	-10.8048
었구요	-10.8049
스타	-10.805
▁웃고	-10.8052
대학교	-10.8056
▁좋기	-10.8059
▁보여주는	-10.8064
▁싶었어요	-10.8072
▁노인분들이	-10.8072
▁로망이	-10.8073
▁이루고	-10.8079
셔가지구	-10.808
▁직원들	-10.8082
▁점에서	-10.8084
▁년도에	-10.8085
▁아니었는데	-10.81
웅	-10.8103
숲	-10.8104
▁아름답	-10.8104
▁펜션	-10.8104
▁느껴지는	-10.8109
▁공격	-10.8114
▁삼월	-10.8116
▁체질	-10.8119
▁손해	-10.812
▁소속	-10.812
▁들거든요	-10.812
▁빠진	-10.8127
▁명씩	-10.8128
▁일반적인	-10.8142
▁쏘	-10.815
▁크림	-10.8154
▁마지막으로	-10.8154
▁주니까	-10.8155
버리고	-10.816
▁특이하	-10.8169
▁속이	-10.817
▁좋았다	-10.8173
▁얘기하면	-10.8174
▁반려	-10.8175
핑	-10.8191
흘	-10.8203
뉴	-10.8213
▁가셨	-10.8213
곰	-10.8214
헌	-10.8214
▁샐러드	-10.8214
▁어버이날	-10.8214
략	-10.8214
컬	-10.8214
▁딸내미	-10.8214
▁천천히	-10.8214
▁먹었을	-10.8214
▁와이프	-10.8214
▁시대에	-10.8215
▁아닐	-10.8215
▁빠른	-10.8216
▁소중하	-10.8219
▁싶으세요	-10.8222
▁기능	-10.8223
▁되겠구나	-10.8229
▁포기하	-10.8232
▁남매	-10.8234
▁중요하지만	-10.8247
▁군사	-10.8248
▁시급이	-10.8248
▁혜택을	-10.8255
▁요리사	-10.8257
▁해보는	-10.8257
▁사다가	-10.8263
해주세요	-10.8264
▁바뀌는	-10.8268
으니깐	-10.8269
▁남편한테	-10.827
▁청년	-10.8273
▁수익	-10.8276
▁나오잖아요	-10.8278
▁자기들	-10.8278
▁혜택	-10.8283
▁직접적으로	-10.8287
▁힘들어요	-10.8287
낭	-10.8296
▁이러는데	-10.8299
으믄	-10.8301
▁다니기	-10.8308
렸던	-10.8318
▁올렸	-10.832
칙	-10.8325
칭	-10.8325
▁고슴도치	-10.8325
▁냉장고	-10.8325
쭈	-10.8325
▁구체적으로	-10.8325
▁네이버	-10.8325
▁심각하	-10.8326
▁임금	-10.8329
▁땡	-10.8331
▁사라지	-10.8335
▁발달	-10.8336
▁도착	-10.8336
▁최소한	-10.8337
▁들어보면	-10.834
▁적게	-10.8343
▁언니한테	-10.8345
▁완벽	-10.8345
▁됐었	-10.8348
쩌	-10.835
▁사람하고	-10.8351
▁빠지고	-10.8353
▁좋더라고	-10.8354
▁하락	-10.8359
▁일월	-10.8361
▁자본	-10.8367
률	-10.8368
나가는	-10.8369
▁손으로	-10.8373
▁가격대	-10.8377
닌	-10.8378
었으니까	-10.8387
▁잘생겼	-10.8391
눈	-10.8398
▁주면서	-10.84
했거든	-10.8407
▁오형이	-10.8413
▁화면	-10.842
▁미국에서	-10.8422
▁모르겠다	-10.8425
▁계시는데	-10.8425
만에	-10.8427
▁마치	-10.8432
▁남자들이	-10.8433
▁맛있다	-10.8437
▁삼계탕	-10.8437
▁엑스	-10.8437
▁직거래	-10.8437
갓	-10.8437
떴	-10.8437
뜩	-10.8437
▁섭취	-10.8437
▁칭찬	-10.8437
▁벗어나	-10.8437
▁셰프	-10.8437
▁가까워	-10.8437
▁빨간	-10.844
▁도시락	-10.844
▁좋아진	-10.8441
▁편인가요	-10.8442
▁이뤄	-10.8445
리스트	-10.8445
▁연어	-10.8447
하곤	-10.8447
▁소설	-10.8449
▁학교생활	-10.8451
▁차별	-10.8453
▁없애	-10.8456
드시	-10.8457
▁아니어	-10.8465
▁외부	-10.8466
▁임대	-10.8469
▁입원	-10.8476
▁즐겨보	-10.8476
▁돼지	-10.8479
▁외국에	-10.8483
▁하시는지	-10.8486
▁즉	-10.8492
▁춘천	-10.8497
▁배워서	-10.8509
▁기사에서	-10.8515
▁나오기	-10.8516
▁호텔에서	-10.852
▁없거든	-10.8521
홀	-10.8532
▁부모님께	-10.8534
놔	-10.8539
▁특례를	-10.8542
▁있었지	-10.8543
▁의견이	-10.8546
▁칠월	-10.8548
▁남동생이	-10.8549
톡	-10.855
▁씨지브이	-10.8551
▁태어난	-10.8551
▁꼽자면	-10.8552
▁흔들	-10.8552
▁창업	-10.8553
▁이외에	-10.8553
▁겁니다	-10.8553
▁닭발	-10.8554
▁등교	-10.8558
▁연출	-10.8559
▁사회에서	-10.8565
▁정해진	-10.857
▁요리하는	-10.8576
▁테니까	-10.8577
되면	-10.8577
▁뿌듯	-10.8588
▁생활하는	-10.8588
드렸	-10.8594
▁오른	-10.8597
▁무지	-10.8597
▁무엇인가	-10.8602
하더라고요	-10.8604
렸는데	-10.8605
▁난민이	-10.8609
▁부정	-10.8613
▁키워야	-10.8615
▁주일	-10.8615
▁육아	-10.8615
▁영화로	-10.8618
▁부족하	-10.8621
▁좋아했고	-10.8623
▁쎈	-10.8625
맞	-10.8631
▁되어있	-10.8632
▁그쪽은	-10.8636
▁사주고	-10.8639
꽃	-10.8648
▁챙기고	-10.865
▁족발	-10.8662
텔	-10.8664
▁알레르기	-10.8666
▁월드컵	-10.8666
▁초콜릿	-10.8666
▁거짓말	-10.8666
▁헤어졌	-10.8666
▁적성에	-10.8666
▁잔소리	-10.8667
▁일상생활	-10.8667
▁외향적인	-10.8667
▁뿌리	-10.8669
▁국밥	-10.8669
▁보일	-10.867
▁추천해주고	-10.8674
▁기준이	-10.8675
▁생각하니	-10.8676
▁고통	-10.8678
▁사실상	-10.8681
▁상태로	-10.8682
버리면	-10.8683
▁사는데	-10.8689
▁생각하기에는	-10.8693
▁성격인	-10.8704
▁남자애	-10.8706
▁그렇습니다	-10.8714
▁들었었	-10.8722
▁만드	-10.8723
▁삼사	-10.8723
▁걱정되	-10.8724
▁받아가지고	-10.8726
▁빠지는	-10.8727
▁따뜻	-10.873
▁했나	-10.873
▁돌아다니는	-10.874
▁왔었	-10.8747
▁맞나	-10.8747
김	-10.8751
▁계셔	-10.8754
▁온다	-10.8758
▁만지	-10.8758
▁가리는	-10.876
▁해소	-10.8762
▁좋습니다	-10.8768
▁결혼하기	-10.8769
즐	-10.8781
샤	-10.8782
틴	-10.8782
▁쏟아	-10.8782
▁슈퍼	-10.8782
▁차원에서	-10.8782
▁유아인	-10.8782
▁시원하	-10.8785
▁관절	-10.8786
▁재능	-10.8786
▁당근	-10.8786
▁마침	-10.8791
▁키워본	-10.8791
▁솔직	-10.8791
▁습하	-10.8792
▁오는데	-10.8793
▁알다시피	-10.8794
치기	-10.8796
▁하다보니까	-10.88
▁나빠	-10.8812
▁주식	-10.8814
▁기존에	-10.8822
▁음식들이	-10.8822
▁개정	-10.8832
보긴	-10.8834
용품	-10.8835
▁사야	-10.8835
▁가라	-10.8843
▁전라도	-10.8852
▁폴	-10.8858
▁더워서	-10.8861
▁비해	-10.8868
▁아니구나	-10.887
▁다니면	-10.887
▁다닌	-10.888
▁기관	-10.8882
▁연인	-10.8883
▁매점	-10.8896
여섯	-10.8897
▁이색	-10.8899
벤	-10.89
힐	-10.89
▁고렇게	-10.89
▁높아지	-10.89
▁하루종일	-10.89
깡	-10.89
돋	-10.89
▁규칙	-10.89
▁애초에	-10.89
▁태어났	-10.89
▁계열	-10.8901
▁올랐	-10.8902
▁타서	-10.8903
▁관련돼서	-10.8904
▁팔고	-10.8906
▁시누	-10.8907
▁조용하	-10.8908
▁지끔	-10.8909
▁먹었어	-10.8913
▁받는다	-10.8915
▁보낸	-10.8915
▁전환	-10.8917
▁보여서	-10.8918
▁고모	-10.892
▁사시는	-10.8923
▁드라마나	-10.8925
▁나오지	-10.8925
▁고용	-10.8927
▁말씀하셨는데	-10.8928
▁이르	-10.8929
▁지지	-10.8931
▁영향이	-10.8935
▁로망	-10.8938
▁사계절이	-10.8947
었나	-10.8963
바른	-10.8967
▁위에서	-10.8967
▁진정	-10.8993
▁교수님들	-10.8995
▁스위스	-10.9019
▁여태까지	-10.9019
▁몸무게	-10.9019
▁일어날	-10.9019
▁막연하게	-10.9019
▁돼지고기	-10.902
욱	-10.9021
▁적극	-10.9022
▁마늘	-10.9024
▁다니다가	-10.9027
▁채우	-10.9029
▁음료수	-10.903
▁어쩌	-10.9031
▁모시고	-10.9032
▁오월	-10.9036
▁뉴스에	-10.9038
▁따고	-10.904
▁소식	-10.904
▁굽	-10.904
▁에스	-10.9045
▁주구	-10.9047
▁한계	-10.9049
▁있었잖아	-10.9057
▁가족들과	-10.9062
▁됐다고	-10.9062
▁오면서	-10.9062
어주고	-10.9063
▁갔었거든요	-10.9065
▁일어나는	-10.9066
▁법적으로	-10.9067
▁붙어	-10.9067
▁받았어요	-10.9069
큼	-10.907
▁빼고는	-10.9075
▁생각해본	-10.908
▁말하기	-10.9084
▁먹구	-10.9086
▁위주	-10.9088
▁기억으로	-10.9089
줬어요	-10.9095
▁세부	-10.9098
▁끝이	-10.91
▁저번	-10.9104
▁놀면	-10.9104
▁소비자들	-10.9109
다운	-10.9113
▁개념이	-10.9115
끓	-10.9119
▁군대에	-10.9121
허	-10.9133
잠	-10.9133
얼	-10.9134
▁정책이	-10.9137
▁기아	-10.9138
▁된장찌개	-10.9139
▁에이비형	-10.9139
▁엔시티	-10.9139
▁탈북민	-10.9139
팩	-10.9139
▁괴롭	-10.9139
▁혈압	-10.9139
▁도저히	-10.9139
▁이끌어	-10.914
우스	-10.9144
▁쓰리	-10.9148
▁챙기는	-10.9148
▁공통	-10.9153
하신다고	-10.9159
▁원인	-10.916
▁넷플릭스에서	-10.916
▁부작용	-10.9161
으라고	-10.9164
▁갖는	-10.917
▁잡았	-10.9171
▁걸리는	-10.9176
▁매달	-10.9177
혀서	-10.9178
▁나가지고	-10.9178
▁대학원	-10.9179
▁수출	-10.9185
▁바르	-10.9186
▁저처럼	-10.9188
▁해봤고	-10.9192
▁다가가	-10.9196
▁애정	-10.9202
▁가보신	-10.9204
▁생각하게	-10.9205
▁키워봤	-10.9215
▁간단	-10.9221
▁교수	-10.923
▁어울리는	-10.9237
다른	-10.9238
▁유명해	-10.9238
하시더라고요	-10.9241
줘요	-10.9243
▁주부	-10.9246
▁그랬잖아	-10.9253
▁없어진	-10.9255
▁금액이	-10.9255
엽	-10.926
▁지나서	-10.9261
벼	-10.9261
▁어벤져스	-10.9261
셀	-10.9261
틱	-10.9261
▁돈까스	-10.9261
▁적당한	-10.9261
▁긍까	-10.9261
▁전단지	-10.9262
▁하얀	-10.9262
섬	-10.9263
흔	-10.9263
▁인해	-10.9266
▁국회	-10.9268
▁부정적인	-10.9269
▁일박	-10.927
▁않냐	-10.927
학년	-10.9271
▁잘해주	-10.9271
▁싸운	-10.9272
▁봤더니	-10.9274
▁남겨	-10.928
▁소위	-10.9281
▁요구	-10.9284
▁물려	-10.9285
볶음	-10.9285
나무	-10.929
▁나쁘게	-10.9291
▁듣다	-10.9294
▁주사	-10.9297
였거든	-10.93
▁아웃	-10.9302
▁오백	-10.9309
▁전국	-10.9328
▁살았는데	-10.9333
랬	-10.9336
▁주연	-10.9345
▁가능하	-10.9348
▁남자들	-10.9358
▁아이스	-10.9374
▁국민들이	-10.938
▁재작년	-10.9384
▁첫사랑	-10.9384
흉	-10.9384
▁김연아	-10.9384
▁아무래두	-10.9385
▁놀이공원	-10.9385
▁해운대	-10.9385
▁탈출	-10.9388
▁경영	-10.939
▁등등	-10.9393
덜	-10.9393
▁몸매	-10.9395
▁무료	-10.9396
▁잘한다	-10.9399
▁멋있는	-10.9402
▁산타	-10.9402
▁생각하는지	-10.9403
▁생각해보니까	-10.9406
▁못하게	-10.941
▁들여	-10.941
신다면	-10.9426
▁먹어봤는데	-10.9427
▁사오	-10.943
▁운동하고	-10.9434
임에	-10.9434
▁손주	-10.9438
▁제출	-10.9439
▁사이에서	-10.9442
해본	-10.9456
▁물어	-10.9469
▁교수님이	-10.9472
▁느끼게	-10.9474
▁가실	-10.9476
하더라고	-10.9477
▁형제가	-10.948
▁어른이	-10.9482
볼려고	-10.9483
▁에스엔에스에	-10.9489
▁중식	-10.9491
▁하셨던	-10.9491
▁시작하는	-10.9492
▁않더라고	-10.9497
▁뉴스에서	-10.9506
균	-10.9509
댄	-10.9509
똑	-10.9509
▁인스타그램	-10.9509
▁피씨방	-10.9509
혁	-10.9509
▁마무리	-10.951
▁어트케	-10.951
▁시켜주	-10.951
▁무서웠	-10.9511
▁알아야	-10.9513
▁창문	-10.9514
었잖아요	-10.9514
▁사정	-10.9515
▁형태	-10.9515
▁관중	-10.9516
▁사이즈	-10.9517
▁끌어	-10.9517
▁조각	-10.952
▁갔더니	-10.9521
▁꾸미	-10.9522
▁지낼	-10.9522
▁생일날	-10.9527
▁가능한	-10.9531
▁통화	-10.9534
▁얘네	-10.9535
▁치안	-10.9537
▁미루	-10.954
▁이겨	-10.9551
▁올리고	-10.9552
▁바지	-10.9554
▁아쉽게	-10.9563
▁행복해	-10.9569
▁진심	-10.9571
▁생각했어	-10.9583
▁국내에서	-10.9583
▁허리가	-10.9583
▁부담스럽	-10.9588
었죠	-10.9588
▁문과	-10.9589
아주	-10.9604
▁만두	-10.9605
▁공감이	-10.9614
▁고양이들	-10.9617
놨는데	-10.962
▁키우는데	-10.9624
▁나왔다	-10.963
▁그러시	-10.9635
▁에버랜드	-10.9636
▁예체능	-10.9636
▁햇빛	-10.9636
짱	-10.9636
컨	-10.9636
▁레스토랑	-10.9636
▁박스	-10.9636
▁장단점	-10.9636
▁도서관	-10.9636
▁이천십	-10.9638
▁꼴프	-10.9639
▁언론	-10.9639
▁미국에	-10.9642
▁접근	-10.9643
▁조언	-10.9647
완	-10.965
▁편견	-10.965
▁살아가면서	-10.9652
▁구성원	-10.9653
▁인터넷에	-10.9656
센터	-10.9658
논	-10.9659
▁그거랑	-10.966
▁이불	-10.9661
▁정신적으로	-10.9661
▁해변	-10.9668
▁인터넷으로	-10.9681
▁어머	-10.9683
▁보기에	-10.9683
▁더울	-10.9686
▁한번씩	-10.969
▁알았어	-10.969
▁다녔는데	-10.9691
▁되냐	-10.9696
▁유전	-10.9698
▁좋겠지만	-10.9699
▁미치	-10.9701
▁갔거든요	-10.9708
▁운동장	-10.9708
▁대구에	-10.971
▁적에	-10.9718
▁가보면	-10.9728
▁그럼에	-10.9731
▁것인가	-10.9734
▁봐가지고	-10.9735
▁때쯤	-10.9743
▁다니는데	-10.9744
님께서는	-10.9747
▁경기장	-10.9752
▁알기	-10.9754
객	-10.976
▁가구	-10.9762
▁트럼프	-10.9764
▁프랜차이즈	-10.9764
덴	-10.9764
맵	-10.9764
븐	-10.9764
쪘	-10.9764
▁뉴욕	-10.9764
▁쿠키	-10.9764
▁여전히	-10.9764
▁막걸리	-10.9764
▁패션	-10.9765
▁창출	-10.9767
▁청소년	-10.9767
답니다	-10.9768
▁데려가	-10.9769
▁있었나요	-10.9771
▁돌보	-10.9771
▁김밥	-10.9771
▁꼼꼼하	-10.9772
▁살아갈	-10.9772
▁은퇴	-10.9773
▁기록	-10.9775
▁눈물이	-10.9778
▁쓰면	-10.978
▁그르구	-10.978
▁구성	-10.9782
쳐가지고	-10.9785
▁피티	-10.9786
▁제철	-10.9788
▁환자들	-10.9788
▁연하	-10.9789
▁삼성	-10.9791
▁절대로	-10.9799
▁먹자	-10.98
▁여자애들	-10.98
팬	-10.98
▁아껴	-10.9801
▁들어오고	-10.9804
▁자리에	-10.9805
하듯	-10.9813
▁누구한테	-10.9815
▁받으면서	-10.9829
▁죄송	-10.9834
▁눈으로	-10.9841
했잖아	-10.9841
▁해왔	-10.9845
▁됐든	-10.9856
▁지났	-10.9872
▁그러더라고요	-10.9873
드려야	-10.9885
▁성격으로	-10.9887
률이	-10.9889
▁정도밖에	-10.989
랍	-10.9894
앴	-10.9894
▁평범한	-10.9894
▁동영상	-10.9894
▁운동선수	-10.9894
▁손가락	-10.9894
▁장마철	-10.9895
▁설탕	-10.9899
▁시월	-10.9907
▁간호	-10.9907
▁애견	-10.9909
▁걸릴	-10.9909
▁있겠구나	-10.9913
▁많더라고	-10.9915
▁얘네들	-10.9917
잘	-10.993
▁방송에서	-10.9931
▁시기에	-10.9932
교육	-10.9934
활동	-10.9938
▁일이라고	-10.9941
곳	-10.9943
▁받아주	-10.9944
▁들어오면	-10.9951
꼬박	-10.9954
▁십이월	-10.9957
▁울었	-10.9958
▁들어봤	-10.9964
▁돌고	-10.9971
▁즐겨보는	-10.9975
▁커지	-10.9984
▁유리	-10.9984
▁키웠는데	-10.9986
▁오래됐	-10.9987
▁식물	-10.9987
▁아이들하고	-10.9989
▁좋아지는	-10.999
▁야자	-10.9991
했었던	-10.9992
▁장비	-10.9994
▁해외에서	-10.9997
▁시간대	-10.9997
▁한마디	-11.0001
▁소심하	-11.0002
▁강아지랑	-11.0013
▁재밌다고	-11.0014
▁보여주고	-11.0018
흰	-11.0026
룸	-11.0026
▁활성화	-11.0026
▁저렴한	-11.0026
▁트로트	-11.0026
스러웠	-11.0026
▁말씀하셨듯	-11.0029
▁등록	-11.0029
▁추천드리고	-11.0029
▁특유	-11.003
▁정돈	-11.0032
▁맡기	-11.0032
▁학업	-11.0033
▁강남	-11.0037
▁자격	-11.0038
▁편이세요	-11.004
▁울고	-11.004
▁남자들은	-11.0042
▁손자	-11.0043
▁먹거든요	-11.0044
▁불법	-11.0044
▁개씩	-11.006
▁당일	-11.0062
▁자기네들	-11.0064
▁캐리	-11.0073
▁됐습니다	-11.0078
▁하셔	-11.0083
▁형제들	-11.0083
▁왔어	-11.0087
공원	-11.0094
분들한테	-11.0098
▁향이	-11.0106
▁라인	-11.0108
▁좋을까	-11.0108
▁인터넷에서	-11.0122
▁타지	-11.0125
▁부모님이랑	-11.0126
▁몰라요	-11.0126
▁중심	-11.0129
▁망치	-11.014
▁사기	-11.0142
▁얘기했던	-11.0142
겹	-11.0153
▁하더라	-11.0153
▁선선	-11.0157
줌	-11.0159
▁짬뽕	-11.0159
▁덕분에	-11.0159
▁바이러스	-11.0159
붓	-11.0159
턱	-11.0159
▁휴양지	-11.0159
▁잘생긴	-11.0159
▁여유롭	-11.0161
▁각각	-11.0162
▁받아보	-11.0162
▁끝날	-11.0165
▁결말	-11.0175
▁돌아다니면서	-11.0176
▁만나기	-11.0178
▁장난감	-11.018
▁느껴졌	-11.0181
▁여건이	-11.0181
▁있었는지	-11.0183
▁추천해드리	-11.0187
▁결제	-11.0188
▁귀찮아	-11.0188
▁몸으로	-11.0191
▁오해	-11.0195
▁침대	-11.0198
▁경비	-11.02
▁있겠지	-11.0203
▁앉아있	-11.0208
▁싫어해	-11.0212
▁봤습니다	-11.0217
▁아버님이	-11.0217
▁깨끗하	-11.0219
▁해볼까	-11.0225
▁그러잖아	-11.0233
▁필요하다	-11.0238
▁오랜	-11.0247
▁아끼	-11.0248
▁중요하고	-11.0249
▁재미있는	-11.0254
▁편이기	-11.0258
▁그러게	-11.0259
렇	-11.0263
▁외국어	-11.0267
▁없으신	-11.0272
었기	-11.0289
▁무기	-11.0291
흑	-11.0293
숭	-11.0294
▁카메라	-11.0294
▁고구마	-11.0294
▁가성비	-11.0294
▁빙수	-11.0296
▁먹으라고	-11.0298
▁웃음	-11.0299
▁마흔	-11.0299
▁신혼	-11.0299
▁다니다	-11.03
▁소소하게	-11.0303
▁외출	-11.0304
▁금전적	-11.0305
▁힘드니까	-11.0307
▁매체	-11.0308
▁문자	-11.0311
▁조개	-11.0313
▁귀신	-11.0313
▁어려움이	-11.0315
▁먹는다고	-11.0318
▁비판	-11.0323
▁멋있어	-11.0331
▁알았어요	-11.0331
▁많으면	-11.0339
붙	-11.0343
래가주고	-11.0343
▁방식이	-11.0344
▁싶지만	-11.0345
▁하셨어요	-11.0347
▁해보자	-11.0357
▁마트에서	-11.0361
▁붙여	-11.0367
▁살아서	-11.037
▁세우고	-11.0381
▁재밌어서	-11.0387
▁백만	-11.0402
▁위기	-11.0407
▁않거든요	-11.041
▁알리	-11.0417
였기	-11.0423
▁가르쳐	-11.0424
램	-11.0429
▁머릿속에	-11.0431
▁보증금	-11.0431
▁블로그	-11.0431
▁진돗개	-11.0431
▁컴플렉스	-11.0431
▁크루즈	-11.0431
▁테레비	-11.0431
쉴	-11.0431
드릴게요	-11.0431
▁압박	-11.0431
▁삐형	-11.0434
▁싶은데요	-11.0435
▁얼음	-11.0437
▁논란	-11.0439
▁하자면	-11.0441
▁제사	-11.0446
▁괜찮지	-11.045
▁나물	-11.0455
▁신체	-11.0457
▁저렴하게	-11.0457
해졌	-11.0462
▁해결할	-11.0465
▁나온다	-11.0466
▁당연한	-11.0471
린다고	-11.0474
원들	-11.0481
▁위험한	-11.0485
▁중국에서	-11.0489
겠네요	-11.0491
▁고치고	-11.0493
▁생각난	-11.0494
자라는	-11.0495
▁좋아하시는지	-11.0497
▁우리끼리	-11.0503
▁누리	-11.0504
▁싶거든요	-11.0505
사람	-11.0508
관계	-11.0512
▁먹었어요	-11.0522
▁이월	-11.0533
▁시스템이	-11.0535
▁맞는데	-11.0535
▁책임감이	-11.0536
▁가신	-11.0546
▁가려고	-11.0547
▁가리지	-11.0558
▁부대	-11.0561
▁당구	-11.0569
▁나온다고	-11.057
▁겪었	-11.057
▁나눠주	-11.057
▁맥도날드	-11.057
▁잊어버리	-11.057
▁홈쇼핑	-11.057
궈	-11.057
꽉	-11.057
▁박물관	-11.057
▁어떡하지	-11.057
▁흑인	-11.0571
▁처벌	-11.0571
▁눈사람	-11.0572
▁와중에	-11.0573
▁찾아다니	-11.0573
▁딱딱	-11.0574
▁포항	-11.0574
같	-11.0576
▁교실	-11.059
▁줄거리	-11.0597
▁피디	-11.0601
▁가입	-11.0604
하시니까	-11.0604
▁편의점에서	-11.0604
▁일반적으로	-11.0607
해주신	-11.0616
▁큰일	-11.0617
더러	-11.0619
▁크면	-11.0619
▁틀린	-11.0619
▁즐겁고	-11.0628
▁중요하다	-11.0628
▁보이지	-11.0635
▁모르겠네	-11.0635
▁슬기	-11.0646
▁병원비	-11.0654
▁갈까	-11.0661
▁싫다고	-11.0665
▁들려	-11.0667
▁아니었고	-11.0675
▁되거든	-11.0676
▁왔으면	-11.0684
▁대학생이	-11.0685
했기	-11.0688
▁원인가	-11.0692
▁약한	-11.0699
렴	-11.0707
▁스타벅스	-11.0711
▁중간중간	-11.0711
▁오징어	-11.0711
▁콩나물	-11.0711
▁한라산	-11.0712
▁받아들여	-11.0712
으셨어요	-11.0714
▁밀어	-11.0717
▁양말	-11.0719
▁십육	-11.0724
▁비밀	-11.0724
▁어울려	-11.0724
▁서양	-11.0724
▁재밌다	-11.0725
▁하필	-11.0726
▁상영	-11.0728
▁따지면	-11.073
▁저것	-11.0734
▁공공	-11.0737
▁어렵지	-11.0739
▁군대에서	-11.0739
▁만나보	-11.0741
▁평화	-11.0742
▁아이들에게	-11.0744
왔는데	-11.075
▁가야지	-11.0752
▁느껴져	-11.0764
▁수준이	-11.0768
▁살아보	-11.077
▁약물	-11.0772
▁호감	-11.0772
▁주셨는데	-11.0779
▁몰르	-11.0781
▁않더라구요	-11.0785
▁강아지들이	-11.079
이젠	-11.079
▁자영업자	-11.079
▁만났는데	-11.0806
▁해주셨	-11.0816
하세요	-11.0818
였으면	-11.0821
▁선거	-11.0822
▁고맙다	-11.0823
▁동시	-11.0823
▁남아서	-11.0824
▁방법으로	-11.0831
하느라	-11.0851
▁이어지	-11.0852
틈	-11.0854
▁금메달	-11.0854
▁기프티콘	-11.0854
▁되도록이면	-11.0854
▁마카롱	-11.0854
▁신뢰	-11.0854
▁셋째	-11.0855
▁잔잔	-11.0855
▁희망이	-11.0856
▁직종	-11.0857
▁신앙	-11.0858
▁뿌려	-11.0858
▁후배	-11.0859
▁속상하	-11.0862
▁목줄	-11.0862
▁만남	-11.0867
▁되어야	-11.0868
▁간편	-11.0873
▁그러니깐	-11.0874
▁부상	-11.0875
▁나네	-11.0877
▁항공사	-11.088
느라	-11.0884
▁건축	-11.0887
▁먹었었는데	-11.0889
었었	-11.089
았다	-11.0891
적이라고	-11.0894
▁요거	-11.0895
크림	-11.0901
▁쳐다보	-11.0904
▁동네에서	-11.0905
▁아니냐	-11.0908
▁하셨다고	-11.0908
▁몰아	-11.0912
▁뚜렷	-11.0914
▁돼가지구	-11.0919
▁명소	-11.0923
▁됐거든요	-11.0924
겁	-11.0931
▁상관	-11.0932
▁놀아주	-11.0933
▁투어	-11.0935
딸	-11.0938
▁까페에서	-11.0938
▁마치고	-11.0939
▁고집	-11.094
턴	-11.094
풀	-11.0943
▁상황인데	-11.0964
▁일케	-11.0965
▁돌봐	-11.0967
▁몰랐던	-11.0991
드리겠습니다	-11.0992
▁챙겨야	-11.0998
▁비주얼	-11.0999
▁해수욕장	-11.0999
륙	-11.0999
찔	-11.0999
▁두려움	-11.0999
▁에스에프	-11.0999
▁면역력	-11.0999
▁고마워	-11.0999
▁슬퍼	-11.1
▁아가씨	-11.1
▁올라갈	-11.1001
▁특성화	-11.1002
▁사무실	-11.1003
▁연봉	-11.1003
▁요양원	-11.1004
▁토론	-11.1004
▁매출	-11.1007
백오십	-11.1007
▁봤으면	-11.101
▁다음날	-11.1011
▁소녀	-11.1011
▁고치	-11.1013
▁임신	-11.1014
▁맛있더라고	-11.1016
▁특수	-11.1017
▁못했지만	-11.1024
▁쌓여	-11.1026
▁노래방	-11.1027
▁평상시에	-11.104
겠네	-11.1043
▁바깥	-11.1061
▁생물	-11.1067
▁어르신들이	-11.1067
▁짤라	-11.107
▁친하	-11.1072
▁전학	-11.1075
▁보수	-11.108
▁번호	-11.1091
▁이렇다	-11.1091
▁다녀야	-11.1091
▁만들어보	-11.1113
▁스리	-11.1127
▁없어지고	-11.1128
뿌	-11.1137
▁취미로	-11.1137
▁내려와	-11.1137
팡	-11.1146
룡	-11.1146
칸	-11.1146
▁김수현	-11.1146
▁클래스	-11.1146
푹	-11.1146
▁입마개	-11.1146
▁말하자면	-11.1146
▁그만뒀	-11.1146
▁바꿀	-11.1147
▁콜라	-11.1151
▁다녀온	-11.1151
▁특성	-11.1153
▁통영	-11.1154
▁재밌더라고	-11.1155
▁싸울	-11.1156
▁날짜	-11.1157
▁초기	-11.116
▁추구하	-11.116
▁장거리	-11.1162
▁연금	-11.1163
받아서	-11.1164
되기	-11.117
▁형부	-11.1173
▁쓰게	-11.1176
▁다낭	-11.1184
▁못하지만	-11.1186
▁태어나서	-11.1187
▁좋아했어요	-11.1191
▁없어가지구	-11.1195
▁통일	-11.1197
셔야	-11.1203
▁친척들	-11.1206
▁춘천에	-11.1216
▁이십사	-11.122
▁돌아보	-11.1224
▁해외로	-11.1227
▁바깥에	-11.1232
▁있었잖아요	-11.1234
▁동성	-11.1235
▁넘기	-11.1237
▁가가지구	-11.1249
▁걸리면	-11.1249
▁직장인	-11.1252
특	-11.126
▁부리	-11.1261
▁알바하면서	-11.1267
▁만나면서	-11.127
▁보상	-11.1277
겠지마는	-11.1278
▁여자들이	-11.1292
윗	-11.1295
캠	-11.1295
▁넣었	-11.1295
꾼	-11.1295
댕	-11.1295
▁밀가루	-11.1295
▁냉동	-11.1295
▁비슷해	-11.1295
▁댄스	-11.1295
▁갖춰	-11.1296
▁데뷔	-11.1297
▁합격	-11.1298
▁폭행	-11.13
▁힘들지만	-11.1302
▁교류	-11.1305
▁그러다보니까	-11.1306
▁이용하는	-11.1308
▁끓이	-11.1313
분께서	-11.1325
▁구하기	-11.1329
▁자식들이	-11.1332
▁당했	-11.1335
▁건너	-11.1341
▁알아봐	-11.1348
▁찾아봤	-11.1352
▁오신	-11.1352
▁진단	-11.1352
▁많죠	-11.1352
▁들드라구요	-11.1353
▁있네요	-11.1359
▁매주	-11.1364
▁부르고	-11.1376
▁통과	-11.1379
▁지켜보	-11.138
▁이익	-11.1386
▁원장	-11.1397
▁분야에서	-11.1402
검	-11.1411
보험	-11.1422
겨울	-11.1422
▁혼나	-11.1429
▁비형이	-11.1433
▁꼼꼼	-11.1438
델	-11.1444
▁최소	-11.1445
▁런닝맨	-11.1447
▁왓챠	-11.1447
▁인테리어	-11.1447
▁호불호	-11.1447
렬	-11.1447
쁠	-11.1447
젓	-11.1447
핏	-11.1447
▁뷔페	-11.1447
▁댓글	-11.1447
▁발라드	-11.1447
▁낙엽	-11.1447
▁아메리카노	-11.1447
▁숙제	-11.1448
▁몰입	-11.1449
▁모델	-11.1449
▁이루기	-11.1449
▁어머니께서	-11.1452
▁큰딸	-11.1452
▁겨우	-11.1453
▁형편	-11.1453
▁절반	-11.1455
▁대체적으로	-11.1456
▁갑질	-11.1457
▁추천할	-11.1462
▁휴식	-11.1465
▁미터	-11.147
▁대사	-11.1472
▁검진	-11.1476
향적인	-11.1477
▁놀다가	-11.148
▁못하는데	-11.1482
▁시행	-11.1482
작정	-11.1485
▁그렇죠	-11.1485
▁기준으로	-11.1492
▁공간이	-11.1495
▁극장에서	-11.1499
▁이랬던	-11.1505
▁나중	-11.1508
▁그다지	-11.151
▁한잔	-11.1511
▁어렵게	-11.1523
▁전날	-11.1524
▁땡기	-11.1526
▁용기	-11.1543
▁보이는데	-11.1565
딱	-11.1566
▁환경에서	-11.1569
해주실	-11.1573
▁활동적인	-11.1595
컴	-11.16
▁비티에스	-11.16
▁스트레칭	-11.16
▁이탈리아	-11.16
렉	-11.16
릅	-11.16
▁움직여	-11.16
▁광안리	-11.16
▁골고루	-11.16
▁짜장면	-11.16
▁데려오	-11.1601
▁세월이	-11.1601
▁패턴	-11.1601
▁가르켜	-11.1601
▁서민들	-11.1601
▁염려	-11.1602
▁타인	-11.1602
▁데려다	-11.1602
▁녹음	-11.1604
▁대우	-11.1606
▁병행	-11.1607
▁맘에	-11.1608
▁국방	-11.1612
▁다루는	-11.1613
▁시작할	-11.1613
▁아이한테	-11.1613
▁식감	-11.1614
▁재학	-11.1619
겠습니까	-11.1623
▁복수	-11.163
▁물류	-11.163
▁흐르	-11.1632
▁되겠죠	-11.1632
졌으면	-11.1633
▁위생	-11.1638
▁전통	-11.164
▁현금으로	-11.1651
말로	-11.1652
▁모자	-11.1663
▁됐었는데	-11.1664
▁들여서	-11.1664
▁누구랑	-11.1675
▁그러죠	-11.1679
▁시키면	-11.1692
▁그랬어요	-11.1693
▁피곤하	-11.1697
▁밑에서	-11.1707
이었기	-11.1708
▁줄려고	-11.1708
▁심장	-11.1709
▁부모님들이	-11.1714
묵	-11.1738
아홉	-11.1739
▁계신데	-11.1742
▁얘기하면서	-11.1747
▁트러블이	-11.1749
▁국가대표	-11.1757
▁금붕어	-11.1757
▁믿음	-11.1757
▁빨리빨리	-11.1757
▁인터뷰	-11.1757
▁탄수화물	-11.1757
룩	-11.1757
므	-11.1757
썸	-11.1757
툼	-11.1757
▁부러운	-11.1757
▁조용한	-11.1757
▁오메가	-11.1757
▁좌우	-11.1757
▁신혼여행	-11.1757
▁불쌍하	-11.1757
▁이천십팔	-11.1757
▁방콕	-11.1757
▁평균	-11.1758
▁서핑	-11.1758
▁틀어놓고	-11.176
▁중앙	-11.1762
렸다	-11.1773
▁궁금한데	-11.1774
▁야경	-11.1776
▁반팔	-11.1777
▁해놨	-11.1783
▁계신지	-11.1791
▁방식으로	-11.1792
▁시킨	-11.1792
놔야	-11.1801
▁시계	-11.1805
▁붙이	-11.1809
▁하니깐	-11.1811
▁시간씩	-11.1815
▁웃으면	-11.1821
▁동생한테	-11.1823
▁타러	-11.183
▁가루	-11.1835
▁넘었	-11.1873
▁들어있	-11.1899
버렸어	-11.19
념	-11.1904
▁가벼운	-11.1915
▁무릎이	-11.1915
▁스파게티	-11.1915
랩	-11.1915
▁동호회	-11.1915
▁샌드위치	-11.1915
▁섭섭	-11.1915
▁옮겨	-11.1915
▁찾았	-11.1915
▁꽃다발	-11.1915
▁놀이기구	-11.1915
▁증상이	-11.1916
▁대형견	-11.1917
▁소개팅	-11.1918
써	-11.1919
▁집사람	-11.1921
▁싶었어	-11.1921
▁허락	-11.1922
▁조심해야	-11.1923
▁정착	-11.1923
▁버티	-11.1924
▁유독	-11.1926
▁타격	-11.1928
▁환상	-11.1928
▁십팔	-11.1929
▁동작	-11.193
▁지원금	-11.193
버리니까	-11.1932
▁좋아했어	-11.1938
▁무서워하	-11.1939
▁힘들었어	-11.1941
▁고급	-11.1944
▁살아오	-11.1945
해줘	-11.1947
▁시켜야	-11.1949
▁생각하시는	-11.1952
▁보건	-11.1953
▁돌아왔	-11.1961
▁선택한	-11.1964
▁먹었다	-11.1964
▁도와줄	-11.1969
▁했죠	-11.1976
젠	-11.1985
▁소심하고	-11.1985
모로	-11.1996
▁그렇구나	-11.1997
▁기부	-11.2004
▁있더라	-11.2005
▁다니던	-11.2014
▁사위	-11.2029
▁맛있었어	-11.2042
하시면서	-11.205
▁고수	-11.2052
▁술집	-11.2056
헐	-11.2077
▁버킷리스트	-11.2077
▁복숭아	-11.2077
▁쓸데없	-11.2077
▁외로움	-11.2077
▁펫샵	-11.2077
▁시사회	-11.2077
▁이효리	-11.2077
▁박지성	-11.2077
▁후라이	-11.2077
▁않는다고	-11.2077
▁텐트	-11.2077
▁사귄	-11.208
▁쩡도	-11.208
▁인턴	-11.208
▁골목	-11.208
▁말씀드렸듯	-11.2081
▁빨래	-11.2082
▁보완	-11.2085
▁실현	-11.2085
▁손녀	-11.2087
▁가볼	-11.209
▁회복	-11.2091
▁별거	-11.2095
▁시원하게	-11.2103
▁마감	-11.2103
▁타입이	-11.2106
▁진행되	-11.211
▁받으니까	-11.2112
▁좋아해가지구	-11.2114
▁치마	-11.2122
▁가난	-11.2123
▁갔었어요	-11.2127
▁올라왔	-11.213
▁나오잖아	-11.2132
▁맞았던	-11.2135
▁못했어요	-11.2144
▁부모님께서	-11.2151
▁모집	-11.2152
▁춥지	-11.2156
▁벌어야	-11.2162
▁싫어하는데	-11.2162
▁돼있	-11.2163
▁가든	-11.2188
▁멤버들	-11.2203
▁남편이랑	-11.2205
▁세네	-11.2206
▁부작용이	-11.2211
▁재미있었	-11.2213
텐	-11.2215
▁언제든	-11.2224
댁	-11.2236
▁급한	-11.2236
퀴	-11.2238
럴	-11.224
꽁	-11.2241
햄	-11.2241
▁아나운서	-11.2241
▁심각한	-11.2241
▁지리산	-11.2241
▁클럽	-11.2242
▁멜로	-11.2242
▁체계적	-11.2244
삐	-11.2247
빨	-11.2247
▁듯한	-11.2251
▁화목	-11.2252
▁따운	-11.2256
▁예전보다	-11.2258
▁단순한	-11.2259
▁생활비	-11.2261
▁따뜻하게	-11.2264
▁있으셨	-11.2264
▁정작	-11.2267
▁애들끼리	-11.2267
▁가르쳐주	-11.2273
▁동물원	-11.2276
▁푸들	-11.2276
▁사항	-11.2282
▁덥지	-11.2289
▁전역	-11.2298
▁덥다	-11.23
▁연주	-11.2304
▁해줬으면	-11.2309
▁온다고	-11.2315
▁생활하면서	-11.2321
▁당한	-11.2335
▁드셨	-11.2343
▁들어가니까	-11.2346
닐	-11.2348
▁확률	-11.2349
▁적정	-11.2351
▁감사한	-11.2351
▁커다	-11.2365
▁달리기	-11.2366
▁걔한테	-11.2369
▁사먹	-11.2376
▁어르신	-11.2393
▁고쳐야	-11.2393
▁부담감	-11.2402
아무런	-11.2407
벅	-11.2407
▁향신료	-11.2407
뉘	-11.2407
섰	-11.2407
▁외향적이	-11.2407
▁세입자	-11.2407
▁내성적인	-11.2408
▁행위	-11.241
▁마사지	-11.241
▁연령대	-11.2413
▁그치만	-11.2416
▁작용	-11.2418
▁장기적으로	-11.2421
칼	-11.2423
▁가족들끼리	-11.2424
▁가이드	-11.2427
▁팔천	-11.2428
▁골라	-11.2431
▁낫다고	-11.2431
▁인저	-11.2433
▁급하게	-11.2434
▁년째	-11.2435
▁중이야	-11.2453
▁끼치	-11.2464
▁구분	-11.248
▁젊은이들	-11.2487
▁설명해	-11.2488
▁세트	-11.2489
마저	-11.2495
▁먹었었	-11.2511
▁질리	-11.2516
▁아이들과	-11.2524
▁욕구	-11.2526
▁년간	-11.2533
▁죽기	-11.2533
▁선호하지	-11.2538
▁싫어했	-11.2551
▁요원	-11.2554
하겠다	-11.257
▁김연경	-11.2577
▁드라이브	-11.2577
▁라디오	-11.2577
▁오토바이	-11.2577
▁트라우마	-11.2577
앱	-11.2577
▁고마운	-11.2577
▁즐거워	-11.2577
▁쿠폰	-11.2577
▁객관적	-11.2577
▁쪼그만	-11.2577
▁좌파	-11.2577
▁녀석	-11.2577
▁뻐스	-11.2577
▁미뤄	-11.2578
▁규모	-11.2578
▁토익	-11.2579
드니	-11.2581
▁엘지	-11.2583
▁학습	-11.2586
▁내놓	-11.2586
▁실업	-11.259
▁경계	-11.259
▁많으시	-11.2592
▁즐기면서	-11.2594
핸	-11.2601
▁동거	-11.261
▁예쁘다고	-11.2611
▁인천	-11.2611
▁골라서	-11.2612
▁넘어졌	-11.2614
▁쓰기	-11.2617
▁있겠죠	-11.2618
떼	-11.2619
영화	-11.2626
▁대체로	-11.2628
▁조선	-11.2634
▁와가지구	-11.2636
▁개그	-11.2641
▁관점	-11.2647
▁투수	-11.2652
▁아프면	-11.2669
봐야겠다	-11.2677
▁되죠	-11.2678
▁타자	-11.2687
▁맛있어요	-11.2695
▁파리	-11.2699
▁박사	-11.2709
▁나왔어	-11.2726
멜	-11.2748
▁도깨비	-11.2749
▁병역특례	-11.2749
▁신서유기	-11.2749
▁심석희	-11.2749
▁워터파크	-11.2749
▁프로젝트	-11.2749
뻘	-11.2749
쇄	-11.2749
▁점심시간	-11.275
▁무겁	-11.2753
▁달랐	-11.2755
▁스승	-11.2758
▁거부감	-11.2759
▁친절하게	-11.276
▁드세요	-11.2762
▁왜곡	-11.2768
▁올라와서	-11.277
▁맡아	-11.2772
▁그다음부터	-11.2772
▁해볼려고	-11.2779
벽	-11.2781
열한	-11.2783
▁외우	-11.279
▁나왔었	-11.279
▁울면서	-11.2793
▁말투	-11.2798
▁몰려	-11.2802
▁살림	-11.2805
스크	-11.2805
▁체감	-11.2807
▁그러냐면	-11.2821
▁왔었는데	-11.2821
▁가치관이	-11.2828
머리	-11.2842
▁아프다	-11.2874
▁없었거든요	-11.2877
떨	-11.2878
▁십일월	-11.2878
▁솔직하	-11.2882
▁소심하다	-11.2884
▁다녀보	-11.289
들어본	-11.2894
▁아르바이트생	-11.2895
받았	-11.2904
▁놓치	-11.2918
▁연예	-11.292
믹	-11.2924
밍	-11.2925
▁부딪히	-11.2925
▁비핵화	-11.2925
▁시끄럽	-11.2925
뽈	-11.2925
갱	-11.2925
▁줄넘기	-11.2925
▁자존감	-11.2925
▁아이디어	-11.2925
▁조용히	-11.2925
▁개개인	-11.2925
▁포인트	-11.2925
▁호기심	-11.2925
▁버섯	-11.2925
▁홈트	-11.2926
▁연예계	-11.2926
▁불편해	-11.2926
▁내성적이	-11.2926
▁복싱	-11.2927
▁임대차	-11.2928
▁질환	-11.2928
▁투표	-11.2928
▁일일이	-11.293
▁초록	-11.2931
▁처방	-11.2932
▁임용	-11.2932
▁부산행	-11.2933
▁끌려	-11.2934
▁불고기	-11.2934
▁극우	-11.2936
▁자율	-11.2936
▁들어올	-11.2939
▁뿐이지	-11.2939
▁좋으신	-11.294
▁벌금	-11.294
▁미친	-11.2942
▁출신	-11.2945
▁상업	-11.2946
▁민트	-11.295
▁소재	-11.2952
▁가득	-11.2955
▁순간부터	-11.2964
▁좋았습니다	-11.2972
▁화상	-11.2973
▁내려놓	-11.2987
▁되겠지만	-11.2989
▁여성분들	-11.2993
▁동화	-11.3007
▁생산자	-11.302
▁지점	-11.3026
▁합쳐	-11.3047
▁힘들었는데	-11.3053
▁좋았었	-11.3069
▁날리	-11.307
▁많아졌	-11.3074
스토	-11.3077
렸어	-11.3078
▁궁금	-11.3079
▁프로그램들	-11.3081
▁우주	-11.3086
▁타입	-11.3092
켰	-11.3098
겐	-11.3103
▁스케줄	-11.3103
▁허벅지	-11.3103
녕	-11.3103
드립니다	-11.3103
벨	-11.3103
즙	-11.3103
▁하루하루	-11.3103
▁에어콘	-11.3103
▁활발한	-11.3103
▁병아리	-11.3103
▁트롯	-11.3104
▁바쁜	-11.3105
▁불편했	-11.3105
▁서비스직	-11.3108
린데	-11.3112
▁씨씨	-11.3112
▁아버지께서	-11.3112
▁물어볼	-11.3118
▁차분하	-11.3119
▁대접	-11.3121
▁기후	-11.3122
▁됐는지	-11.3129
▁키웠었는데	-11.3129
▁하길래	-11.313
▁더워지	-11.3134
였는지	-11.3134
▁일억	-11.3135
▁틀려	-11.3136
▁중계	-11.3137
▁한마디로	-11.3137
▁작성	-11.3138
▁자살	-11.314
▁약국	-11.3141
▁싫어해요	-11.3143
졌어요	-11.3145
▁사월	-11.3147
▁반반	-11.3152
부턴	-11.3171
▁쓴다	-11.3173
▁적용	-11.3176
▁곳인데	-11.3198
▁가져야	-11.3226
▁넘치	-11.3227
놔서	-11.3227
▁썼던	-11.3234
▁도전해	-11.3276
▁여건	-11.3277
▁메가박스	-11.3285
▁뭘까	-11.3285
▁박보검	-11.3285
▁친정엄마	-11.3285
▁패스트푸드	-11.3285
▁학창시절	-11.3285
뱅	-11.3285
앗	-11.3285
▁건강식품	-11.3285
▁뚱뚱	-11.3285
▁유일하게	-11.3285
▁샤워	-11.3285
▁편안한	-11.3285
▁쌀국수	-11.3286
▁답변	-11.3286
▁올라간	-11.3289
▁미스터	-11.329
▁터키	-11.329
▁무엇인지	-11.329
▁착용	-11.3291
▁집착	-11.3297
▁예민하	-11.3297
▁통계	-11.3301
▁양쪽	-11.3301
▁불매	-11.3311
▁지내다	-11.3312
▁이겨내	-11.3315
▁반영	-11.3317
▁하셨는지	-11.3319
▁가깝게	-11.3323
▁외동	-11.3326
▁부위	-11.3327
▁이십오	-11.333
▁명품	-11.3331
▁나왔어요	-11.3343
털	-11.3343
▁메시	-11.3349
▁나왔으면	-11.3354
▁좋아질	-11.3357
▁돌아가신	-11.3381
딜	-11.3384
▁심사	-11.3394
▁진지하	-11.3415
▁심해서	-11.3428
▁지나가다	-11.3436
보시고	-11.3453
월달에	-11.3453
▁기념	-11.3468
▁마케팅	-11.347
꿉	-11.347
▁강동원	-11.347
▁변호사	-11.347
▁웨딩	-11.347
▁좌절	-11.347
우러	-11.3471
▁견디	-11.3471
▁낭비	-11.3471
▁지난번에	-11.3471
▁렌트	-11.3472
▁봉투	-11.3472
▁흐름	-11.3473
▁민족	-11.3474
▁기다렸	-11.3475
▁배워보고	-11.3475
▁불렀	-11.3476
▁배변	-11.3477
▁유월	-11.348
▁생긴다면	-11.3483
▁되시나요	-11.3483
▁비율	-11.3486
▁모르겠습니다	-11.349
▁확신	-11.3504
▁필요하지	-11.3505
▁써주	-11.3505
▁계주	-11.3508
하네요	-11.351
▁여자친구랑	-11.3515
▁있듯	-11.3522
▁모래	-11.3527
쇼	-11.3535
▁꼬리	-11.3538
▁크리스	-11.3554
콩	-11.3561
▁설치	-11.3561
▁다녀왔는데	-11.359
▁유행하는	-11.359
▁얘기들	-11.3591
이신데	-11.3622
▁드려	-11.3634
▁잡혀	-11.3649
▁입맛	-11.3649
섭	-11.3652
▁로맨틱	-11.3659
▁아프리카	-11.3659
▁인스턴트	-11.3659
▁조정석	-11.3659
쩜	-11.3659
쵸	-11.3659
▁쿠팡	-11.3659
▁고등어	-11.3659
▁킹덤	-11.3659
▁가심비	-11.3659
▁친해질	-11.3659
▁사귈	-11.3659
▁확실한	-11.3659
▁국회의원	-11.3659
▁소중한	-11.3659
▁근래에	-11.3659
▁베풀	-11.3659
천오백	-11.366
▁기쁘	-11.366
▁기획	-11.3662
▁서운하	-11.3662
▁실험	-11.3663
▁특성상	-11.3665
▁충실	-11.367
▁노년	-11.3672
▁뜯어	-11.3674
▁연기력	-11.3679
▁하나님	-11.3681
▁비하면	-11.3683
▁동계	-11.3683
▁육천	-11.3684
▁인종	-11.3685
▁다녔어요	-11.3694
▁느꼈어요	-11.3697
▁갔거든	-11.3702
▁행복했	-11.3705
▁않더라	-11.3709
▁대외	-11.3717
했는지	-11.3722
▁코치	-11.3725
▁신랑이랑	-11.3732
▁완성	-11.3734
깔	-11.3734
강하게	-11.3734
학원	-11.374
멍	-11.3745
앉	-11.3745
▁발생하	-11.3747
▁떨어	-11.3763
▁기존	-11.3798
▁보관	-11.3805
밑	-11.3845
▁대중교통	-11.3851
▁서바이벌	-11.3851
▁서프라이즈	-11.3851
뎅	-11.3851
돕	-11.3851
렛	-11.3851
빤	-11.3851
▁부드럽	-11.3851
깍	-11.3851
뭇	-11.3851
▁전반적으로	-11.3851
▁만만치	-11.3851
▁둘러보	-11.3852
▁아시아	-11.3852
▁데려왔	-11.3852
▁떨어질	-11.3855
▁살아왔	-11.3859
▁있음	-11.3859
▁구월	-11.3866
▁하튼	-11.3883
▁전망	-11.3895
▁집행	-11.3896
▁나왔었는데	-11.3896
▁실화	-11.3899
시겠어요	-11.3904
▁분석	-11.3907
▁부족하다	-11.3908
▁코트	-11.3923
▁편이었는데	-11.3935
▁피해자	-11.3937
하시나요	-11.3958
▁챙겨먹	-11.398
본인들이	-11.398
▁일어나면	-11.4005
▁조카들	-11.4006
▁학점	-11.4028
뜯	-11.4031
▁흔하	-11.4032
해진다	-11.4034
뚱	-11.4047
튜	-11.4047
▁결혼기념일	-11.4047
▁동유럽	-11.4047
▁롯데월드	-11.4047
▁류준열	-11.4047
▁멀어지	-11.4047
▁설악산	-11.4047
▁아이언맨	-11.4047
▁외할머니	-11.4047
▁컨디션	-11.4047
▁케이블카	-11.4047
▁프리랜서	-11.4047
릏	-11.4047
볕	-11.4047
쿵	-11.4047
템	-11.4047
▁무거운	-11.4047
▁노하우	-11.4047
▁돌이켜	-11.4047
▁오사카	-11.4047
▁중성화	-11.4047
▁불가능	-11.4047
▁의향이	-11.4047
▁일어난	-11.4047
▁티브이	-11.4048
▁고마웠	-11.4048
▁어딘가	-11.4048
▁관광객	-11.4048
▁관객	-11.4048
▁관찰	-11.4049
▁추천해주실	-11.4049
▁중고등학교	-11.405
▁권유	-11.4053
▁단골	-11.4054
▁감각	-11.4056
▁화학	-11.4062
▁딸아이	-11.4064
깨	-11.4064
▁보편적	-11.4066
▁빨라	-11.4068
▁지낸	-11.4074
▁볼거리	-11.4086
▁동료	-11.4092
▁보냈는데	-11.4097
▁무용	-11.4102
▁봐왔	-11.4113
▁주시면	-11.4113
라기보다	-11.4143
렵	-11.4156
▁놀기	-11.4184
▁버거	-11.4201
▁맞춰주	-11.4216
▁필요성	-11.4223
▁중점	-11.4227
▁나갔다	-11.4241
▁눈싸움	-11.4247
▁닭가슴살	-11.4247
▁독거노인	-11.4247
▁메이저리그	-11.4247
▁삼시세끼	-11.4247
앵	-11.4247
엣	-11.4247
츄	-11.4247
▁대리만족	-11.4247
▁소확행	-11.4247
▁체육대회	-11.4247
▁쌍둥이	-11.4247
▁바탕으로	-11.4247
▁드러나	-11.4247
▁복잡하	-11.4248
▁코믹	-11.4248
▁시국이	-11.425
▁올라온	-11.425
▁식탁	-11.4251
님께서	-11.4251
▁업종	-11.4251
▁사장님께서	-11.4251
▁뛰어난	-11.4253
▁두렵	-11.4255
▁대응	-11.4255
▁꾸며	-11.4255
▁애매하	-11.4256
▁직관	-11.4261
▁순천	-11.4265
▁지루하	-11.4269
▁그러시면	-11.4274
▁소유	-11.4275
▁작아	-11.4276
▁옆집	-11.4282
▁아쉽긴	-11.4288
▁다행인	-11.4289
▁계셨는데	-11.43
으십니까	-11.4313
▁태워	-11.4329
▁바닷	-11.4339
▁선정	-11.4344
응	-11.4351
큰	-11.4371
▁터치	-11.4375
김치	-11.4396
▁찾아볼	-11.44
▁드셔	-11.4426
▁아르바이	-11.4448
▁미세먼지	-11.4451
▁파충류	-11.4451
▁호캉스	-11.4451
▁라오스	-11.4451
▁이병헌	-11.4451
▁포지션	-11.4451
▁몽골	-11.4451
▁부지런	-11.4451
▁보양식	-11.4452
▁평범하	-11.4453
▁돈가스	-11.4455
▁수시로	-11.4457
▁녹차	-11.4459
▁사이코	-11.446
▁글씨	-11.4461
▁언제쯤	-11.4461
문입니다	-11.4467
▁들드라고	-11.4476
▁편입	-11.4481
▁있지마는	-11.4485
▁있느냐	-11.4488
▁가시면	-11.4491
▁설정	-11.4492
▁심했	-11.4498
▁않겠다	-11.4503
▁지켜야	-11.4527
▁건강해지	-11.456
▁졸업식	-11.4561
▁요번	-11.4578
놨다가	-11.4621
▁영환	-11.4636
▁힘들기	-11.4639
▁임차	-11.4645
▁아줌마	-11.4651
▁끊임없	-11.466
▁뚜레쥬르	-11.466
▁부끄럽	-11.466
▁붕어빵	-11.466
▁아닙니다	-11.466
▁이엔에프피	-11.466
륜	-11.466
빽	-11.466
쩐	-11.466
▁성취감	-11.466
▁사회복지	-11.466
▁서예지	-11.466
▁핑계	-11.466
▁히어로	-11.466
걸음	-11.466
▁유적지	-11.466
▁철저하	-11.4662
▁생크림	-11.4662
▁등록금	-11.4662
▁공기업	-11.4662
▁웃겨	-11.4665
▁넘어갈	-11.4666
▁있으셨나요	-11.4667
▁단기간	-11.4667
이랄까	-11.467
▁부정적으로	-11.467
▁직업군	-11.4672
▁수명이	-11.4672
▁진출	-11.4672
▁육십오	-11.4677
▁피겨	-11.4683
▁보시나요	-11.4685
▁자식들한테	-11.4685
▁소름	-11.4687
▁다녔었는데	-11.4691
▁집안일	-11.4694
▁공개	-11.4695
▁간절	-11.4696
▁시작하면서	-11.4719
▁자영업	-11.4754
웨	-11.4764
많	-11.4805
고등학교	-11.4808
▁팔았	-11.4826
▁추웠	-11.4857
▁노트북	-11.4872
▁뜨거운	-11.4872
▁핸드메이드	-11.4872
럿	-11.4872
맷	-11.4872
▁육체적으로	-11.4872
▁먹으려고	-11.4872
▁블랙	-11.4872
▁자존심	-11.4872
▁저출산	-11.4872
▁남포동	-11.4872
그든요	-11.4873
▁밴드	-11.4873
▁무너지	-11.4873
▁연령	-11.4875
▁말씀해주실	-11.4875
▁날씬	-11.4876
▁더불어	-11.4878
▁받으신	-11.4878
▁담양	-11.4888
▁교양	-11.4889
▁서류	-11.489
▁만들었다	-11.4898
▁교감	-11.4905
▁상호	-11.4912
▁이쁘다	-11.4919
▁없을까	-11.4937
▁나아가	-11.4948
▁마셔	-11.4971
▁꾸워	-11.4972
▁가보셨	-11.4994
▁리더	-11.4995
참	-11.4999
▁싫어한다	-11.5043
분들이랑	-11.5052
사이드	-11.507
팽	-11.509
▁다큐멘터리	-11.509
▁더더욱	-11.509
▁리조트	-11.509
▁미스터트롯	-11.509
▁아이엠에프	-11.509
▁코메디	-11.509
괄	-11.509
뮤	-11.509
융	-11.509
▁건강검진	-11.509
▁똑똑하	-11.509
▁불편함	-11.509
▁금요일	-11.509
▁교과서	-11.509
▁애매한	-11.509
▁잔인한	-11.509
▁숙박	-11.509
▁마주치	-11.509
▁덩치	-11.5091
▁모른다	-11.5091
▁소개시켜	-11.5092
▁면허	-11.5092
▁슬슬	-11.5093
▁위협	-11.5093
▁활약	-11.5097
▁예민해	-11.5098
▁태양	-11.5099
▁채용	-11.5101
▁백숙	-11.5103
▁영역	-11.5106
▁조합	-11.5113
▁타고난	-11.5114
▁찾아봤는데	-11.5115
▁붙어있	-11.512
▁서면에	-11.5132
▁신기해	-11.5137
▁나오시	-11.5145
▁체제	-11.5148
▁알려줄	-11.5168
▁독감	-11.5172
▁차지하	-11.5189
▁죄송하	-11.5192
▁했대	-11.5221
떤	-11.5226
▁찾아오	-11.5227
▁외국인들	-11.5228
▁욱하	-11.5263
▁올라와	-11.5298
둑	-11.5305
▁영향력	-11.5309
뇨	-11.5311
▁디자이너	-11.5312
▁안타까웠	-11.5312
▁프로듀스	-11.5312
뜰	-11.5312
붕	-11.5312
뿔	-11.5312
샷	-11.5312
팥	-11.5312
▁트렌드	-11.5312
▁장현수	-11.5312
▁델꼬	-11.5312
▁하정우	-11.5312
▁아구찜	-11.5312
▁칼로리	-11.5312
▁살아있다	-11.5312
▁리뷰	-11.5312
▁부러웠	-11.5313
▁안락사	-11.5313
▁선뜻	-11.5313
▁쩌기	-11.5314
▁레슨	-11.5314
▁감사합니다	-11.5314
▁충족	-11.5315
▁외로워	-11.5315
▁꾸준하	-11.5315
▁춤추	-11.5316
▁간섭	-11.5317
▁내려왔	-11.5317
▁미안해	-11.5318
▁마음속에	-11.532
▁머물	-11.532
▁속초	-11.5321
▁상승	-11.5323
▁사이버	-11.5323
▁소독	-11.5326
▁센치	-11.5328
▁있으니깐	-11.533
▁보충	-11.5331
▁결심	-11.5333
▁인격	-11.5334
▁보호소	-11.5335
▁조작	-11.5336
▁재밌겠다	-11.5338
▁따뜻하	-11.5349
▁혼내	-11.5369
▁시켜먹	-11.5394
▁있으까	-11.5426
▁갖다주	-11.5469
▁변했	-11.5475
섯	-11.5503
▁보인다	-11.5505
▁가능하다	-11.5525
▁겨울왕국	-11.5539
▁뉴질랜드	-11.5539
▁스테이크	-11.5539
▁양배추	-11.5539
▁탕수육	-11.5539
샘	-11.5539
▁비혼주의	-11.5539
▁호날두	-11.5539
▁아무렇지	-11.5539
▁정주행	-11.5539
놀	-11.5646
몇	-11.5747
춤	-11.5752
냄	-11.5772
삿	-11.5772
췄	-11.5772
탱	-11.5772
폼	-11.5772
밤	-11.6002
획	-11.6006
씬	-11.6006
딘	-11.6008
낀	-11.6009
멈	-11.601
굿	-11.601
랭	-11.601
맣	-11.601
빚	-11.601
뽁	-11.601
샌	-11.601
셜	-11.601
윙	-11.601
낑	-11.601
갖	-11.6149
끝	-11.6247
슴	-11.6248
최	-11.625
껌	-11.6254
쁜	-11.6445
쨌	-11.6504
랙	-11.6504
닉	-11.6504
팟	-11.6504
농	-11.6508
졸	-11.6521
쭉	-11.6522
셰	-11.676
냅	-11.676
캣	-11.676
삽	-11.676
줏	-11.676
짚	-11.676
쬐	-11.676
첩	-11.676
칩	-11.676
킴	-11.676
꾹	-11.7023
댔	-11.7023
탬	-11.7023
텀	-11.7023
헝	-11.7023
몸	-11.7067
꼼	-11.7293
팝	-11.7293
꿍	-11.7294
찼	-11.7294
컥	-11.7294
툭	-11.7294
캐	-11.7353
헬	-11.757
밴	-11.7571
갠	-11.7571
덧	-11.7571
솥	-11.7571
홍	-11.7641
릉	-11.7855
왼	-11.7856
넥	-11.7857
겄	-11.7857
팍	-11.7857
쇠	-11.7857
폴	-11.796
픈	-11.8113
걱	-11.8151
윈	-11.8151
뼈	-11.8265
헤	-11.8265
돔	-11.8454
랴	-11.8454
땡	-11.8586
똥	-11.8587
녔	-11.8738
롯	-11.876
즌	-11.8762
콕	-11.8765
밋	-11.8767
껄	-11.8767
딧	-11.8767
뻑	-11.8767
쉐	-11.8767
쩡	-11.9082
낄	-11.9089
앨	-11.9089
쑤	-11.9089
잣	-11.9089
곽	-11.9089
꼿	-11.9089
콧	-11.9089
떠	-11.9172
뜻	-11.9262
꼽	-11.9266
꿈	-11.9267
힘	-11.9267
뭐	-11.9267
뷰	-11.9422
댓	-11.9423
텨	-11.9423
갯	-11.9423
킥	-11.9423
첨	-11.9621
젤	-11.9623
딴	-11.9623
펫	-11.9768
늑	-11.9768
뜸	-11.9768
뽕	-11.9768
셋	-11.9993
캡	-12.0125
낌	-12.0495
쉽	-12.0745
싹	-12.0776
멸	-12.0879
넘	-12.1195
짤	-12.1203
슐	-12.128
탠	-12.128
흐	-12.1625
빼	-12.1626
얘	-12.1627
총	-12.163
볍	-12.1696
쁘	-12.2069
꿀	-12.2081
뇌	-12.2083
찢	-12.212
땜	-12.2128
솜	-12.2131
넌	-12.2561
뱃	-12.2586
갤	-12.2586
쥬	-12.2586
샐	-12.2586
깝	-12.3026
찍	-12.3043
팁	-12.3059
꼴	-12.306
쩔	-12.3476
똘	-12.3562
룹	-12.3957
뤄	-12.4049
뢰	-12.4086
펑	-12.4088
젝	-12.4088
땅	-12.4135
썩	-12.4141
꼭	-12.4143
듣	-12.4144
않	-12.4718
귄	-12.522
얌	-12.5232
벳	-12.5232
캉	-12.5232
봄	-12.5353
혐	-12.5856
뷔	-12.6515
얀	-12.6516
봇	-12.6522
벗	-12.6729
핫	-12.6729
휘	-12.6733
슷	-12.7236
낙	-12.7502
쎈	-12.7504
싶	-12.7504
깊	-12.7504
곧	-12.7505
뎌	-12.8007
쎄	-12.8337
겸	-12.8338
썼	-12.8339
쪼	-12.8339
쁨	-12.8837
왓	-12.8841
핵	-12.9244
덥	-12.9246
쥐	-12.9247
뻔	-12.9248
땀	-12.9248
쌤	-12.9248
녁	-12.9735
녹	-13.0241
즉	-13.0246
쏘	-13.0247
앞	-13.0248
좀	-13.0249
닷	-13.0747
룻	-13.075
펠	-13.075
훨	-13.075
싼	-13.1353
끗	-13.186
닫	-13.2608
닙	-13.3111
엇	-13.4033
렷	-13.4539
볶	-13.5692
쓴	-13.5702
쪄	-13.5704
쩨	-13.6206
춧	-13.6206
룽	-13.6206
굽	-14.0204
쌓	-14.0206
홉	-14.067
맙	-14.0703
쫌	-14.3542
떻	-14.3953
뀐	-14.4037
꼰	-14.4039
셉	-14.4039
깥	-14.9037
큘	-14.9039
낫	-15.8564
옆	-15.8575
걍	-15.8575
쟤	-15.8575
캄	-15.8832
촛	-15.8833
쫀	-15.8834
숟	-15.8835
뱉	-15.8836
맏	-15.8837
듦	-15.8838
눅	-15.8839
퉁	-15.884
캘	-15.8841
틸	-15.8842
텃	-15.8843
씌	-15.8844
썪	-15.8845
뵈	-15.8846
랗	-15.8847
쉰	-15.8848
껑	-15.8849
흙	-15.885
쌔	-15.8851
헷	-15.8852
틋	-15.8853
얗	-15.8854
횡	-15.8855
멧	-15.8856
헛	-15.8857
뺐	-15.8858
슘	-15.8859
샹	-15.886
긁	-15.8861
훔	-15.8862
괌	-15.8863
탓	-15.8864
쌂	-15.8865
쏙	-15.8866
챔	-15.8867
잦	-15.8868
몫	-15.8869
깻	-15.887
씁	-15.8871
밸	-15.8872
펀	-15.8873
붐	-15.8874
힙	-15.8875
쫍	-15.8876
뺄	-15.8877
뵙	-15.8878
퀄	-15.8879
얽	-15.888
쐬	-15.8881
꼐	-15.8882
쨍	-15.8883
쌌	-15.8884
갇	-15.8885
뭣	-15.8886
뚫	-15.8887
껍	-15.8888
잌	-15.8889
닦	-15.889
풋	-15.8891
얹	-15.8892
픔	-15.8893
빴	-15.8894
땄	-15.8895
펙	-15.8896
곁	-15.8897
쿄	-15.8898
쌈	-15.8899
쿼	-15.89
펐	-15.8901
킷	-15.8902
엊	-15.8903
쏠	-15.8904
횟	-15.8905
좁	-15.8906
얇	-15.8907
툰	-15.8908
늫	-15.8909
뀔	-15.891
묶	-15.8911
뤘	-15.8912
맺	-15.8913
넉	-15.8914
뺀	-15.8915
굶	-15.8916
듀	-15.8917
톱	-15.8918
숍	-15.8919
멕	-15.892
깎	-15.8921
톰	-15.8922
옳	-15.8923
뺏	-15.8924
잤	-15.8925
엎	-15.8926
귤	-15.8927
빔	-15.8928
숫	-15.8929
씹	-15.893
짖	-15.8931
돗	-15.8932
쌩	-15.8933
륭	-15.8934
꽂	-15.8935
쫄	-15.8936
눌	-15.8937
웹	-15.8938
젖	-15.8939
짠	-15.894
밟	-15.8941
쫙	-15.8942
쏟	-15.8943
띄	-15.8944
맑	-15.8945
덮	-15.8946
펼	-15.8947
짬	-15.8948
앓	-15.8949
빅	-15.895
찝	-15.8951
꿨	-15.8952
뻤	-15.8953
섞	-15.8954
낯	-15.8955
낚	-15.8956
뭉	-15.8957
딪	-15.8958
늙	-15.8959
뱀	-15.896
촬	-15.8961
흡	-15.8962
햇	-15.8963
옮	-15.8964
릎	-15.8965
겉	-15.8966
팠	-15.8967
씻	-15.8968
썰	-15.8969
땠	-15.897
봅	-15.8971
탔	-15.8972
왠	-15.8973
쫓	-15.8974
됩	-15.8975
닿	-15.8976
묻	-15.8977
밝	-15.8978
멤	-15.8979
잃	-15.898
샀	-15.8981
뒷	-15.8982
엑	-15.8983
랫	-15.8984
덟	-15.8985
컸	-15.8986
벚	-15.8987
꿔	-15.8988
눠	-15.8989
퓨	-15.899
쭤	-15.8991
넓	-15.8992
잊	-15.8993
닮	-15.8994
줍	-15.8995
웬	-15.8996
듭	-15.8997
숨	-15.8998
꽤	-15.8999
뽑	-15.9
겪	-15.9001
읽	-15.9002
낮	-15.9003
믿	-15.9004
끊	-15.9005
짧	-15.9006
얻	-15.9007
꼈	-15.9008
삶	-15.9009
걷	-15.901
멀	-15.9011
늦	-15.9012
멋	-15.9013
뛰	-15.9014
뀌	-15.9015
굳	-15.9016
높	-15.9017
낳	-15.9018
첫	-15.9019
젊	-15.902
뭘	-15.9021
뒤	-15.9022
넣	-15.9023
걔	-15.9024
챙	-15.9025
옛	-15.9026
괜	-15.9027
귈	-15.9028
찮	-15.9028
씀	-15.9029
찾	-15.903
싫	-15.9031
밌	-15.9032
뭔	-15.9033
왜	-15.9034
굉	-15.9035
혹	-15.9036
못	-15.9037
없	-15.9038
좋	-15.9039
챠	-15.9039
